{
  "version": "1.0",
  "truncation": null,
  "padding": {
    "strategy": "BatchLongest",
    "direction": "Right",
    "pad_to_multiple_of": null,
    "pad_id": 2,
    "pad_type_id": 0,
    "pad_token": "[pad]"
  },
  "added_tokens": [
    {
      "id": 0,
      "content": "[start]",
      "single_word": false,
      "lstrip": false,
      "rstrip": false,
      "normalized": false,
      "special": true
    },
    {
      "id": 1,
      "content": "[end]",
      "single_word": false,
      "lstrip": false,
      "rstrip": false,
      "normalized": false,
      "special": true
    },
    {
      "id": 2,
      "content": "[pad]",
      "single_word": false,
      "lstrip": false,
      "rstrip": false,
      "normalized": false,
      "special": true
    }
  ],
  "normalizer": null,
  "pre_tokenizer": {
    "type": "ByteLevel",
    "add_prefix_space": true,
    "trim_offsets": true,
    "use_regex": true
  },
  "post_processor": null,
  "decoder": {
    "type": "ByteLevel",
    "add_prefix_space": true,
    "trim_offsets": true,
    "use_regex": true
  },
  "model": {
    "type": "BPE",
    "dropout": null,
    "unk_token": null,
    "continuing_subword_prefix": null,
    "end_of_word_suffix": null,
    "fuse_unk": false,
    "byte_fallback": false,
    "ignore_merges": false,
    "vocab": {
      "[start]": 0,
      "[end]": 1,
      "[pad]": 2,
      "!": 3,
      "\"": 4,
      "$": 5,
      "%": 6,
      "&": 7,
      "'": 8,
      "(": 9,
      ")": 10,
      "+": 11,
      ",": 12,
      "-": 13,
      ".": 14,
      "/": 15,
      "0": 16,
      "1": 17,
      "2": 18,
      "3": 19,
      "4": 20,
      "5": 21,
      "6": 22,
      "7": 23,
      "8": 24,
      "9": 25,
      ":": 26,
      ";": 27,
      "?": 28,
      "a": 29,
      "b": 30,
      "c": 31,
      "d": 32,
      "e": 33,
      "f": 34,
      "g": 35,
      "h": 36,
      "i": 37,
      "j": 38,
      "k": 39,
      "l": 40,
      "m": 41,
      "n": 42,
      "o": 43,
      "p": 44,
      "q": 45,
      "r": 46,
      "s": 47,
      "t": 48,
      "u": 49,
      "v": 50,
      "w": 51,
      "x": 52,
      "y": 53,
      "z": 54,
      "¡": 55,
      "£": 56,
      "©": 57,
      "ª": 58,
      "¬": 59,
      "°": 60,
      "³": 61,
      "¼": 62,
      "Â": 63,
      "Ã": 64,
      "Ä": 65,
      "â": 66,
      "Ġ": 67,
      "Ģ": 68,
      "Ĥ": 69,
      "į": 70,
      "ĺ": 71,
      "Ļ": 72,
      "Ġt": 73,
      "Ġi": 74,
      "he": 75,
      "Ġa": 76,
      "Ġw": 77,
      "Ġto": 78,
      "ou": 79,
      "Ġs": 80,
      "re": 81,
      "Ġm": 82,
      "in": 83,
      "Ġthe": 84,
      "ha": 85,
      "Ġd": 86,
      "Ġy": 87,
      "Ġyou": 88,
      "on": 89,
      "Ġb": 90,
      "Ġc": 91,
      "ve": 92,
      "Ġf": 93,
      "Ġl": 94,
      "ing": 95,
      "Ġtom": 96,
      "an": 97,
      "ed": 98,
      "is": 99,
      "Ġhe": 100,
      "or": 101,
      "Ġp": 102,
      "ll": 103,
      "en": 104,
      "er": 105,
      "ar": 106,
      "Ġg": 107,
      "Ġh": 108,
      "Ġn": 109,
      "Ġha": 110,
      "'t": 111,
      "Ġis": 112,
      "hat": 113,
      "as": 114,
      "Ġo": 115,
      "es": 116,
      "Ġth": 117,
      "Ġdo": 118,
      "it": 119,
      "om": 120,
      "at": 121,
      "ow": 122,
      "Ġin": 123,
      "ot": 124,
      "et": 125,
      "Ġit": 126,
      "ay": 127,
      "Ġwe": 128,
      "le": 129,
      "Ġe": 130,
      "Ġbe": 131,
      "Ġan": 132,
      "'s": 133,
      "Ġof": 134,
      "Ġthat": 135,
      "id": 136,
      "ld": 137,
      "us": 138,
      "ke": 139,
      "ver": 140,
      "Ġme": 141,
      "Ġwas": 142,
      "oo": 143,
      "Ġst": 144,
      "Ġon": 145,
      "ic": 146,
      "im": 147,
      "Ġli": 148,
      "Ġhave": 149,
      "gh": 150,
      "Ġthis": 151,
      "Ġmy": 152,
      "Ġfor": 153,
      "Ġre": 154,
      "ant": 155,
      "Ġk": 156,
      "Ġdon": 157,
      "ch": 158,
      "Ġcan": 159,
      "Ġwhat": 160,
      "Ġr": 161,
      "al": 162,
      "Ġwant": 163,
      "ght": 164,
      "Ġne": 165,
      "Ġmar": 166,
      "st": 167,
      "Ġare": 168,
      "Ġgo": 169,
      "Ġyour": 170,
      "ad": 171,
      "un": 172,
      "Ġshe": 173,
      "ould": 174,
      "out": 175,
      "ent": 176,
      "Ġkn": 177,
      "ome": 178,
      "se": 179,
      "Ġmary": 180,
      "Ġdid": 181,
      "Ġwh": 182,
      "Ġwit": 183,
      "'m": 184,
      "Ġwith": 185,
      "Ġnot": 186,
      "her": 187,
      "very": 188,
      "ut": 189,
      "ly": 190,
      "Ġhis": 191,
      "Ġknow": 192,
      "ri": 193,
      "Ġat": 194,
      "ill": 195,
      "am": 196,
      "ter": 197,
      "Ġas": 198,
      "ac": 199,
      "Ġse": 200,
      "Ġj": 201,
      "all": 202,
      "Ġlike": 203,
      "ir": 204,
      "ion": 205,
      "Ġand": 206,
      "one": 207,
      "hing": 208,
      "Ġwhe": 209,
      "ook": 210,
      "Ġab": 211,
      "Ġsh": 212,
      "pp": 213,
      "ain": 214,
      "ink": 215,
      "ur": 216,
      "Ġthere": 217,
      "ore": 218,
      "'re": 219,
      "ust": 220,
      "ce": 221,
      "op": 222,
      "Ġtr": 223,
      "Ġhim": 224,
      "ight": 225,
      "Ġte": 226,
      "Ġwor": 227,
      "ake": 228,
      "up": 229,
      "Ġthey": 230,
      "Ġany": 231,
      "Ġal": 232,
      "ro": 233,
      "'ll": 234,
      "Ġhas": 235,
      "Ġus": 236,
      "end": 237,
      "Ġtim": 238,
      "Ġso": 239,
      "ak": 240,
      "Ġle": 241,
      "Ġhow": 242,
      "Ġher": 243,
      "ood": 244,
      "Ġthink": 245,
      "Ġall": 246,
      "Ġno": 247,
      "Ġget": 248,
      "Ġpl": 249,
      "Ġdoes": 250,
      "han": 251,
      "Ġtime": 252,
      "ct": 253,
      "Ġsp": 254,
      "il": 255,
      "Ġvery": 256,
      "ren": 257,
      "Ġhere": 258,
      "Ġwill": 259,
      "Ġsee": 260,
      "Ġdidn": 261,
      "day": 262,
      "ong": 263,
      "Ġun": 264,
      "Ġhad": 265,
      "'ve": 266,
      "ble": 267,
      "Ġup": 268,
      "Ġabout": 269,
      "Ġfr": 270,
      "ost": 271,
      "ive": 272,
      "ul": 273,
      "Ġevery": 274,
      "Ġout": 275,
      "Ġsu": 276,
      "ast": 277,
      "ge": 278,
      "Ġsa": 279,
      "ind": 280,
      "fe": 281,
      "Ġex": 282,
      "Ġwho": 283,
      "red": 284,
      "oun": 285,
      "and": 286,
      "Ġone": 287,
      "ame": 288,
      "Ġneed": 289,
      "Ġde": 290,
      "our": 291,
      "ase": 292,
      "Ġwhen": 293,
      "Ġfe": 294,
      "Ġif": 295,
      "Ġlet": 296,
      "ry": 297,
      "ist": 298,
      "Ġsome": 299,
      "Ġwould": 300,
      "Ġlook": 301,
      "Ġgoing": 302,
      "est": 303,
      "art": 304,
      "Ġch": 305,
      "Ġwhy": 306,
      "Ġman": 307,
      "alk": 308,
      "Ġfrom": 309,
      "Ġtoo": 310,
      "ally": 311,
      "Ġwere": 312,
      "Ġcom": 313,
      "ought": 314,
      "Ġcould": 315,
      "ice": 316,
      "Ġhel": 317,
      "Ġthan": 318,
      "Ġlo": 319,
      "Ġgood": 320,
      "der": 321,
      "ol": 322,
      "Ġhapp": 323,
      "Ġwork": 324,
      "ack": 325,
      "ays": 326,
      "ie": 327,
      "qu": 328,
      "Ġhelp": 329,
      "Ġdoesn": 330,
      "thing": 331,
      "ate": 332,
      "Ġple": 333,
      "Ġby": 334,
      "ave": 335,
      "ess": 336,
      "dy": 337,
      "ers": 338,
      "ep": 339,
      "ap": 340,
      "Ġcome": 341,
      "Ġshould": 342,
      "Ġcar": 343,
      "other": 344,
      "Ġplease": 345,
      "Ġwhere": 346,
      "Ġeat": 347,
      "ish": 348,
      "Ġcl": 349,
      "Ġjust": 350,
      "Ġag": 351,
      "Ġcon": 352,
      "ree": 353,
      "Ġen": 354,
      "Ġsom": 355,
      "Ġtell": 356,
      "el": 357,
      "Ġbut": 358,
      "ss": 359,
      "Ġnow": 360,
      "Ġsomet": 361,
      "if": 362,
      "Ġv": 363,
      "Ġbeen": 364,
      "Ġmore": 365,
      "lf": 366,
      "uch": 367,
      "Ġam": 368,
      "Ġco": 369,
      "ig": 370,
      "Ġac": 371,
      "Ġar": 372,
      "ation": 373,
      "Ġjo": 374,
      "ort": 375,
      "ck": 376,
      "Ġask": 377,
      "Ġpe": 378,
      "wn": 379,
      "Ġint": 380,
      "row": 381,
      "Ġhome": 382,
      "ous": 383,
      "Ġnever": 384,
      "Ġaf": 385,
      "ite": 386,
      "Ġbook": 387,
      "Ġgot": 388,
      "Ġtalk": 389,
      "riend": 390,
      "Ġpro": 391,
      "Ġro": 392,
      "Ġspe": 393,
      "um": 394,
      "Ġtake": 395,
      "Ġmuch": 396,
      "Ġwr": 397,
      "Ġqu": 398,
      "'d": 399,
      "ine": 400,
      "ather": 401,
      "Ġsomething": 402,
      "ound": 403,
      "Ġbr": 404,
      "Ġlove": 405,
      "Ġread": 406,
      "Ġbu": 407,
      "Ġlast": 408,
      "ass": 409,
      "Ġpre": 410,
      "Ġwon": 411,
      "Ġpr": 412,
      "oney": 413,
      "Ġbo": 414,
      "are": 415,
      "Ġstu": 416,
      "Ġplay": 417,
      "Ġisn": 418,
      "Ġmoney": 419,
      "Ġoff": 420,
      "ild": 421,
      "ning": 422,
      "Ġday": 423,
      "Ġdr": 424,
      "ear": 425,
      "ard": 426,
      "Ġor": 427,
      "itt": 428,
      "Ġwat": 429,
      "Ġnew": 430,
      "ople": 431,
      "Ġpeople": 432,
      "Ġour": 433,
      "Ġsm": 434,
      "ool": 435,
      "Ġback": 436,
      "th": 437,
      "mp": 438,
      "ick": 439,
      "Ġke": 440,
      "Ġtw": 441,
      "bo": 442,
      "Ġlot": 443,
      "Ġfriend": 444,
      "Ġsay": 445,
      "Ġlive": 446,
      "ag": 447,
      "Ġlong": 448,
      "Ġspeak": 449,
      "Ġreally": 450,
      "ried": 451,
      "Ġhappen": 452,
      "Ġsaid": 453,
      "Ġexp": 454,
      "hed": 455,
      "Ġthought": 456,
      "Ġanything": 457,
      "ouse": 458,
      "Ġyear": 459,
      "ure": 460,
      "self": 461,
      "rench": 462,
      "Ġgive": 463,
      "Ġfrench": 464,
      "Ġad": 465,
      "Ġacc": 466,
      "Ġunder": 467,
      "ide": 468,
      "Ġold": 469,
      "Ġmad": 470,
      "Ġcomp": 471,
      "Ġbus": 472,
      "Ġmany": 473,
      "Ġtold": 474,
      "Ġmake": 475,
      "Ġtoday": 476,
      "body": 477,
      "Ġbet": 478,
      "Ġhouse": 479,
      "ther": 480,
      "ven": 481,
      "os": 482,
      "urn": 483,
      "ait": 484,
      "Ġright": 485,
      "Ġstay": 486,
      "Ġagain": 487,
      "Ġchild": 488,
      "Ġwent": 489,
      "ving": 490,
      "ang": 491,
      "Ġmust": 492,
      "Ġonly": 493,
      "ways": 494,
      "orrow": 495,
      "ber": 496,
      "Ġalways": 497,
      "Ġroom": 498,
      "Ġcall": 499,
      "age": 500,
      "Ġsch": 501,
      "Ġstill": 502,
      "de": 503,
      "Ġwait": 504,
      "Ġdog": 505,
      "Ġschool": 506,
      "Ġthing": 507,
      "ough": 508,
      "ect": 509,
      "ft": 510,
      "Ġthree": 511,
      "Ġafter": 512,
      "Ġmade": 513,
      "ach": 514,
      "ty": 515,
      "Ġbl": 516,
      "Ġfeel": 517,
      "Ġmay": 518,
      "Ġfl": 519,
      "Ġover": 520,
      "Ġtry": 521,
      "Ġrem": 522,
      "Ġbel": 523,
      "able": 524,
      "em": 525,
      "Ġput": 526,
      "ts": 527,
      "ue": 528,
      "Ġmo": 529,
      "ity": 530,
      "Ġtwo": 531,
      "Ġbec": 532,
      "ace": 533,
      "Ġleave": 534,
      "Ġhar": 535,
      "Ġbost": 536,
      "Ġboston": 537,
      "Ġtomorrow": 538,
      "Ġop": 539,
      "Ġwanted": 540,
      "Ġwell": 541,
      "Ġhan": 542,
      "Ġnight": 543,
      "Ġleft": 544,
      "Ġother": 545,
      "Ġfather": 546,
      "fore": 547,
      "Ġbuy": 548,
      "Ġsw": 549,
      "Ġbefore": 550,
      "au": 551,
      "Ġyes": 552,
      "Ġaw": 553,
      "ved": 554,
      "Ġpo": 555,
      "ra": 556,
      "get": 557,
      "ount": 558,
      "ies": 559,
      "ose": 560,
      "Ġbetter": 561,
      "Ġmon": 562,
      "Ġlitt": 563,
      "use": 564,
      "Ġlittle": 565,
      "leep": 566,
      "Ġfa": 567,
      "Ġdis": 568,
      "Ġdown": 569,
      "Ġunderst": 570,
      "Ġdi": 571,
      "Ġgu": 572,
      "Ġway": 573,
      "Ġthem": 574,
      "Ġasked": 575,
      "Ġapp": 576,
      "Ġjob": 577,
      "reat": 578,
      "iss": 579,
      "Ġplan": 580,
      "Ġsc": 581,
      "terday": 582,
      "Ġeverything": 583,
      "Ġfind": 584,
      "Ġyesterday": 585,
      "ek": 586,
      "Ġchan": 587,
      "blem": 588,
      "Ġsaw": 589,
      "Ġproblem": 590,
      "Ġcare": 591,
      "ab": 592,
      "ict": 593,
      "Ġpart": 594,
      "iz": 595,
      "Ġnothing": 596,
      "Ġseem": 597,
      "Ġbelie": 598,
      "Ġinto": 599,
      "irst": 600,
      "Ġhand": 601,
      "te": 602,
      "pt": 603,
      "Ġunderstand": 604,
      "arn": 605,
      "Ġcat": 606,
      "read": 607,
      "ary": 608,
      "Ġgr": 609,
      "Ġdoing": 610,
      "ope": 611,
      "Ġfin": 612,
      "ise": 613,
      "Ġweek": 614,
      "ress": 615,
      "Ġdif": 616,
      "Ġpa": 617,
      "ark": 618,
      "Ġcame": 619,
      "Ġimp": 620,
      "Ġboy": 621,
      "Ġhappy": 622,
      "Ġstart": 623,
      "Ġstop": 624,
      "Ġfirst": 625,
      "Ġrain": 626,
      "ful": 627,
      "ich": 628,
      "Ġkeep": 629,
      "ting": 630,
      "Ġwants": 631,
      "xt": 632,
      "Ġyears": 633,
      "Ġdrink": 634,
      "Ġchildren": 635,
      "Ġsure": 636,
      "Ġbelieve": 637,
      "Ġthese": 638,
      "Ġgir": 639,
      "Ġhard": 640,
      "act": 641,
      "Ġturn": 642,
      "ence": 643,
      "ult": 644,
      "Ġlife": 645,
      "Ġmother": 646,
      "Ġfriends": 647,
      "ired": 648,
      "Ġsleep": 649,
      "Ġmeet": 650,
      "Ġdec": 651,
      "Ġdoor": 652,
      "Ġopen": 653,
      "Ġsoon": 654,
      "gl": 655,
      "Ġcouldn": 656,
      "Ġbought": 657,
      "Ġtook": 658,
      "Ġ\"": 659,
      "Ġwalk": 660,
      "akes": 661,
      "Ġshow": 662,
      "ile": 663,
      "ire": 664,
      "Ġnext": 665,
      "Ġdri": 666,
      "Ġgl": 667,
      "Ġwasn": 668,
      "ian": 669,
      "Ġwatch": 670,
      "ten": 671,
      "ated": 672,
      "Ġche": 673,
      "Ġused": 674,
      "Ġmor": 675,
      "Ġlost": 676,
      "rest": 677,
      "Ġremem": 678,
      "Ġten": 679,
      "Ġlate": 680,
      "Ġhur": 681,
      "Ġstud": 682,
      "Ġaway": 683,
      "Ġstudy": 684,
      "Ġfam": 685,
      "Ġmorning": 686,
      "Ġever": 687,
      "Ġlik": 688,
      "Ġhappened": 689,
      "Ġeveryone": 690,
      "Ġtheir": 691,
      "Ġpol": 692,
      "ident": 693,
      "Ġstr": 694,
      "estion": 695,
      "Ġlearn": 696,
      "ment": 697,
      "Ġear": 698,
      "Ġres": 699,
      "ious": 700,
      "Ġgave": 701,
      "ted": 702,
      "fic": 703,
      "ng": 704,
      "Ġbed": 705,
      "Ġteac": 706,
      "Ġmat": 707,
      "Ġeven": 708,
      "Ġpers": 709,
      "ause": 710,
      "sw": 711,
      "aught": 712,
      "Ġansw": 713,
      "Ġwater": 714,
      "Ġbad": 715,
      "Ġalread": 716,
      "Ġalready": 717,
      "Ġbot": 718,
      "Ġuse": 719,
      "Ġbeg": 720,
      "Ġfo": 721,
      "ily": 722,
      "Ġquestion": 723,
      "Ġname": 724,
      "Ġsho": 725,
      "Ġremember": 726,
      "Ġbrother": 727,
      "apan": 728,
      "ised": 729,
      "Ġjapan": 730,
      "Ġwrong": 731,
      "aut": 732,
      "Ġph": 733,
      "ip": 734,
      "Ġalone": 735,
      "Ġide": 736,
      "gry": 737,
      "Ġlist": 738,
      "Ġcle": 739,
      "Ġhear": 740,
      "Ġhour": 741,
      "ew": 742,
      "Ġteacher": 743,
      "Ġdone": 744,
      "ffe": 745,
      "Ġbig": 746,
      "Ġwithout": 747,
      "Ġyoung": 748,
      "ory": 749,
      "Ġhope": 750,
      "Ġengl": 751,
      "Ġinte": 752,
      "Ġenough": 753,
      "Ġthings": 754,
      "ance": 755,
      "ream": 756,
      "Ġsur": 757,
      "Ġatt": 758,
      "Ġeas": 759,
      "hes": 760,
      "Ġbest": 761,
      "Ġcount": 762,
      "Ġenglish": 763,
      "Ġknows": 764,
      "Ġcold": 765,
      "Ġable": 766,
      "Ġfood": 767,
      "Ġbeaut": 768,
      "Ġsomeone": 769,
      "aking": 770,
      "Ġlooking": 771,
      "Ġbre": 772,
      "Ġhot": 773,
      "Ġgirl": 774,
      "ctor": 775,
      "ished": 776,
      "Ġbusy": 777,
      "Ġheard": 778,
      "Ġbecause": 779,
      "ife": 780,
      "Ġsha": 781,
      "Ġmin": 782,
      "Ġkind": 783,
      "Ġfound": 784,
      "Ġmarried": 785,
      "Ġswim": 786,
      "Ġperson": 787,
      "Ġdes": 788,
      "vor": 789,
      "Ġoften": 790,
      "Ġadv": 791,
      "Ġsing": 792,
      "Ġhun": 793,
      "Ġlooks": 794,
      "ible": 795,
      "ited": 796,
      "Ġrun": 797,
      "Ġsn": 798,
      "gg": 799,
      "ull": 800,
      "ually": 801,
      "ister": 802,
      "Ġknew": 803,
      "Ġsame": 804,
      "pped": 805,
      "oy": 806,
      "Ġsun": 807,
      "Ġparty": 808,
      "Ġstudent": 809,
      "Ġmist": 810,
      "Ġcoffe": 811,
      "iful": 812,
      "Ġcoffee": 813,
      "ia": 814,
      "Ġaren": 815,
      "Ġseen": 816,
      "Ġyet": 817,
      "Ġpay": 818,
      "Ġbeautiful": 819,
      "Ġlikes": 820,
      "aw": 821,
      "ars": 822,
      "Ġidea": 823,
      "Ġfun": 824,
      "Ġanswer": 825,
      "lain": 826,
      "Ġpain": 827,
      "ath": 828,
      "Ġletter": 829,
      "Ġbro": 830,
      "Ġinterest": 831,
      "les": 832,
      "Ġbeing": 833,
      "hn": 834,
      "ner": 835,
      "Ġcha": 836,
      "Ġwish": 837,
      "Ġtired": 838,
      "Ġmet": 839,
      "Ġtrue": 840,
      "Ġthank": 841,
      "Ġpret": 842,
      "Ġtrain": 843,
      "Ġbreak": 844,
      "Ġjohn": 845,
      "Ġmiss": 846,
      "ans": 847,
      "ds": 848,
      "og": 849,
      "Ġwind": 850,
      "Ġdoctor": 851,
      "Ġcont": 852,
      "cer": 853,
      "Ġlisten": 854,
      "most": 855,
      "Ġarri": 856,
      "Ġwom": 857,
      "igh": 858,
      "Ġkill": 859,
      "Ġsister": 860,
      "Ġaccident": 861,
      "Ġown": 862,
      "Ġel": 863,
      "uth": 864,
      "Ġalmost": 865,
      "Ġvis": 866,
      "Ġhaven": 867,
      "ince": 868,
      "ied": 869,
      "Ġpass": 870,
      "ign": 871,
      "ail": 872,
      "Ġbooks": 873,
      "Ġbir": 874,
      "ves": 875,
      "Ġaround": 876,
      "ix": 877,
      "Ġwhile": 878,
      "Ġanyone": 879,
      "Ġforg": 880,
      "Ġworld": 881,
      "cle": 882,
      "Ġper": 883,
      "Ġwhich": 884,
      "rents": 885,
      "be": 886,
      "ock": 887,
      "Ġrest": 888,
      "Ġfew": 889,
      "Ġmov": 890,
      "Ġcook": 891,
      "ank": 892,
      "Ġminut": 893,
      "Ġ1": 894,
      "Ġdays": 895,
      "Ġthose": 896,
      "Ġfavor": 897,
      "Ġpolice": 898,
      "Ġsl": 899,
      "Ġgreat": 900,
      "Ġho": 901,
      "Ġsmo": 902,
      "Ġmind": 903,
      "Ġanother": 904,
      "Ġdiffic": 905,
      "Ġeach": 906,
      "Ġclass": 907,
      "Ġwin": 908,
      "Ġrep": 909,
      "Ġdied": 910,
      "mm": 911,
      "no": 912,
      "ese": 913,
      "Ġtried": 914,
      "Ġgetting": 915,
      "Ġafra": 916,
      "Ġafraid": 917,
      "Ġparents": 918,
      "Ġsk": 919,
      "Ġboth": 920,
      "Ġfar": 921,
      "Ġnobody": 922,
      "Ġmonday": 923,
      "Ġrec": 924,
      "Ġmonth": 925,
      "Ġsit": 926,
      "Ġtalking": 927,
      "Ġelse": 928,
      "ond": 929,
      "ons": 930,
      "Ġearly": 931,
      "orm": 932,
      "Ġsec": 933,
      "Ġey": 934,
      "side": 935,
      "unch": 936,
      "Ġwrite": 937,
      "Ġseems": 938,
      "night": 939,
      "ater": 940,
      "uck": 941,
      "ared": 942,
      "gether": 943,
      "ell": 944,
      "ens": 945,
      "sent": 946,
      "Ġcr": 947,
      "Ġplace": 948,
      "Ġfamily": 949,
      "Ġtogether": 950,
      "ys": 951,
      "pr": 952,
      "ork": 953,
      "Ġimport": 954,
      "Ġmatter": 955,
      "Ġtruth": 956,
      "Ġ2": 957,
      "Ġpict": 958,
      "Ġlooked": 959,
      "Ġpicture": 960,
      "Ġwar": 961,
      "Ġsat": 962,
      "Ġmus": 963,
      "Ġlang": 964,
      "Ġeasy": 965,
      "Ġlangu": 966,
      "ided": 967,
      "Ġunt": 968,
      "Ġwife": 969,
      "Ġonce": 970,
      "Ġdin": 971,
      "Ġyourself": 972,
      "Ġdifficult": 973,
      "Ġmost": 974,
      "Ġmight": 975,
      "Ġwouldn": 976,
      "Ġwindow": 977,
      "ced": 978,
      "Ġmine": 979,
      "anger": 980,
      "ged": 981,
      "iver": 982,
      "more": 983,
      "Ġsor": 984,
      "Ġlunch": 985,
      "Ġact": 986,
      "Ġprom": 987,
      "Ġsorry": 988,
      ".\"": 989,
      "Ġhate": 990,
      "Ġanymore": 991,
      "Ġmusic": 992,
      "Ġinv": 993,
      "Ġwear": 994,
      "Ġphone": 995,
      "Ġwonder": 996,
      "Ġmeeting": 997,
      "feren": 998,
      "Ġcoming": 999,
      "Ġeating": 1000,
      "ci": 1001,
      "cess": 1002,
      "Ġreal": 1003,
      "Ġready": 1004,
      "Ġuntil": 1005,
      "ral": 1006,
      "Ġsince": 1007,
      "Ġfire": 1008,
      "Ġdinner": 1009,
      "Ġeverybody": 1010,
      "Ġplaying": 1011,
      "ize": 1012,
      "Ġtable": 1013,
      "ret": 1014,
      "Ġangry": 1015,
      "Ġlight": 1016,
      "Ġcountry": 1017,
      "Ġreading": 1018,
      "Ġend": 1019,
      "Ġpark": 1020,
      "cept": 1021,
      "Ġforget": 1022,
      "Ġsurpr": 1023,
      "Ġtv": 1024,
      "Ġexpect": 1025,
      "Ġwaiting": 1026,
      "led": 1027,
      "Ġate": 1028,
      "Ġhimself": 1029,
      "Ġaust": 1030,
      "Ġmil": 1031,
      "king": 1032,
      "Ġson": 1033,
      "osed": 1034,
      "Ġdream": 1035,
      "Ġair": 1036,
      "Ġhurt": 1037,
      "Ġhours": 1038,
      "Ġshouldn": 1039,
      "Ġnews": 1040,
      "Ġsays": 1041,
      "Ġaustral": 1042,
      "Ġsto": 1043,
      "Ġsupp": 1044,
      "Ġago": 1045,
      "Ġtrying": 1046,
      "Ġstarted": 1047,
      "used": 1048,
      "Ġdifferen": 1049,
      "Ġdrive": 1050,
      "Ġglass": 1051,
      "here": 1052,
      "Ġsmall": 1053,
      "Ġpretty": 1054,
      "ions": 1055,
      "Ġfavorite": 1056,
      "Ġimportant": 1057,
      "00": 1058,
      "Ġstand": 1059,
      "Ġkid": 1060,
      "Ġspend": 1061,
      "Ġsnow": 1062,
      "Ġhair": 1063,
      "Ġap": 1064,
      "Ġred": 1065,
      "Ġaustralia": 1066,
      "rist": 1067,
      "Ġcry": 1068,
      "Ġforgot": 1069,
      "lt": 1070,
      "Ġtall": 1071,
      "Ġdanger": 1072,
      "ors": 1073,
      "man": 1074,
      "Ġtonight": 1075,
      "ub": 1076,
      "ouble": 1077,
      "Ġfore": 1078,
      "Ġmyself": 1079,
      "ely": 1080,
      "Ġnice": 1081,
      "ssible": 1082,
      "Ġchange": 1083,
      "Ġshoes": 1084,
      "orn": 1085,
      "Ġrel": 1086,
      "Ġent": 1087,
      "Ġser": 1088,
      "Ġdress": 1089,
      "ating": 1090,
      "Ġusually": 1091,
      "Ġsuch": 1092,
      "Ġran": 1093,
      "aper": 1094,
      "az": 1095,
      "Ġlives": 1096,
      "Ġsong": 1097,
      "Ġsick": 1098,
      "Ġmom": 1099,
      "llow": 1100,
      "ital": 1101,
      "Ġfinished": 1102,
      "Ġfast": 1103,
      "Ġchrist": 1104,
      "Ġbit": 1105,
      "Ġbab": 1106,
      "eric": 1107,
      "Ġsol": 1108,
      "Ġcalled": 1109,
      "Ġdecided": 1110,
      "Ġref": 1111,
      "Ġclean": 1112,
      "lic": 1113,
      "Ġneeds": 1114,
      "Ġfelt": 1115,
      "ient": 1116,
      "work": 1117,
      "Ġhaving": 1118,
      "Ġele": 1119,
      "Ġstation": 1120,
      "Ġtele": 1121,
      "Ġworking": 1122,
      "Ġtrust": 1123,
      "ote": 1124,
      "Ġstudents": 1125,
      "Ġminutes": 1126,
      "30": 1127,
      "als": 1128,
      "Ġtimes": 1129,
      "Ġameric": 1130,
      "Ġflow": 1131,
      "Ġwoman": 1132,
      "ball": 1133,
      "ug": 1134,
      "ason": 1135,
      "Ġnear": 1136,
      "fort": 1137,
      "joy": 1138,
      "Ġvisit": 1139,
      "ax": 1140,
      "oup": 1141,
      "Ġcam": 1142,
      "Ġfive": 1143,
      "Ġenjoy": 1144,
      "we": 1145,
      "Ġtrouble": 1146,
      "Ġcomm": 1147,
      "Ġdisc": 1148,
      "af": 1149,
      "ger": 1150,
      "Ġhands": 1151,
      "ered": 1152,
      "Ġsound": 1153,
      "Ġcity": 1154,
      "Ġmean": 1155,
      "Ġlar": 1156,
      "ision": 1157,
      "Ġhead": 1158,
      "Ġpen": 1159,
      "Ġeyes": 1160,
      "Ġmilk": 1161,
      "Ġret": 1162,
      "Ġoffice": 1163,
      "Ġexplain": 1164,
      "Ġbegin": 1165,
      "Ġmovie": 1166,
      "Ġcut": 1167,
      "mas": 1168,
      "Ġfree": 1169,
      "Ġdoll": 1170,
      "Ġstory": 1171,
      "Ġexc": 1172,
      "umb": 1173,
      "Ġbroke": 1174,
      "Ġchristmas": 1175,
      "reet": 1176,
      "alth": 1177,
      "Ġarrived": 1178,
      "ord": 1179,
      "Ġabs": 1180,
      "fast": 1181,
      "Ġmen": 1182,
      "Ġreg": 1183,
      "Ġclose": 1184,
      "Ġmistake": 1185,
      "br": 1186,
      "Ġhat": 1187,
      "Ġbring": 1188,
      "Ġgrand": 1189,
      "ier": 1190,
      "Ġlau": 1191,
      "ert": 1192,
      "Ġtenn": 1193,
      "Ġbreakfast": 1194,
      "Ġthir": 1195,
      "Ġstup": 1196,
      "Ġstupid": 1197,
      "Ġtennis": 1198,
      "Ġwall": 1199,
      "Ġword": 1200,
      "Ġsuc": 1201,
      "Ġexam": 1202,
      "ever": 1203,
      "where": 1204,
      "oud": 1205,
      "int": 1206,
      "Ġlaw": 1207,
      "ense": 1208,
      "oice": 1209,
      "Ġlonger": 1210,
      "Ġgoes": 1211,
      "unk": 1212,
      "Ġpat": 1213,
      "ention": 1214,
      "Ġhomework": 1215,
      "let": 1216,
      "icy": 1217,
      "ical": 1218,
      "Ġcomput": 1219,
      "Ġafterno": 1220,
      "Ġface": 1221,
      "olog": 1222,
      "Ġresp": 1223,
      "Ġfollow": 1224,
      "mmer": 1225,
      "Ġhigh": 1226,
      "Ġkiss": 1227,
      "Ġpresent": 1228,
      "Ġafternoon": 1229,
      "ange": 1230,
      "Ġfell": 1231,
      "Ġquite": 1232,
      "Ġbaby": 1233,
      "cl": 1234,
      "Ġrich": 1235,
      "fer": 1236,
      "iness": 1237,
      "Ġhold": 1238,
      "Ġsix": 1239,
      "ition": 1240,
      "Ġshort": 1241,
      "Ġsal": 1242,
      "Ġthen": 1243,
      "irt": 1244,
      "iled": 1245,
      "ates": 1246,
      "ross": 1247,
      "Ġtown": 1248,
      "Ġgame": 1249,
      "Ġfish": 1250,
      "Ġgone": 1251,
      "ither": 1252,
      "ject": 1253,
      "ph": 1254,
      "Ġter": 1255,
      "Ġsent": 1256,
      "rew": 1257,
      "Ġfull": 1258,
      "Ġcanad": 1259,
      "Ġsometim": 1260,
      "Ġarm": 1261,
      "iction": 1262,
      "vel": 1263,
      "any": 1264,
      "Ġadd": 1265,
      "Ġinteresting": 1266,
      "Ġjapanese": 1267,
      "Ġlanguage": 1268,
      "Ġcaught": 1269,
      "Ġfeeling": 1270,
      "Ġpick": 1271,
      "Ġadvice": 1272,
      "Ġbox": 1273,
      "osp": 1274,
      "Ġturned": 1275,
      "Ġmed": 1276,
      "ash": 1277,
      "Ġclot": 1278,
      "ages": 1279,
      "Ġhit": 1280,
      "Ġcons": 1281,
      "Ġcoll": 1282,
      "Ġolder": 1283,
      "Ġagainst": 1284,
      "rough": 1285,
      "Ġtri": 1286,
      "Ġmakes": 1287,
      "Ġtrave": 1288,
      "Ġbuild": 1289,
      "rect": 1290,
      "Ġreason": 1291,
      "Ġriver": 1292,
      "Ġthinking": 1293,
      "Ġsummer": 1294,
      "ched": 1295,
      "Ġdark": 1296,
      "Ġluck": 1297,
      "Ġstreet": 1298,
      "Ġwatching": 1299,
      "ken": 1300,
      "Ġthrough": 1301,
      "Ġnum": 1302,
      "room": 1303,
      "Ġglad": 1304,
      "less": 1305,
      "ud": 1306,
      "Ġinter": 1307,
      "Ġalong": 1308,
      "Ġkey": 1309,
      "Ġtaking": 1310,
      "Ġdaught": 1311,
      "Ġlater": 1312,
      "Ġweather": 1313,
      "Ġemp": 1314,
      "ized": 1315,
      "Ġbirth": 1316,
      "Ġwine": 1317,
      "Ġass": 1318,
      "Ġspo": 1319,
      "Ġconf": 1320,
      "Ġloves": 1321,
      "Ġhungry": 1322,
      "Ġstopped": 1323,
      "ying": 1324,
      "Ġcake": 1325,
      "era": 1326,
      "Ġhosp": 1327,
      "Ġhotel": 1328,
      "Ġsometimes": 1329,
      "ness": 1330,
      "Ġmaking": 1331,
      "Ġbegan": 1332,
      "Ġhospital": 1333,
      "ces": 1334,
      "ience": 1335,
      "Ġdie": 1336,
      "Ġhasn": 1337,
      "ward": 1338,
      "Ġhealth": 1339,
      "ately": 1340,
      "Ġblack": 1341,
      "Ġsmoking": 1342,
      "ib": 1343,
      "Ġcor": 1344,
      "Ġliving": 1345,
      "Ġfinish": 1346,
      "bed": 1347,
      "Ġtree": 1348,
      "Ġdiction": 1349,
      "fect": 1350,
      "Ġdogs": 1351,
      "Ġnumber": 1352,
      "Ġdeath": 1353,
      "Ġaccept": 1354,
      "pl": 1355,
      "Ġem": 1356,
      "Ġquick": 1357,
      "Ġchance": 1358,
      "Ġstrong": 1359,
      "Ġcomputer": 1360,
      "du": 1361,
      "sh": 1362,
      "Ġcra": 1363,
      "Ġkept": 1364,
      "Ġlived": 1365,
      "Ġcareful": 1366,
      "Ġquestions": 1367,
      "Ġkilled": 1368,
      "Ġdead": 1369,
      "Ġadm": 1370,
      "zy": 1371,
      "Ġwrit": 1372,
      "Ġstudying": 1373,
      "Ġsecret": 1374,
      "ative": 1375,
      "Ġegg": 1376,
      "Ġworry": 1377,
      "Ġdep": 1378,
      "Ġagree": 1379,
      "Ġaccom": 1380,
      "Ġcanadian": 1381,
      "air": 1382,
      "Ġage": 1383,
      "Ġcost": 1384,
      "itc": 1385,
      "Ġyours": 1386,
      "Ġlarge": 1387,
      "ming": 1388,
      "Ġbicy": 1389,
      "Ġhid": 1390,
      "Ġwhite": 1391,
      "Ġsaying": 1392,
      "Ġdifferent": 1393,
      "Ġmoment": 1394,
      "Ġdictionary": 1395,
      "Ġmess": 1396,
      "Ġreturn": 1397,
      "Ġpie": 1398,
      "Ġanybody": 1399,
      "Ġchar": 1400,
      "Ġclothes": 1401,
      "Ġdaughter": 1402,
      "?\"": 1403,
      "Ġcup": 1404,
      "Ġfight": 1405,
      "Ġstore": 1406,
      "Ġcamera": 1407,
      "Ġthinks": 1408,
      "Ġworks": 1409,
      "Ġflowers": 1410,
      "Ġbag": 1411,
      "Ġcompany": 1412,
      "Ġcomes": 1413,
      "Ġconcer": 1414,
      "Ġexpens": 1415,
      "Ġbecame": 1416,
      "Ġsurprised": 1417,
      "Ġtea": 1418,
      "Ġhurry": 1419,
      "Ġbicycle": 1420,
      "ison": 1421,
      "Ġtrans": 1422,
      "Ġcomplet": 1423,
      "Ġswe": 1424,
      "Ġwearing": 1425,
      "lves": 1426,
      "Ġsell": 1427,
      "Ġsunday": 1428,
      "Ġserious": 1429,
      "Ġbuilding": 1430,
      "Ġice": 1431,
      "Ġob": 1432,
      "Ġbeh": 1433,
      "Ġanim": 1434,
      "Ġcomplain": 1435,
      "Ġflo": 1436,
      "Ġbirthday": 1437,
      "dd": 1438,
      "port": 1439,
      "Ġins": 1440,
      "ended": 1441,
      "ump": 1442,
      "Ġbehind": 1443,
      "Ġset": 1444,
      "Ġheart": 1445,
      "Ġoutside": 1446,
      "Ġlose": 1447,
      "Ġtravel": 1448,
      "Ġinc": 1449,
      "Ġgets": 1450,
      "Ġdrunk": 1451,
      "Ġorder": 1452,
      "dered": 1453,
      "Ġfoot": 1454,
      "selves": 1455,
      "Ġwhether": 1456,
      "Ġspent": 1457,
      "Ġwrote": 1458,
      "app": 1459,
      "Ġok": 1460,
      "Ġbeer": 1461,
      "Ġlie": 1462,
      "ility": 1463,
      "Ġsomebody": 1464,
      "Ġstrange": 1465,
      "Ġclear": 1466,
      "Ġcap": 1467,
      "ush": 1468,
      "Ġothers": 1469,
      "Ġpossible": 1470,
      "Ġill": 1471,
      "Ġsign": 1472,
      "Ġru": 1473,
      "Ġteam": 1474,
      "Ġhelped": 1475,
      "Ġdollars": 1476,
      "Ġbath": 1477,
      "Ġborn": 1478,
      "ime": 1479,
      "Ġrather": 1480,
      "Ġleg": 1481,
      "Ġmaybe": 1482,
      "Ġguess": 1483,
      "Ġchanged": 1484,
      "not": 1485,
      "Ġeaten": 1486,
      "io": 1487,
      "Ġbank": 1488,
      "lfriend": 1489,
      "itting": 1490,
      "Ġbecome": 1491,
      "Ġpian": 1492,
      "ountain": 1493,
      "Ġcrazy": 1494,
      "Ġdist": 1495,
      "Ġproblems": 1496,
      "ably": 1497,
      "Ġgirlfriend": 1498,
      "Ġexpensive": 1499,
      "ual": 1500,
      "uss": 1501,
      "Ġneeded": 1502,
      "Ġstayed": 1503,
      "Ġpaid": 1504,
      "ike": 1505,
      "oub": 1506,
      "Ġseat": 1507,
      "Ġexact": 1508,
      "Ġbusiness": 1509,
      "Ġtick": 1510,
      "Ġes": 1511,
      "Ġsend": 1512,
      "Ġwhole": 1513,
      "Ġglasses": 1514,
      "Ġtouch": 1515,
      "oned": 1516,
      "Ġless": 1517,
      "Ġpaper": 1518,
      "Ġhor": 1519,
      "Ġinf": 1520,
      "Ġasleep": 1521,
      "Ġbetwe": 1522,
      "Ġcatch": 1523,
      "Ġbetween": 1524,
      "Ġnoise": 1525,
      "Ġproud": 1526,
      "Ġguit": 1527,
      "Ġapolog": 1528,
      "eal": 1529,
      "Ġmountain": 1530,
      "Ġcats": 1531,
      "Ġinterested": 1532,
      "Ġthirty": 1533,
      "Ġterri": 1534,
      "Ġcol": 1535,
      "Ġteach": 1536,
      "ular": 1537,
      "Ġslow": 1538,
      "aur": 1539,
      "Ġfall": 1540,
      "Ġgard": 1541,
      "Ġwords": 1542,
      "Ġsold": 1543,
      "Ġsafe": 1544,
      "Ġplayed": 1545,
      "Ġquickly": 1546,
      "Ġgarden": 1547,
      "iet": 1548,
      "ured": 1549,
      "ont": 1550,
      "Ġcannot": 1551,
      "Ġexper": 1552,
      "Ġlaugh": 1553,
      "phone": 1554,
      "av": 1555,
      "band": 1556,
      "cent": 1557,
      "ics": 1558,
      "road": 1559,
      "arth": 1560,
      "Ġquit": 1561,
      "Ġprefer": 1562,
      "Ġmistakes": 1563,
      "Ġdangerous": 1564,
      "Ġguitar": 1565,
      "tle": 1566,
      "ins": 1567,
      "Ġbase": 1568,
      "Ġweight": 1569,
      "ored": 1570,
      "ustom": 1571,
      "Ġhon": 1572,
      "Ġearth": 1573,
      "usband": 1574,
      "Ġlibr": 1575,
      "Ġprob": 1576,
      "Ġsmell": 1577,
      "Ġseemed": 1578,
      "Ġswimming": 1579,
      "ny": 1580,
      "yp": 1581,
      "Ġtakes": 1582,
      "Ġgrow": 1583,
      "Ġits": 1584,
      "aken": 1585,
      "Ġspeaking": 1586,
      "Ġpiano": 1587,
      "med": 1588,
      "Ġsad": 1589,
      "Ġfour": 1590,
      "Ġhusband": 1591,
      "Ġtemp": 1592,
      "Ġvac": 1593,
      "Ġpop": 1594,
      "Ġind": 1595,
      "Ġeve": 1596,
      "outh": 1597,
      "Ġseven": 1598,
      "Ġworked": 1599,
      "Ġart": 1600,
      "Ġrunning": 1601,
      "Ġwomen": 1602,
      "Ġmem": 1603,
      "Ġallow": 1604,
      "ived": 1605,
      "Ġrestaur": 1606,
      "Ġamerica": 1607,
      "Ġlibrary": 1608,
      "Ġrestaurant": 1609,
      "ract": 1610,
      "Ġsub": 1611,
      "Ġraining": 1612,
      "Ġfloor": 1613,
      "Ġdoub": 1614,
      "uring": 1615,
      "Ġthanks": 1616,
      "Ġexactly": 1617,
      "Ġprobably": 1618,
      "Ġcour": 1619,
      "ishing": 1620,
      "erg": 1621,
      "Ġshirt": 1622,
      "Ġleast": 1623,
      "Ġconv": 1624,
      "Ġspeaks": 1625,
      "ky": 1626,
      "oc": 1627,
      "Ġim": 1628,
      "hen": 1629,
      "Ġfix": 1630,
      "Ġfront": 1631,
      "Ġdisapp": 1632,
      "Ġfamous": 1633,
      "Ġelect": 1634,
      "ertain": 1635,
      "Ġtrip": 1636,
      "uation": 1637,
      "Ġduring": 1638,
      "Ġhide": 1639,
      "ator": 1640,
      "Ġabroad": 1641,
      "Ġuncle": 1642,
      "Ġloved": 1643,
      "Ġplane": 1644,
      "by": 1645,
      "Ġtest": 1646,
      "Ġmid": 1647,
      "Ġcal": 1648,
      "aster": 1649,
      "Ġinst": 1650,
      "Ġext": 1651,
      "Ġclim": 1652,
      "Ġtalked": 1653,
      "Ġpatient": 1654,
      "clock": 1655,
      "Ġmedic": 1656,
      "so": 1657,
      "Ġcertain": 1658,
      "Ġweren": 1659,
      "Ġrul": 1660,
      "Ġcheck": 1661,
      "Ġpromise": 1662,
      "Ġeggs": 1663,
      "Ġtransl": 1664,
      "Ġtast": 1665,
      "Ġtax": 1666,
      "olut": 1667,
      "Ġpoor": 1668,
      "Ġbroken": 1669,
      "Ġperfect": 1670,
      "Ġkids": 1671,
      "Ġfre": 1672,
      "Ġpri": 1673,
      "Ġgen": 1674,
      "ets": 1675,
      "Ġship": 1676,
      "itten": 1677,
      "Ġopened": 1678,
      "Ġmovies": 1679,
      "Ġdet": 1680,
      "Ġrece": 1681,
      "Ġshut": 1682,
      "Ġworth": 1683,
      "Ġdeal": 1684,
      "Ġchoice": 1685,
      "Ġsituation": 1686,
      "cap": 1687,
      "ove": 1688,
      "Ġtreat": 1689,
      "Ġhum": 1690,
      "Ġworried": 1691,
      "Ġlock": 1692,
      "aged": 1693,
      "Ġmove": 1694,
      "Ġfinally": 1695,
      "Ġsuccess": 1696,
      "Ġve": 1697,
      "Ġhalf": 1698,
      "Ġeither": 1699,
      "Ġmeat": 1700,
      "Ġrad": 1701,
      "Ġadvised": 1702,
      "Ġherself": 1703,
      "Ġblame": 1704,
      "Ġguys": 1705,
      "Ġapple": 1706,
      "Ġlucky": 1707,
      "aving": 1708,
      "Ġside": 1709,
      "Ġnovel": 1710,
      "Ġroad": 1711,
      "Ġdeser": 1712,
      "Ġbaseball": 1713,
      "Ġav": 1714,
      "erv": 1715,
      "oose": 1716,
      "Ġneigh": 1717,
      "Ġblue": 1718,
      "Ġsleeping": 1719,
      "Ġattention": 1720,
      "Ġsmoke": 1721,
      "Ġneighb": 1722,
      "ple": 1723,
      "Ġdance": 1724,
      "Ġcase": 1725,
      "Ġfing": 1726,
      "Ġfly": 1727,
      "veral": 1728,
      "Ġseveral": 1729,
      "Ġbrought": 1730,
      "Ġprison": 1731,
      "Ġwaited": 1732,
      "ully": 1733,
      "cial": 1734,
      "Ġcorrect": 1735,
      "Ġescap": 1736,
      "gn": 1737,
      "Ġfact": 1738,
      "Ġra": 1739,
      "ently": 1740,
      "Ġaband": 1741,
      "Ġwhose": 1742,
      "Ġweekend": 1743,
      "ee": 1744,
      "fully": 1745,
      "Ġsil": 1746,
      "rell": 1747,
      "Ġgun": 1748,
      "Ġbeach": 1749,
      "idge": 1750,
      "Ġleaving": 1751,
      "Ġsudd": 1752,
      "Ġboys": 1753,
      "Ġwalked": 1754,
      "Ġlearned": 1755,
      "Ġinvited": 1756,
      "Ġlawy": 1757,
      "Ġrules": 1758,
      "Ġsudden": 1759,
      "Ġsim": 1760,
      "ined": 1761,
      "ider": 1762,
      "Ġarg": 1763,
      "Ġshowed": 1764,
      "Ġcrying": 1765,
      "Ġsolve": 1766,
      "rees": 1767,
      "Ġbreat": 1768,
      "ased": 1769,
      "pping": 1770,
      "Ġalso": 1771,
      "Ġdecision": 1772,
      "Ġcompletely": 1773,
      "Ġanimals": 1774,
      "father": 1775,
      "gar": 1776,
      "Ġumb": 1777,
      "Ġmur": 1778,
      "Ġborrow": 1779,
      "Ġfig": 1780,
      "vers": 1781,
      "Ġnecess": 1782,
      "Ġalive": 1783,
      "iling": 1784,
      "Ġquiet": 1785,
      "Ġtelephone": 1786,
      "Ġdiscuss": 1787,
      "Ġumbrell": 1788,
      "ling": 1789,
      "reen": 1790,
      "Ġmag": 1791,
      "Ġheav": 1792,
      "Ġpur": 1793,
      "Ġrid": 1794,
      "Ġknown": 1795,
      "ames": 1796,
      "Ġdriving": 1797,
      "Ġlanguages": 1798,
      "vision": 1799,
      "way": 1800,
      "Ġsitting": 1801,
      "Ġtraf": 1802,
      "Ġclosed": 1803,
      "Ġprep": 1804,
      "Ġprop": 1805,
      "Ġdesk": 1806,
      "Ġforeign": 1807,
      "Ġevening": 1808,
      "cy": 1809,
      "ps": 1810,
      "ton": 1811,
      "Ġfine": 1812,
      "Ġwash": 1813,
      "Ġminute": 1814,
      "kyo": 1815,
      "Ġtraffic": 1816,
      "uit": 1817,
      "Ġtie": 1818,
      "Ġimm": 1819,
      "Ġtokyo": 1820,
      "Ġcross": 1821,
      "Ġeight": 1822,
      "Ġknife": 1823,
      "Ġscared": 1824,
      "Ġdrinking": 1825,
      "Ġwinter": 1826,
      "Ġmedicine": 1827,
      "Ġradio": 1828,
      "co": 1829,
      "Ġz": 1830,
      "Ġtyp": 1831,
      "Ġsy": 1832,
      "Ġlying": 1833,
      "Ġhop": 1834,
      "Ġopp": 1835,
      "Ġdeep": 1836,
      "Ġenem": 1837,
      "Ġbelong": 1838,
      "Ġpoint": 1839,
      "Ġmissed": 1840,
      "Ġtelevision": 1841,
      "Ġconcert": 1842,
      "ding": 1843,
      "Ġpub": 1844,
      "enty": 1845,
      "ument": 1846,
      "Ġmessage": 1847,
      "Ġumbrella": 1848,
      "iv": 1849,
      "ned": 1850,
      "Ġbri": 1851,
      "Ġfishing": 1852,
      "Ġfeed": 1853,
      "Ġchin": 1854,
      "Ġpres": 1855,
      "Ġexpl": 1856,
      "bit": 1857,
      "ring": 1858,
      "Ġtaken": 1859,
      "Ġpar": 1860,
      "ask": 1861,
      "ade": 1862,
      "itted": 1863,
      "Ġremain": 1864,
      "Ġyounger": 1865,
      "Ġchair": 1866,
      "Ġnewsp": 1867,
      "Ġabsolut": 1868,
      "Ġvacation": 1869,
      "ric": 1870,
      "Ġforward": 1871,
      "ries": 1872,
      "ceed": 1873,
      "Ġopin": 1874,
      "Ġliked": 1875,
      "Ġarrive": 1876,
      "Ġwriting": 1877,
      "Ġlawyer": 1878,
      "dle": 1879,
      "Ġball": 1880,
      "Ġcream": 1881,
      "Ġlake": 1882,
      "eth": 1883,
      "Ġris": 1884,
      "Ġsoc": 1885,
      "Ġcrow": 1886,
      "ature": 1887,
      "Ġseeing": 1888,
      "Ġdrank": 1889,
      "Ġkeys": 1890,
      "Ġhappens": 1891,
      "Ġsinging": 1892,
      "Ġhonest": 1893,
      "Ġsoccer": 1894,
      "Ġid": 1895,
      "Ġsus": 1896,
      "Ġpast": 1897,
      "Ġsugg": 1898,
      "Ġsmart": 1899,
      "Ġ19": 1900,
      "Ġexcuse": 1901,
      "Ġaddress": 1902,
      "Ġinform": 1903,
      "Ġsusp": 1904,
      "loy": 1905,
      "Ġfill": 1906,
      "Ġjack": 1907,
      "Ġdriver": 1908,
      "Ġgirls": 1909,
      "ossible": 1910,
      "Ġkitc": 1911,
      "Ġboss": 1912,
      "Ġimpossible": 1913,
      "Ġgrandfather": 1914,
      "airs": 1915,
      "Ġkitchen": 1916,
      "ging": 1917,
      "land": 1918,
      "Ġdan": 1919,
      "Ġyell": 1920,
      "Ġfool": 1921,
      "Ġinside": 1922,
      "Ġwarm": 1923,
      "Ġexpected": 1924,
      "ff": 1925,
      "Ġsense": 1926,
      "Ġthough": 1927,
      "ato": 1928,
      "Ġjump": 1929,
      "Ġworse": 1930,
      "ume": 1931,
      "Ġphot": 1932,
      "cil": 1933,
      "dred": 1934,
      "Ġir": 1935,
      "Ġdro": 1936,
      "Ġfut": 1937,
      "ower": 1938,
      "Ġvi": 1939,
      "Ġcoat": 1940,
      "Ġwritten": 1941,
      "Ġprot": 1942,
      "Ġblood": 1943,
      "Ġhundred": 1944,
      "Ġsecond": 1945,
      "Ġpictures": 1946,
      "Ġsounds": 1947,
      "Ġca": 1948,
      "Ġcur": 1949,
      "Ġfat": 1950,
      "Ġgif": 1951,
      "Ġdef": 1952,
      "teen": 1953,
      "Ġcontin": 1954,
      "Ġpromised": 1955,
      "Ġdoubt": 1956,
      "Ġsand": 1957,
      "Ġmonths": 1958,
      "Ġapart": 1959,
      "fortable": 1960,
      "Ġpot": 1961,
      "Ġring": 1962,
      "Ġsugar": 1963,
      "Ġoffer": 1964,
      "Ġtwice": 1965,
      "Ġattack": 1966,
      "Ġlistening": 1967,
      "Ġreport": 1968,
      "Ġspoke": 1969,
      "Ġterrible": 1970,
      "Ġopinion": 1971,
      "Ġwake": 1972,
      "Ġbread": 1973,
      "ities": 1974,
      "Ġbeha": 1975,
      "Ġwaste": 1976,
      "Ġplays": 1977,
      "Ġunited": 1978,
      "Ġchur": 1979,
      "Ġarrest": 1980,
      "Ġfault": 1981,
      "Ġguy": 1982,
      "Ġplans": 1983,
      "Ġpencil": 1984,
      "Ġpiece": 1985,
      "Ġfuture": 1986,
      "fied": 1987,
      "ial": 1988,
      "oid": 1989,
      "rup": 1990,
      "ices": 1991,
      "Ġsport": 1992,
      "Ġaccount": 1993,
      "Ġpassed": 1994,
      "Ġairport": 1995,
      "Ġtaller": 1996,
      "Ġimag": 1997,
      "Ġnecessary": 1998,
      "Ġwood": 1999,
      "Ġmach": 2000,
      "Ġpun": 2001,
      "Ġstates": 2002,
      "Ġshopping": 2003,
      "Ġbird": 2004,
      "Ġsupposed": 2005,
      "Ġsucceed": 2006,
      "Ġhorse": 2007,
      "Ġchurch": 2008,
      "friend": 2009,
      "kes": 2010,
      "Ġsle": 2011,
      "Ġmouth": 2012,
      "Ġfif": 2013,
      "Ġpost": 2014,
      "Ġren": 2015,
      "Ġshot": 2016,
      "Ġsave": 2017,
      "ations": 2018,
      "inted": 2019,
      "Ġcarry": 2020,
      "Ġvoice": 2021,
      "Ġdraw": 2022,
      "Ġhappening": 2023,
      "Ġfailed": 2024,
      "Ġhardly": 2025,
      "Ġwalking": 2026,
      "Ġeye": 2027,
      "Ġsurprise": 2028,
      "Ġrespect": 2029,
      "Ġcolle": 2030,
      "Ġhiding": 2031,
      "Ġticket": 2032,
      "Ġveget": 2033,
      "ze": 2034,
      "Ġign": 2035,
      "Ġmis": 2036,
      "arning": 2037,
      "Ġeats": 2038,
      "Ġforgive": 2039,
      "Ġactually": 2040,
      "Ġslowly": 2041,
      "Ġdisappo": 2042,
      "Ġsuddenly": 2043,
      "Ġfigure": 2044,
      "Ġlearning": 2045,
      "Ġfruit": 2046,
      "ief": 2047,
      "Ġtelling": 2048,
      "Ġapples": 2049,
      "Ġboyfriend": 2050,
      "Ġshower": 2051,
      "Ġdifference": 2052,
      "Ġconsider": 2053,
      "Ġbill": 2054,
      "Ġcoup": 2055,
      "Ġlend": 2056,
      "Ġgod": 2057,
      "ists": 2058,
      "Ġregret": 2059,
      "Ġempty": 2060,
      "Ġaccompl": 2061,
      "Ġabsolutely": 2062,
      "ghed": 2063,
      "Ġev": 2064,
      "ute": 2065,
      "Ġability": 2066,
      "Ġdel": 2067,
      "Ġdem": 2068,
      "Ġcla": 2069,
      "cc": 2070,
      "come": 2071,
      "Ġsoup": 2072,
      "Ġgreen": 2073,
      "Ġbeat": 2074,
      "Ġmeans": 2075,
      "oof": 2076,
      "Ġsomewhere": 2077,
      "Ġmoved": 2078,
      "Ġfunny": 2079,
      "Ġsky": 2080,
      "Ġabandoned": 2081,
      "tain": 2082,
      "erm": 2083,
      "Ġstar": 2084,
      "Ġride": 2085,
      "Ġeng": 2086,
      "Ġacross": 2087,
      "Ġgiven": 2088,
      "Ġeasily": 2089,
      "Ġshare": 2090,
      "Ġcooking": 2091,
      "Ġwallet": 2092,
      "Ġcolor": 2093,
      "cri": 2094,
      "Ġ5": 2095,
      "Ġtaught": 2096,
      "ination": 2097,
      "oring": 2098,
      "Ġthous": 2099,
      "Ġeur": 2100,
      "Ġrequ": 2101,
      "Ġabsent": 2102,
      "Ġsuit": 2103,
      "Ġvol": 2104,
      "Ġappro": 2105,
      "Ġcarefully": 2106,
      "Ġsalt": 2107,
      "Ġexperience": 2108,
      "Ġviol": 2109,
      "Ġthousand": 2110,
      "ey": 2111,
      "rem": 2112,
      "Ġchoose": 2113,
      "olen": 2114,
      "Ġclos": 2115,
      "Ġsmile": 2116,
      "duct": 2117,
      "Ġtaxi": 2118,
      "Ġwed": 2119,
      "Ġtop": 2120,
      "Ġbat": 2121,
      "Ġbur": 2122,
      "edi": 2123,
      "Ġnerv": 2124,
      "Ġann": 2125,
      "Ġstolen": 2126,
      "Ġshop": 2127,
      "Ġexcept": 2128,
      "Ġjoin": 2129,
      "Ġstaying": 2130,
      "Ġfail": 2131,
      "Ġbrothers": 2132,
      "Ġsurv": 2133,
      "Ġbirds": 2134,
      "Ġapologize": 2135,
      "Ġnewspaper": 2136,
      "Ġmachine": 2137,
      "Ġnervous": 2138,
      "ued": 2139,
      "reed": 2140,
      "Ġbother": 2141,
      "Ġburn": 2142,
      "Ġwel": 2143,
      "aked": 2144,
      "Ġvill": 2145,
      "cket": 2146,
      "Ġappre": 2147,
      "Ġdecide": 2148,
      "Ġentered": 2149,
      "Ġimmedi": 2150,
      "Ġpublic": 2151,
      "Ġcouple": 2152,
      "ror": 2153,
      "Ġcop": 2154,
      "Ġline": 2155,
      "ises": 2156,
      "Ġnative": 2157,
      "iced": 2158,
      "ants": 2159,
      "Ġjud": 2160,
      "rol": 2161,
      "ilt": 2162,
      "Ġpress": 2163,
      "Ġremind": 2164,
      "Ġaware": 2165,
      "Ġrefused": 2166,
      "Ġlaughed": 2167,
      "head": 2168,
      "Ġce": 2169,
      "vest": 2170,
      "ane": 2171,
      "Ġpull": 2172,
      "Ġinno": 2173,
      "Ġwhatever": 2174,
      "Ġanywhere": 2175,
      "Ġcars": 2176,
      "Ġbridge": 2177,
      "Ġaccustom": 2178,
      "osition": 2179,
      "Ġrains": 2180,
      "Ġvisited": 2181,
      "Ġheavy": 2182,
      "Ġsuggest": 2183,
      "gr": 2184,
      "Ġed": 2185,
      "Ġfit": 2186,
      "Ġlad": 2187,
      "une": 2188,
      "unately": 2189,
      "Ġuniver": 2190,
      "ults": 2191,
      "Ġaff": 2192,
      "Ġsatis": 2193,
      "Ġcrowd": 2194,
      "Ġcollege": 2195,
      "oke": 2196,
      "vious": 2197,
      "Ġstorm": 2198,
      "Ġgolf": 2199,
      "Ġunl": 2200,
      "Ġprice": 2201,
      "Ġaccord": 2202,
      "Ġweeks": 2203,
      "Ġpolit": 2204,
      "Ġcommon": 2205,
      "Ġcalm": 2206,
      "Ġreceived": 2207,
      "Ġneighbor": 2208,
      "Ġprotect": 2209,
      "Ġeurope": 2210,
      "Ġaccustomed": 2211,
      "Ġought": 2212,
      "Ġsqu": 2213,
      "Ġmot": 2214,
      "Ġden": 2215,
      "Ġteeth": 2216,
      "Ġprof": 2217,
      "Ġleaves": 2218,
      "Ġgrad": 2219,
      "Ġbottle": 2220,
      "od": 2221,
      "Ġtill": 2222,
      "Ġdad": 2223,
      "Ġble": 2224,
      "Ġgas": 2225,
      "Ġnone": 2226,
      "ots": 2227,
      "Ġstra": 2228,
      "Ġneither": 2229,
      "ution": 2230,
      "irty": 2231,
      "Ġsmiled": 2232,
      "ressed": 2233,
      "Ġcheese": 2234,
      "Ġattend": 2235,
      "Ġstanding": 2236,
      "Ġrelax": 2237,
      "Ġemploy": 2238,
      "Ġenemy": 2239,
      "Ġbar": 2240,
      "Ġland": 2241,
      "Ġhol": 2242,
      "Ġocc": 2243,
      "iday": 2244,
      "ached": 2245,
      "Ġclock": 2246,
      "Ġspee": 2247,
      "Ġspecial": 2248,
      "Ġblind": 2249,
      "Ġgener": 2250,
      "Ġslept": 2251,
      "Ġmarry": 2252,
      "Ġju": 2253,
      "Ġdelic": 2254,
      "Ġlos": 2255,
      "iew": 2256,
      "Ġproject": 2257,
      "Ġgrandm": 2258,
      "Ġappreci": 2259,
      "ior": 2260,
      "rap": 2261,
      "Ġtrees": 2262,
      "Ġsup": 2263,
      "Ġowe": 2264,
      "Ġstood": 2265,
      "amed": 2266,
      "Ġval": 2267,
      "Ġpract": 2268,
      "Ġplanning": 2269,
      "Ġdrinks": 2270,
      "Ġpoliceman": 2271,
      "Ġbeginning": 2272,
      "Ġkissed": 2273,
      "Ġdepend": 2274,
      "Ġfinger": 2275,
      "Ġinformation": 2276,
      "Ġgift": 2277,
      "Ġimmediately": 2278,
      "Ġspeech": 2279,
      "Ġer": 2280,
      "Ġheld": 2281,
      "Ġstep": 2282,
      "Ġjoke": 2283,
      "Ġdrug": 2284,
      "vent": 2285,
      "Ġhang": 2286,
      "Ġstudied": 2287,
      "Ġwonderful": 2288,
      "Ġcharge": 2289,
      "bar": 2290,
      "con": 2291,
      "ges": 2292,
      "time": 2293,
      "ugg": 2294,
      "Ġdut": 2295,
      "Ġbored": 2296,
      "Ġpack": 2297,
      "Ġknock": 2298,
      "Ġhadn": 2299,
      "Ġwatched": 2300,
      "ables": 2301,
      "ened": 2302,
      "Ġgrew": 2303,
      "Ġlied": 2304,
      "Ġrice": 2305,
      "Ġhist": 2306,
      "Ġlikely": 2307,
      "Ġbutton": 2308,
      "Ġbuilt": 2309,
      "Ġfair": 2310,
      "Ġearl": 2311,
      "Ġsingle": 2312,
      "Ġamerican": 2313,
      "Ġhates": 2314,
      "Ġpopular": 2315,
      "Ġpresident": 2316,
      "Ġvillage": 2317,
      "hood": 2318,
      "uct": 2319,
      "Ġbare": 2320,
      "Ġcent": 2321,
      "erc": 2322,
      "ayed": 2323,
      "Ġnoticed": 2324,
      "Ġworst": 2325,
      "rent": 2326,
      "Ġclub": 2327,
      "Ġcond": 2328,
      "Ġasking": 2329,
      "Ġpoem": 2330,
      "Ġpainting": 2331,
      "Ġcontrol": 2332,
      "ails": 2333,
      "Ġperm": 2334,
      "Ġ10": 2335,
      "Ġrespons": 2336,
      "Ġcollect": 2337,
      "Ġmurder": 2338,
      "Ġwelcome": 2339,
      "uri": 2340,
      "own": 2341,
      "Ġplayer": 2342,
      "Ġtwenty": 2343,
      "board": 2344,
      "ments": 2345,
      "Ġenter": 2346,
      "Ġsentence": 2347,
      "apped": 2348,
      "Ġmill": 2349,
      "Ġgar": 2350,
      "Ġoct": 2351,
      "Ġfear": 2352,
      "Ġappear": 2353,
      "Ġdressed": 2354,
      "Ġenjoyed": 2355,
      "Ġfeelings": 2356,
      "Ġallowed": 2357,
      "Ġavoid": 2358,
      "Ġrisk": 2359,
      "Ġwedding": 2360,
      "uc": 2361,
      "ines": 2362,
      "Ġcow": 2363,
      "Ġthrew": 2364,
      "Ġfort": 2365,
      "sem": 2366,
      "Ġcomfortable": 2367,
      "Ġagreed": 2368,
      "Ġpainted": 2369,
      "Ġrecently": 2370,
      "Ġwindows": 2371,
      "Ġescape": 2372,
      "Ġsatisfied": 2373,
      "Ġgrandmother": 2374,
      "old": 2375,
      "rit": 2376,
      "Ġur": 2377,
      "Ġwet": 2378,
      "Ġwarn": 2379,
      "Ġmap": 2380,
      "Ġform": 2381,
      "Ġgold": 2382,
      "unt": 2383,
      "ppy": 2384,
      "ilty": 2385,
      "Ġunfort": 2386,
      "Ġpeace": 2387,
      "Ġwondered": 2388,
      "Ġbody": 2389,
      "Ġguilty": 2390,
      "Ġpair": 2391,
      "Ġski": 2392,
      "Ġyellow": 2393,
      "Ġpotato": 2394,
      "ef": 2395,
      "iving": 2396,
      "ober": 2397,
      "Ġtow": 2398,
      "Ġdate": 2399,
      "Ġpower": 2400,
      "Ġwears": 2401,
      "idence": 2402,
      "str": 2403,
      "vented": 2404,
      "Ġmoon": 2405,
      "Ġ20": 2406,
      "Ġtemper": 2407,
      "asket": 2408,
      "Ġapartment": 2409,
      "Ġearlier": 2410,
      "Ġoctober": 2411,
      "bers": 2412,
      "Ġcous": 2413,
      "Ġpu": 2414,
      "Ġpiz": 2415,
      "ery": 2416,
      "arm": 2417,
      "Ġking": 2418,
      "ache": 2419,
      "Ġsea": 2420,
      "olved": 2421,
      "Ġideas": 2422,
      "Ġfarm": 2423,
      "Ġexplained": 2424,
      "Ġmiddle": 2425,
      "Ġmagaz": 2426,
      "Ġpurp": 2427,
      "Ġdelicious": 2428,
      "Ġhistory": 2429,
      "Ġpizz": 2430,
      "bs": 2431,
      "rat": 2432,
      "Ġma": 2433,
      "Ġboring": 2434,
      "Ġbasket": 2435,
      "Ġcash": 2436,
      "Ġfurn": 2437,
      "Ġfired": 2438,
      "Ġla": 2439,
      "Ġthrow": 2440,
      "Ġbear": 2441,
      "Ġrang": 2442,
      "aces": 2443,
      "Ġcard": 2444,
      "Ġrob": 2445,
      "Ġunderstood": 2446,
      "Ġevent": 2447,
      "Ġsatur": 2448,
      "Ġrealize": 2449,
      "Ġsupport": 2450,
      "000": 2451,
      "Ġtype": 2452,
      "Ġclaim": 2453,
      "ches": 2454,
      "hol": 2455,
      "Ġsight": 2456,
      "Ġdirty": 2457,
      "Ġfed": 2458,
      "ories": 2459,
      "Ġisland": 2460,
      "Ġinvest": 2461,
      "Ġwashing": 2462,
      "alent": 2463,
      "Ġspring": 2464,
      "Ġsuitc": 2465,
      "Ġcards": 2466,
      "Ġintro": 2467,
      "ager": 2468,
      "Ġdisg": 2469,
      "Ġshar": 2470,
      "Ġdesp": 2471,
      "Ġpaint": 2472,
      "Ġsisters": 2473,
      "Ġcomplaining": 2474,
      "rupt": 2475,
      "Ġrent": 2476,
      "Ġinnocent": 2477,
      "Ġpurpose": 2478,
      "Ġsaturday": 2479,
      "ees": 2480,
      "iers": 2481,
      "light": 2482,
      "Ġach": 2483,
      "inc": 2484,
      "vered": 2485,
      "Ġfaster": 2486,
      "Ġlow": 2487,
      "Ġlaz": 2488,
      "Ġnorm": 2489,
      "Ġinj": 2490,
      "Ġearn": 2491,
      "Ġste": 2492,
      "Ġsteal": 2493,
      "Ġmark": 2494,
      "Ġgover": 2495,
      "uts": 2496,
      "cks": 2497,
      "Ġopt": 2498,
      "Ġscream": 2499,
      "Ġimpro": 2500,
      "Ġmissing": 2501,
      "ogn": 2502,
      "Ġrecogn": 2503,
      "Ġaccomp": 2504,
      "sy": 2505,
      "Ġwoke": 2506,
      "Ġmuse": 2507,
      "Ġyen": 2508,
      "Ġcig": 2509,
      "Ġcool": 2510,
      "Ġfil": 2511,
      "Ġliar": 2512,
      "Ġwhenever": 2513,
      "Ġcovered": 2514,
      "Ġharder": 2515,
      "Ġuseful": 2516,
      "Ġintell": 2517,
      "Ġpicked": 2518,
      "Ġadmit": 2519,
      "Ġcapital": 2520,
      "Ġconvince": 2521,
      "Ġlocked": 2522,
      "Ġbreath": 2523,
      "Ġsports": 2524,
      "Ġunivers": 2525,
      "Ġintrodu": 2526,
      "Ġmuseum": 2527,
      "Ġtheater": 2528,
      "anation": 2529,
      "Ġhey": 2530,
      "Ġger": 2531,
      "oted": 2532,
      "ushed": 2533,
      "Ġstick": 2534,
      "Ġexerc": 2535,
      "Ġchoc": 2536,
      "Ġboat": 2537,
      "Ġstuff": 2538,
      "Ġposs": 2539,
      "Ġgroup": 2540,
      "ians": 2541,
      "Ġclassroom": 2542,
      "Ġstole": 2543,
      "ealous": 2544,
      "Ġexplanation": 2545,
      "Ġvegetables": 2546,
      "Ġduty": 2547,
      "Ġintellig": 2548,
      "Ġchocol": 2549,
      "eared": 2550,
      "oon": 2551,
      "Ġwound": 2552,
      "hamed": 2553,
      "Ġdest": 2554,
      "Ġlone": 2555,
      "Ġloud": 2556,
      "Ġposition": 2557,
      "uses": 2558,
      "Ġashamed": 2559,
      "Ġjealous": 2560,
      "Ġtruck": 2561,
      "Ġtears": 2562,
      "ili": 2563,
      "Ġchick": 2564,
      "Ġtalks": 2565,
      "Ġdishes": 2566,
      "Ġbott": 2567,
      "Ġforever": 2568,
      "Ġlaughing": 2569,
      "Ġafford": 2570,
      "Ġaccording": 2571,
      "Ġgerman": 2572,
      "set": 2573,
      "Ġcustom": 2574,
      "Ġfence": 2575,
      "Ġlack": 2576,
      "Ġdoc": 2577,
      "Ġstom": 2578,
      "amp": 2579,
      "Ġfeet": 2580,
      "Ġpleas": 2581,
      "Ġordered": 2582,
      "Ġfeels": 2583,
      "Ġshall": 2584,
      "Ġlistened": 2585,
      "Ġrealized": 2586,
      "Ġended": 2587,
      "Ġforgotten": 2588,
      "Ġearthqu": 2589,
      "Ġclimb": 2590,
      "overed": 2591,
      "Ġbelongs": 2592,
      "Ġidi": 2593,
      "Ġjacket": 2594,
      "Ġarrested": 2595,
      "Ġdisappointed": 2596,
      "Ġpizza": 2597,
      "Ġgovern": 2598,
      "cing": 2599,
      "Ġaut": 2600,
      "Ġcell": 2601,
      "Ġlic": 2602,
      "Ġyourselves": 2603,
      "aded": 2604,
      "Ġalarm": 2605,
      "Ġune": 2606,
      "Ġfever": 2607,
      "Ġview": 2608,
      "Ġbelieves": 2609,
      "Ġsooner": 2610,
      "Ġanswered": 2611,
      "Ġdescri": 2612,
      "Ġpretended": 2613,
      "Ġcrime": 2614,
      "ibility": 2615,
      "Ġlegs": 2616,
      "Ġsoldiers": 2617,
      "Ġtranslate": 2618,
      "Ġtaste": 2619,
      "Ġfresh": 2620,
      "Ġraise": 2621,
      "Ġcaused": 2622,
      "Ġjuice": 2623,
      "Ġappreciate": 2624,
      "Ġunfortunately": 2625,
      "Ġlonely": 2626,
      "Ġdocument": 2627,
      "hip": 2628,
      "rass": 2629,
      "Ġahead": 2630,
      "Ġmir": 2631,
      "Ġheat": 2632,
      "ency": 2633,
      "Ġnine": 2634,
      "iture": 2635,
      "Ġreached": 2636,
      "anted": 2637,
      "Ġnotice": 2638,
      "ury": 2639,
      "Ġlead": 2640,
      "Ġstuck": 2641,
      "Ġkeeps": 2642,
      "Ġbedroom": 2643,
      "Ġattract": 2644,
      "Ġcookies": 2645,
      "Ġembar": 2646,
      "Ġobvious": 2647,
      "Ġsubject": 2648,
      "Ġdropped": 2649,
      "Ġprofess": 2650,
      "urious": 2651,
      "Ġfurniture": 2652,
      "Ġembarrass": 2653,
      "che": 2654,
      "com": 2655,
      "host": 2656,
      "ude": 2657,
      "Ġtight": 2658,
      "Ġtalent": 2659,
      "Ġwore": 2660,
      "inced": 2661,
      "Ġbow": 2662,
      "Ġbike": 2663,
      "Ġghost": 2664,
      "Ġef": 2665,
      "Ġequ": 2666,
      "Ġshy": 2667,
      "ained": 2668,
      "Ġusual": 2669,
      "ouses": 2670,
      "Ġdrop": 2671,
      "icked": 2672,
      "Ġflute": 2673,
      "Ġdirect": 2674,
      "Ġspoken": 2675,
      "Ġhealthy": 2676,
      "Ġreturned": 2677,
      "Ġfighting": 2678,
      "Ġfootball": 2679,
      "Ġconvinced": 2680,
      "Ġextrem": 2681,
      "Ġsharp": 2682,
      "kn": 2683,
      "Ġsang": 2684,
      "Ġdry": 2685,
      "Ġgra": 2686,
      "ety": 2687,
      "Ġbutter": 2688,
      "Ġvote": 2689,
      "Ġamaz": 2690,
      "ission": 2691,
      "Ġscen": 2692,
      "Ġbigger": 2693,
      "Ġinvolved": 2694,
      "Ġflower": 2695,
      "Ġcourage": 2696,
      "Ġhuman": 2697,
      "Ġjudge": 2698,
      "ker": 2699,
      "son": 2700,
      "Ġauth": 2701,
      "Ġtoil": 2702,
      "Ġhabit": 2703,
      "oth": 2704,
      "Ġroof": 2705,
      "oph": 2706,
      "rog": 2707,
      "aret": 2708,
      "Ġlots": 2709,
      "Ġpartic": 2710,
      "Ġpersu": 2711,
      "Ġrepe": 2712,
      "Ġnearly": 2713,
      "Ġsweet": 2714,
      "Ġclearly": 2715,
      "Ġelectric": 2716,
      "Ġchinese": 2717,
      "Ġengine": 2718,
      "Ġcondition": 2719,
      "Ġcigaret": 2720,
      "Ġchocolate": 2721,
      "book": 2722,
      "gest": 2723,
      "vior": 2724,
      "Ġtou": 2725,
      "Ġmail": 2726,
      "Ġban": 2727,
      "Ġben": 2728,
      "Ġpic": 2729,
      "Ġcancer": 2730,
      "usted": 2731,
      "Ġallerg": 2732,
      "Ġsaved": 2733,
      "Ġproduct": 2734,
      "umed": 2735,
      "Ġflu": 2736,
      "Ġflight": 2737,
      "Ġbelieved": 2738,
      "Ġpassport": 2739,
      "Ġabsence": 2740,
      "Ġmidnight": 2741,
      "Ġbehavior": 2742,
      "Ġannoy": 2743,
      "Ġuniversity": 2744,
      "pe": 2745,
      "Ġtur": 2746,
      "Ġmood": 2747,
      "Ġcreat": 2748,
      "Ġcause": 2749,
      "Ġpool": 2750,
      "Ġhouses": 2751,
      "Ġecon": 2752,
      "ides": 2753,
      "Ġwashed": 2754,
      "Ġrace": 2755,
      "ural": 2756,
      "Ġspeaker": 2757,
      "Ġcompet": 2758,
      "Ġthemselves": 2759,
      "Ġinvite": 2760,
      "Ġsolution": 2761,
      "Ġfollowed": 2762,
      "Ġcourse": 2763,
      "Ġcertainly": 2764,
      "Ġsimple": 2765,
      "Ġzoo": 2766,
      "Ġstraight": 2767,
      "Ġpotatoes": 2768,
      "Ġachie": 2769,
      "Ġinjured": 2770,
      "Ġgovernment": 2771,
      "Ġtoilet": 2772,
      "Ġeconom": 2773,
      "ead": 2774,
      "gers": 2775,
      "par": 2776,
      "Ġaunt": 2777,
      "Ġtot": 2778,
      "Ġyork": 2779,
      "Ġlay": 2780,
      "Ġlond": 2781,
      "ldom": 2782,
      "key": 2783,
      "stem": 2784,
      "unity": 2785,
      "ters": 2786,
      "Ġseldom": 2787,
      "Ġnose": 2788,
      "Ġexist": 2789,
      "Ġpleased": 2790,
      "Ġamong": 2791,
      "Ġprices": 2792,
      "Ġaccused": 2793,
      "Ġcalling": 2794,
      "Ġawake": 2795,
      "Ġappo": 2796,
      "Ġresult": 2797,
      "Ġsinger": 2798,
      "bey": 2799,
      "Ġhob": 2800,
      "Ġlights": 2801,
      "Ġexpecting": 2802,
      "Ġbathroom": 2803,
      "Ġsystem": 2804,
      "Ġsandw": 2805,
      "Ġdemand": 2806,
      "Ġmillion": 2807,
      "Ġintelligent": 2808,
      "Ġchicken": 2809,
      "Ġlicense": 2810,
      "Ġextremely": 2811,
      "Ġlondon": 2812,
      "gan": 2813,
      "ls": 2814,
      "phan": 2815,
      "Ġbom": 2816,
      "Ġcast": 2817,
      "Ġgent": 2818,
      "Ġgiving": 2819,
      "Ġneck": 2820,
      "ird": 2821,
      "Ġabove": 2822,
      "Ġsocks": 2823,
      "ilar": 2824,
      "Ġsuic": 2825,
      "Ġgoodby": 2826,
      "Ġrock": 2827,
      "Ġourselves": 2828,
      "ected": 2829,
      "Ġbuying": 2830,
      "Ġdiet": 2831,
      "Ġdivor": 2832,
      "Ġrained": 2833,
      "Ġentire": 2834,
      "Ġheadache": 2835,
      "Ġassume": 2836,
      "Ġseriously": 2837,
      "Ġrule": 2838,
      "Ġfixed": 2839,
      "Ġopport": 2840,
      "Ġjumped": 2841,
      "ermark": 2842,
      "Ġsupermark": 2843,
      "ues": 2844,
      "ule": 2845,
      "Ġ3": 2846,
      "Ġcir": 2847,
      "Ġfle": 2848,
      "Ġfond": 2849,
      "Ġnor": 2850,
      "Ġnur": 2851,
      "Ġforced": 2852,
      "cell": 2853,
      "Ġwilling": 2854,
      "Ġwhoever": 2855,
      "Ġhelping": 2856,
      "eless": 2857,
      "ational": 2858,
      "Ġjokes": 2859,
      "Ġcheap": 2860,
      "Ġchess": 2861,
      "Ġcountries": 2862,
      "Ġletters": 2863,
      "Ġpretend": 2864,
      "ograp": 2865,
      "Ġdreams": 2866,
      "intment": 2867,
      "Ġinstead": 2868,
      "Ġdeserve": 2869,
      "Ġprepared": 2870,
      "Ġbarely": 2871,
      "Ġeffort": 2872,
      "Ġauthor": 2873,
      "Ġgentle": 2874,
      "cious": 2875,
      "een": 2876,
      "gress": 2877,
      "Ġmention": 2878,
      "Ġdam": 2879,
      "Ġcried": 2880,
      "Ġthief": 2881,
      "itive": 2882,
      "Ġbell": 2883,
      "Ġresem": 2884,
      "riger": 2885,
      "istic": 2886,
      "ests": 2887,
      "ific": 2888,
      "itely": 2889,
      "ards": 2890,
      "Ġdise": 2891,
      "Ġhanded": 2892,
      "Ġstarting": 2893,
      "Ġmath": 2894,
      "Ġhung": 2895,
      "Ġsongs": 2896,
      "Ġrefriger": 2897,
      "Ġcamp": 2898,
      "Ġmeaning": 2899,
      "Ġintern": 2900,
      "Ġrude": 2901,
      "Ġchina": 2902,
      "Ġdancing": 2903,
      "Ġsuitcase": 2904,
      "Ġgoodbye": 2905,
      "Ġu": 2906,
      "ones": 2907,
      "Ġfac": 2908,
      "eday": 2909,
      "ism": 2910,
      "arch": 2911,
      "Ġobey": 2912,
      "omm": 2913,
      "Ġmeant": 2914,
      "ilities": 2915,
      "Ġdeb": 2916,
      "Ġdece": 2917,
      "ield": 2918,
      "Ġsomeday": 2919,
      "Ġmoving": 2920,
      "Ġresults": 2921,
      "Ġshoot": 2922,
      "Ġrecomm": 2923,
      "Ġadmitted": 2924,
      "Ġeventually": 2925,
      "Ġexercise": 2926,
      "Ġsupermarket": 2927,
      "do": 2928,
      "hem": 2929,
      "Ġnat": 2930,
      "itch": 2931,
      "Ġcance": 2932,
      "Ġgoal": 2933,
      "Ġexcell": 2934,
      "apers": 2935,
      "Ġclou": 2936,
      "Ġconside": 2937,
      "els": 2938,
      "Ġamb": 2939,
      "Ġharm": 2940,
      "Ġscar": 2941,
      "temp": 2942,
      "Ġglo": 2943,
      "Ġhurts": 2944,
      "Ġteachers": 2945,
      "Ġskin": 2946,
      "Ġassumed": 2947,
      "Ġaccepted": 2948,
      "Ġsweater": 2949,
      "Ġsmells": 2950,
      "Ġbright": 2951,
      "Ġsuspic": 2952,
      "Ġcontinue": 2953,
      "Ġunlike": 2954,
      "Ġlosing": 2955,
      "Ġmagazine": 2956,
      "Ġlazy": 2957,
      "Ġidiot": 2958,
      "Ġnurse": 2959,
      "Ġrefrigerator": 2960,
      "Ġexcellent": 2961,
      "Ġconsidered": 2962,
      "Ġ30": 2963,
      "Ġsize": 2964,
      "Ġmain": 2965,
      "Ġpush": 2966,
      "Ġgames": 2967,
      "Ġstairs": 2968,
      "Ġneg": 2969,
      "Ġlean": 2970,
      "Ġupset": 2971,
      "Ġdev": 2972,
      "Ġadop": 2973,
      "Ġbecom": 2974,
      "Ġchanges": 2975,
      "ires": 2976,
      "Ġanimal": 2977,
      "Ġtastes": 2978,
      "Ġraised": 2979,
      "Ġlady": 2980,
      "Ġgradu": 2981,
      "Ġemployees": 2982,
      "Ġtemperature": 2983,
      "Ġnormal": 2984,
      "Ġsuicide": 2985,
      "xic": 2986,
      "Ġnames": 2987,
      "Ġthirst": 2988,
      "Ġweak": 2989,
      "Ġant": 2990,
      "Ġrope": 2991,
      "Ġarea": 2992,
      "Ġnote": 2993,
      "Ġshout": 2994,
      "Ġexha": 2995,
      "Ġmanaged": 2996,
      "Ġvide": 2997,
      "Ġcover": 2998,
      "Ġintention": 2999,
      "Ġlefto": 3000,
      "Ġexcited": 3001,
      "Ġincre": 3002,
      "Ġprize": 3003,
      "Ġurg": 3004,
      "Ġgrab": 3005,
      "eg": 3006,
      "uge": 3007,
      "Ġ6": 3008,
      "Ġtend": 3009,
      "Ġdumb": 3010,
      "Ġhi": 3011,
      "Ġoil": 3012,
      "Ġweap": 3013,
      "Ġweird": 3014,
      "ically": 3015,
      "aly": 3016,
      "Ġsepar": 3017,
      "Ġspain": 3018,
      "Ġspace": 3019,
      "Ġunf": 3020,
      "Ġfriday": 3021,
      "Ġsaving": 3022,
      "Ġhelps": 3023,
      "Ġwherever": 3024,
      "Ġbrave": 3025,
      "Ġbrush": 3026,
      "Ġbull": 3027,
      "Ġsleepy": 3028,
      "Ġcontact": 3029,
      "Ġaccidents": 3030,
      "Ġclasses": 3031,
      "Ġmatters": 3032,
      "Ġcorner": 3033,
      "Ġteaching": 3034,
      "Ġsilent": 3035,
      "Ġfilled": 3036,
      "Ġdefin": 3037,
      "Ġaccomplish": 3038,
      "rently": 3039,
      "Ġresponsible": 3040,
      "Ġhobby": 3041,
      "cul": 3042,
      "na": 3043,
      "Ġ8": 3044,
      "rel": 3045,
      "Ġdrow": 3046,
      "Ġbi": 3047,
      "Ġband": 3048,
      "ings": 3049,
      "arter": 3050,
      "ashed": 3051,
      "Ġpeel": 3052,
      "Ġintend": 3053,
      "Ġorgan": 3054,
      "Ġtwel": 3055,
      "Ġcomplic": 3056,
      "Ġpocket": 3057,
      "Ġslight": 3058,
      "Ġbegins": 3059,
      "Ġconfused": 3060,
      "Ġdistance": 3061,
      "Ġmountains": 3062,
      "Ġproper": 3063,
      "Ġremained": 3064,
      "Ġiron": 3065,
      "Ġeduc": 3066,
      "Ġdenied": 3067,
      "Ġdrugs": 3068,
      "ugged": 3069,
      "Ġearthquake": 3070,
      "Ġallergic": 3071,
      "Ġopportunity": 3072,
      "Ġunlikely": 3073,
      "haps": 3074,
      "Ġbark": 3075,
      "Ġcit": 3076,
      "Ġpity": 3077,
      "ases": 3078,
      "using": 3079,
      "Ġrare": 3080,
      "stand": 3081,
      "stairs": 3082,
      "under": 3083,
      "Ġself": 3084,
      "Ġnoon": 3085,
      "isted": 3086,
      "Ġhappiness": 3087,
      "Ġorang": 3088,
      "Ġfriendly": 3089,
      "Ġsched": 3090,
      "Ġkinds": 3091,
      "Ġpaying": 3092,
      "Ġperhaps": 3093,
      "Ġsnowing": 3094,
      "Ġelev": 3095,
      "Ġcute": 3096,
      "Ġpatience": 3097,
      "Ġfingers": 3098,
      "Ġfactory": 3099,
      "Ġpropos": 3100,
      "Ġburned": 3101,
      "Ġappointment": 3102,
      "Ġtwelve": 3103,
      "Ġoranges": 3104,
      "cut": 3105,
      "hib": 3106,
      "iqu": 3107,
      "ler": 3108,
      "line": 3109,
      "ners": 3110,
      "Ġsour": 3111,
      "Ġbite": 3112,
      "Ġchat": 3113,
      "eding": 3114,
      "eral": 3115,
      "Ġnamed": 3116,
      "Ġow": 3117,
      "Ġthreat": 3118,
      "lebr": 3119,
      "Ġrum": 3120,
      "ality": 3121,
      "Ġwithin": 3122,
      "ulty": 3123,
      "Ġjoking": 3124,
      "Ġorange": 3125,
      "Ġsmiling": 3126,
      "Ġaccent": 3127,
      "Ġbetr": 3128,
      "Ġcalls": 3129,
      "Ġears": 3130,
      "Ġhearing": 3131,
      "Ġtrusted": 3132,
      "aff": 3133,
      "Ġhandsome": 3134,
      "Ġexamination": 3135,
      "Ġfollowing": 3136,
      "Ġsalary": 3137,
      "ship": 3138,
      "Ġpieces": 3139,
      "Ġmemory": 3140,
      "Ġflying": 3141,
      "Ġparis": 3142,
      "Ġdrove": 3143,
      "Ġcontinued": 3144,
      "Ġcopy": 3145,
      "Ġcelebr": 3146,
      "gram": 3147,
      "Ġblew": 3148,
      "Ġfilm": 3149,
      "iliar": 3150,
      "Ġurgent": 3151,
      "ded": 3152,
      "den": 3153,
      "ipped": 3154,
      "uing": 3155,
      "Ġwise": 3156,
      "Ġsouth": 3157,
      "inal": 3158,
      "Ġdue": 3159,
      "Ġdying": 3160,
      "Ġhero": 3161,
      "enced": 3162,
      "Ġnaked": 3163,
      "Ġiss": 3164,
      "ats": 3165,
      "Ġstars": 3166,
      "Ġreach": 3167,
      "ung": 3168,
      "right": 3169,
      "Ġseason": 3170,
      "Ġjail": 3171,
      "Ġanyway": 3172,
      "Ġplenty": 3173,
      "Ġfrance": 3174,
      "Ġdeaf": 3175,
      "Ġloc": 3176,
      "Ġconcent": 3177,
      "Ġprov": 3178,
      "Ġprove": 3179,
      "Ġroll": 3180,
      "Ġflash": 3181,
      "Ġmoder": 3182,
      "Ġstranger": 3183,
      "Ġmatch": 3184,
      "ipe": 3185,
      "Ġspends": 3186,
      "Ġforest": 3187,
      "Ġexample": 3188,
      "ology": 3189,
      "Ġinstr": 3190,
      "Ġpriv": 3191,
      "Ġneighbors": 3192,
      "Ġescaped": 3193,
      "Ġimagine": 3194,
      "Ġrequest": 3195,
      "Ġpermission": 3196,
      "Ġthirsty": 3197,
      "Ġvideo": 3198,
      "Ġcitiz": 3199,
      "Ġelevator": 3200,
      "Ġconcentr": 3201,
      "iest": 3202,
      "ne": 3203,
      "ob": 3204,
      "zz": 3205,
      "Ġtour": 3206,
      "Ġtong": 3207,
      "Ġlou": 3208,
      "Ġlim": 3209,
      "Ġpan": 3210,
      "Ġhors": 3211,
      "Ġmeal": 3212,
      "Ġstone": 3213,
      "Ġkil": 3214,
      "Ġtrap": 3215,
      "ction": 3216,
      "Ġsuf": 3217,
      "Ġsale": 3218,
      "Ġgives": 3219,
      "Ġaccess": 3220,
      "Ġappl": 3221,
      "Ġscient": 3222,
      "icted": 3223,
      "Ġfamiliar": 3224,
      "Ġclever": 3225,
      "Ġeasier": 3226,
      "Ġruns": 3227,
      "Ġdifficulty": 3228,
      "Ġsolved": 3229,
      "Ġmenu": 3230,
      "Ġthird": 3231,
      "Ġobject": 3232,
      "cohol": 3233,
      "Ġhoping": 3234,
      "Ġfoolish": 3235,
      "Ġfifteen": 3236,
      "Ġmotor": 3237,
      "Ġskiing": 3238,
      "Ġproposal": 3239,
      "Ġhorses": 3240,
      "nic": 3241,
      "sit": 3242,
      "uel": 3243,
      "Ġug": 3244,
      "Ġsore": 3245,
      "Ġtheory": 3246,
      "Ġdent": 3247,
      "Ġdig": 3248,
      "Ġcou": 3249,
      "Ġcurious": 3250,
      "Ġlit": 3251,
      "Ġhesit": 3252,
      "Ġpred": 3253,
      "its": 3254,
      "omet": 3255,
      "Ġlift": 3256,
      "tery": 3257,
      "urd": 3258,
      "ores": 3259,
      "Ġtext": 3260,
      "cts": 3261,
      "Ġspill": 3262,
      "astic": 3263,
      "Ġmanager": 3264,
      "Ġpassen": 3265,
      "Ġhole": 3266,
      "Ġcrit": 3267,
      "Ġairpl": 3268,
      "Ġabsurd": 3269,
      "Ġemail": 3270,
      "Ġemerg": 3271,
      "Ġdistur": 3272,
      "Ġartic": 3273,
      "Ġclimbed": 3274,
      "Ġsimilar": 3275,
      "Ġjackson": 3276,
      "Ġpulled": 3277,
      "Ġdepends": 3278,
      "Ġresemb": 3279,
      "Ġnatural": 3280,
      "Ġdefinitely": 3281,
      "Ġcomplicated": 3282,
      "Ġtongue": 3283,
      "Ġugly": 3284,
      "Ġemergency": 3285,
      "bling": 3286,
      "iable": 3287,
      "ses": 3288,
      "uce": 3289,
      "Ġaim": 3290,
      "Ġba": 3291,
      "Ġcred": 3292,
      "Ġcab": 3293,
      "Ġna": 3294,
      "Ġinse": 3295,
      "Ġweigh": 3296,
      "Ġmexic": 3297,
      "Ġstri": 3298,
      "iment": 3299,
      "und": 3300,
      "unte": 3301,
      "Ġattemp": 3302,
      "pper": 3303,
      "Ġworn": 3304,
      "Ġunless": 3305,
      "ulous": 3306,
      "fered": 3307,
      "Ġdiv": 3308,
      "Ġguests": 3309,
      "Ġgrass": 3310,
      "Ġresign": 3311,
      "Ġskirt": 3312,
      "Ġmiles": 3313,
      "Ġsupper": 3314,
      "Ġdiscovered": 3315,
      "Ġtraveling": 3316,
      "Ġillness": 3317,
      "Ġsubway": 3318,
      "Ġcrossed": 3319,
      "Ġsymp": 3320,
      "Ġdeeply": 3321,
      "Ġphotograp": 3322,
      "Ġattacked": 3323,
      "Ġvolunte": 3324,
      "Ġsuggested": 3325,
      "Ġneighborhood": 3326,
      "Ġcousin": 3327,
      "Ġbasketball": 3328,
      "Ġstealing": 3329,
      "Ġbottom": 3330,
      "Ġmirror": 3331,
      "Ġgentleman": 3332,
      "Ġdisease": 3333,
      "awn": 3334,
      "fa": 3335,
      "yed": 3336,
      "Ġbrow": 3337,
      "Ġfright": 3338,
      "Ġpill": 3339,
      "Ġhated": 3340,
      "owled": 3341,
      "idays": 3342,
      "Ġstories": 3343,
      "aled": 3344,
      "amm": 3345,
      "Ġalcohol": 3346,
      "Ġusing": 3347,
      "Ġspan": 3348,
      "ify": 3349,
      "Ġgotten": 3350,
      "Ġprogram": 3351,
      "Ġrose": 3352,
      "Ġbucket": 3353,
      "Ġremark": 3354,
      "Ġmod": 3355,
      "Ġground": 3356,
      "Ġstarts": 3357,
      "Ġphys": 3358,
      "Ġwinning": 3359,
      "Ġamericans": 3360,
      "Ġdepart": 3361,
      "Ġfalling": 3362,
      "Ġtranslated": 3363,
      "Ġargue": 3364,
      "Ġprepare": 3365,
      "Ġfifty": 3366,
      "Ġsurvived": 3367,
      "Ġoccur": 3368,
      "Ġpractice": 3369,
      "Ġstomach": 3370,
      "Ġbomb": 3371,
      "Ġrecommend": 3372,
      "Ġcredit": 3373,
      "Ġnaive": 3374,
      "men": 3375,
      "Ġmaster": 3376,
      "ances": 3377,
      "Ġhuge": 3378,
      "Ġoce": 3379,
      "Ġoffered": 3380,
      "Ġcandy": 3381,
      "irts": 3382,
      "Ġuns": 3383,
      "ateful": 3384,
      "apt": 3385,
      "Ġenerg": 3386,
      "iff": 3387,
      "Ġackn": 3388,
      "Ġlasted": 3389,
      "Ġawful": 3390,
      "Ġscold": 3391,
      "Ġstudies": 3392,
      "Ġanswers": 3393,
      "Ġshock": 3394,
      "Ġattended": 3395,
      "Ġcontract": 3396,
      "Ġrepair": 3397,
      "Ġinvit": 3398,
      "Ġcommun": 3399,
      "Ġassist": 3400,
      "Ġtempt": 3401,
      "Ġextra": 3402,
      "Ġtreated": 3403,
      "Ġsuspect": 3404,
      "Ġcenter": 3405,
      "Ġtowel": 3406,
      "Ġmarket": 3407,
      "Ġdestro": 3408,
      "Ġghosts": 3409,
      "Ġbench": 3410,
      "Ġpicnic": 3411,
      "Ġtotally": 3412,
      "Ġsandwich": 3413,
      "standing": 3414,
      "Ġlouder": 3415,
      "Ġsuffer": 3416,
      "Ġpassengers": 3417,
      "Ġspanish": 3418,
      "Ġacknowled": 3419,
      "mon": 3420,
      "ney": 3421,
      "per": 3422,
      "Ġ4": 3423,
      "Ġ7": 3424,
      "Ġ9": 3425,
      "Ġsort": 3426,
      "ony": 3427,
      "Ġcough": 3428,
      "ising": 3429,
      "Ġhell": 3430,
      "Ġhill": 3431,
      "Ġwebs": 3432,
      "Ġones": 3433,
      "Ġrom": 3434,
      "ster": 3435,
      "Ġshelf": 3436,
      "Ġwitness": 3437,
      "Ġalth": 3438,
      "Ġsofa": 3439,
      "Ġspl": 3440,
      "Ġshoulder": 3441,
      "Ġbud": 3442,
      "asses": 3443,
      "Ġprevented": 3444,
      "Ġoffic": 3445,
      "Ġorig": 3446,
      "anged": 3447,
      "Ġunderstands": 3448,
      "Ġgrateful": 3449,
      "Ġcheek": 3450,
      "Ġsuppose": 3451,
      "Ġcommitted": 3452,
      "Ġconfess": 3453,
      "Ġstronger": 3454,
      "Ġwrites": 3455,
      "Ġagreement": 3456,
      "Ġcosts": 3457,
      "Ġtickets": 3458,
      "Ġpopul": 3459,
      "Ġavail": 3460,
      "Ġhopes": 3461,
      "Ġphoto": 3462,
      "Ġinvestig": 3463,
      "Ġintroduce": 3464,
      "Ġamazing": 3465,
      "Ġcastle": 3466,
      "Ġeducation": 3467,
      "Ġflashlight": 3468,
      "Ġarticle": 3469,
      "Ġalthough": 3470,
      "aired": 3471,
      "cha": 3472,
      "me": 3473,
      "oll": 3474,
      "zen": 3475,
      "Ġsons": 3476,
      "res": 3477,
      "Ġpage": 3478,
      "Ġhoney": 3479,
      "Ġthin": 3480,
      "antly": 3481,
      "acy": 3482,
      "Ġabilities": 3483,
      "ains": 3484,
      "Ġuses": 3485,
      "Ġcarried": 3486,
      "Ġconce": 3487,
      "Ġconvers": 3488,
      "Ġburied": 3489,
      "Ġexpress": 3490,
      "Ġpale": 3491,
      "Ġimpress": 3492,
      "Ġfriendship": 3493,
      "Ġmathem": 3494,
      "Ġadvant": 3495,
      "Ġ18": 3496,
      "Ġsmaller": 3497,
      "Ġtallest": 3498,
      "Ġserv": 3499,
      "Ġarms": 3500,
      "Ġcomplete": 3501,
      "Ġsundays": 3502,
      "Ġmembers": 3503,
      "Ġdetail": 3504,
      "Ġdetails": 3505,
      "Ġbreathe": 3506,
      "Ġenemies": 3507,
      "Ġbrief": 3508,
      "Ġwoods": 3509,
      "Ġignored": 3510,
      "Ġaccomplished": 3511,
      "Ġwarned": 3512,
      "Ġmaj": 3513,
      "Ġrecognize": 3514,
      "Ġrepeat": 3515,
      "Ġexhausted": 3516,
      "Ġleftovers": 3517,
      "Ġmodern": 3518,
      "Ġairplane": 3519,
      "Ġbrown": 3520,
      "Ġavailable": 3521,
      "Ġmathemat": 3522,
      "bel": 3523,
      "look": 3524,
      "over": 3525,
      "Ġwis": 3526,
      "Ġfain": 3527,
      "Ġgate": 3528,
      "Ġnort": 3529,
      "Ġincl": 3530,
      "otion": 3531,
      "Ġeffe": 3532,
      "Ġlies": 3533,
      "Ġround": 3534,
      "rib": 3535,
      "amps": 3536,
      "Ġsew": 3537,
      "Ġuseless": 3538,
      "cture": 3539,
      "Ġworkers": 3540,
      "Ġenc": 3541,
      "Ġflag": 3542,
      "Ġpoison": 3543,
      "Ġjobs": 3544,
      "Ġteaches": 3545,
      "Ġbeauty": 3546,
      "Ġ100": 3547,
      "Ġrepaired": 3548,
      "Ġrecord": 3549,
      "Ġacted": 3550,
      "Ġpromises": 3551,
      "Ġkidding": 3552,
      "Ġelephan": 3553,
      "Ġlargest": 3554,
      "Ġcomputers": 3555,
      "Ġtraveled": 3556,
      "Ġcaptain": 3557,
      "Ġilleg": 3558,
      "Ġperfectly": 3559,
      "Ġridic": 3560,
      "Ġviolence": 3561,
      "Ġholiday": 3562,
      "Ġknocked": 3563,
      "Ġpossibility": 3564,
      "Ġdescribe": 3565,
      "Ġbanan": 3566,
      "Ġschedule": 3567,
      "Ġocean": 3568,
      "Ġenergy": 3569,
      "cin": 3570,
      "form": 3571,
      "ms": 3572,
      "to": 3573,
      "what": 3574,
      "Ġwol": 3575,
      "Ġtooth": 3576,
      "ining": 3577,
      "Ġdish": 3578,
      "Ġbes": 3579,
      "Ġcre": 3580,
      "Ġfield": 3581,
      "eds": 3582,
      "asons": 3583,
      "Ġinvented": 3584,
      "Ġmel": 3585,
      "Ġstamps": 3586,
      "Ġrev": 3587,
      "Ġraw": 3588,
      "tern": 3589,
      "Ġabo": 3590,
      "Ġunha": 3591,
      "Ġfridge": 3592,
      "Ġeverywhere": 3593,
      "Ġenv": 3594,
      "ationship": 3595,
      "Ġprogress": 3596,
      "Ġpron": 3597,
      "Ġgrap": 3598,
      "Ġresc": 3599,
      "Ġbadly": 3600,
      "Ġfox": 3601,
      "Ġfuneral": 3602,
      "Ġdoctors": 3603,
      "Ġpercent": 3604,
      "Ġrelig": 3605,
      "Ġrelationship": 3606,
      "Ġeleven": 3607,
      "Ġhighly": 3608,
      "Ġarmy": 3609,
      "ashion": 3610,
      "Ġwriter": 3611,
      "Ġcomplained": 3612,
      "Ġapologized": 3613,
      "Ġartist": 3614,
      "Ġabandon": 3615,
      "Ġarguing": 3616,
      "coat": 3617,
      "Ġpunished": 3618,
      "Ġsurvive": 3619,
      "Ġpolitic": 3620,
      "Ġgenerally": 3621,
      "Ġpuppy": 3622,
      "Ġaccompan": 3623,
      "Ġtough": 3624,
      "Ġachieved": 3625,
      "Ġgloves": 3626,
      "Ġbecoming": 3627,
      "Ġbetrayed": 3628,
      "Ġdentist": 3629,
      "Ġcouch": 3630,
      "Ġdisturb": 3631,
      "Ġtemptation": 3632,
      "Ġwebsite": 3633,
      "gth": 3634,
      "rop": 3635,
      "Ġwild": 3636,
      "Ġsens": 3637,
      "isy": 3638,
      "ences": 3639,
      "Ġnap": 3640,
      "Ġnons": 3641,
      "Ġitaly": 3642,
      "Ġwealth": 3643,
      "Ġrele": 3644,
      "Ġmarri": 3645,
      "Ġjam": 3646,
      "Ġspread": 3647,
      "Ġunable": 3648,
      "Ġuncom": 3649,
      "Ġdeg": 3650,
      "Ġchose": 3651,
      "Ġconst": 3652,
      "Ġpean": 3653,
      "Ġboard": 3654,
      "Ġours": 3655,
      "Ġcompared": 3656,
      "Ġchildhood": 3657,
      "Ġblank": 3658,
      "Ġoper": 3659,
      "Ġdiam": 3660,
      "Ġsleeps": 3661,
      "glasses": 3662,
      "Ġhunting": 3663,
      "Ġsunglasses": 3664,
      "bered": 3665,
      "Ġcrim": 3666,
      "Ġacting": 3667,
      "Ġcleaning": 3668,
      "Ġthirteen": 3669,
      "Ġsales": 3670,
      "Ġsigned": 3671,
      "Ġindia": 3672,
      "Ġsilence": 3673,
      "Ġcurtain": 3674,
      "Ġviolin": 3675,
      "Ġfailure": 3676,
      "Ġholidays": 3677,
      "Ġappears": 3678,
      "Ġparticular": 3679,
      "Ġfacts": 3680,
      "Ġclouds": 3681,
      "Ġsuspicious": 3682,
      "Ġhello": 3683,
      "Ġconversation": 3684,
      "Ġmathematics": 3685,
      "Ġillegal": 3686,
      "Ġnonsense": 3687,
      "ale": 3688,
      "bb": 3689,
      "fo": 3690,
      "ius": 3691,
      "ks": 3692,
      "pa": 3693,
      "pir": 3694,
      "tes": 3695,
      "het": 3696,
      "Ġactor": 3697,
      "Ġaud": 3698,
      "Ġtoward": 3699,
      "Ġsink": 3700,
      "Ġbaff": 3701,
      "Ġcong": 3702,
      "Ġfro": 3703,
      "orter": 3704,
      "Ġpsy": 3705,
      "lled": 3706,
      "Ġham": 3707,
      "Ġrab": 3708,
      "Ġwhist": 3709,
      "Ġsearch": 3710,
      "Ġcho": 3711,
      "Ġamount": 3712,
      "Ġcoins": 3713,
      "Ġaffect": 3714,
      "Ġprohib": 3715,
      "Ġmayor": 3716,
      "Ġappa": 3717,
      "Ġwalks": 3718,
      "Ġchew": 3719,
      "Ġpolite": 3720,
      "Ġmater": 3721,
      "Ġfold": 3722,
      "Ġmusician": 3723,
      "Ġcommand": 3724,
      "Ġregular": 3725,
      "Ġrespond": 3726,
      "Ġdepressed": 3727,
      "Ġmember": 3728,
      "Ġclimate": 3729,
      "Ġnovels": 3730,
      "Ġringing": 3731,
      "Ġmisunder": 3732,
      "Ġgarage": 3733,
      "Ġtalented": 3734,
      "Ġcirc": 3735,
      "Ġprivate": 3736,
      "Ġscolded": 3737,
      "Ġpopulation": 3738,
      "Ġaboard": 3739,
      "Ġaccompanied": 3740,
      "Ġmarriage": 3741,
      "Ġuncomfortable": 3742,
      "Ġrabbit": 3743,
      "ux": 3744,
      "xp": 3745,
      "Ġtap": 3746,
      "Ġmt": 3747,
      "inary": 3748,
      "Ġcot": 3749,
      "Ġfas": 3750,
      "isions": 3751,
      "Ġport": 3752,
      "Ġhire": 3753,
      "Ġnuts": 3754,
      "verage": 3755,
      "Ġkicked": 3756,
      "Ġcand": 3757,
      "Ġneare": 3758,
      "Ġtrapped": 3759,
      "ives": 3760,
      "Ġloss": 3761,
      "Ġcarp": 3762,
      "Ġvoted": 3763,
      "Ġbraz": 3764,
      "Ġflat": 3765,
      "Ġdisl": 3766,
      "Ġappeared": 3767,
      "Ġscience": 3768,
      "Ġchanging": 3769,
      "Ġstrang": 3770,
      "Ġcooked": 3771,
      "Ġcruel": 3772,
      "Ġsuppl": 3773,
      "Ġrefuse": 3774,
      "Ġinsult": 3775,
      "umped": 3776,
      "Ġexperiment": 3777,
      "Ġdisappeared": 3778,
      "Ġargument": 3779,
      "Ġborrowed": 3780,
      "cycle": 3781,
      "Ġsucceeded": 3782,
      "Ġignore": 3783,
      "Ġevil": 3784,
      "Ġvolume": 3785,
      "Ġbleeding": 3786,
      "Ġfortune": 3787,
      "Ġpuzz": 3788,
      "Ġrobbed": 3789,
      "Ġautom": 3790,
      "Ġprofessor": 3791,
      "Ġembarrassed": 3792,
      "Ġcigarette": 3793,
      "Ġannoying": 3794,
      "Ġgraduated": 3795,
      "ique": 3796,
      "Ġmotorcycle": 3797,
      "Ġridiculous": 3798,
      "Ġnearest": 3799,
      "Ġbrazil": 3800,
      "go": 3801,
      "hy": 3802,
      "ji": 3803,
      "ked": 3804,
      "ns": 3805,
      "rets": 3806,
      "Ġcave": 3807,
      "Ġcult": 3808,
      "Ġtomato": 3809,
      "order": 3810,
      "Ġpond": 3811,
      "Ġpants": 3812,
      "Ġgreet": 3813,
      "Ġhug": 3814,
      "asure": 3815,
      "itude": 3816,
      "iche": 3817,
      "aced": 3818,
      "irm": 3819,
      "Ġwheel": 3820,
      "Ġteen": 3821,
      "Ġpregn": 3822,
      "Ġstrict": 3823,
      "Ġdesign": 3824,
      "Ġadvance": 3825,
      "Ġgreatest": 3826,
      "Ġcleaned": 3827,
      "Ġlarger": 3828,
      "Ġexchan": 3829,
      "Ġregard": 3830,
      "Ġholding": 3831,
      "Ġcanada": 3832,
      "Ġinterrupt": 3833,
      "Ġconcerned": 3834,
      "Ġhorri": 3835,
      "Ġreceive": 3836,
      "Ġsuccessful": 3837,
      "Ġident": 3838,
      "Ġpunish": 3839,
      "Ġvalue": 3840,
      "Ġaccompany": 3841,
      "Ġpersuade": 3842,
      "Ġeconomy": 3843,
      "Ġdivorced": 3844,
      "Ġnotebook": 3845,
      "Ġissue": 3846,
      "Ġcritic": 3847,
      "Ġbald": 3848,
      "Ġmexico": 3849,
      "Ġadvantage": 3850,
      "Ġunhappy": 3851,
      "Ġfascin": 3852,
      "word": 3853,
      "yes": 3854,
      "zed": 3855,
      "Ġ$": 3856,
      "Ġess": 3857,
      "Ġast": 3858,
      "Ġwha": 3859,
      "Ġtor": 3860,
      "Ġmos": 3861,
      "hache": 3862,
      "Ġcoun": 3863,
      "Ġfu": 3864,
      "Ġlat": 3865,
      "Ġpushed": 3866,
      "Ġgree": 3867,
      "Ġnature": 3868,
      "Ġhall": 3869,
      "Ġitself": 3870,
      "lex": 3871,
      "icop": 3872,
      "antic": 3873,
      "chief": 3874,
      "Ġjour": 3875,
      "Ġtech": 3876,
      "roat": 3877,
      "Ġsoft": 3878,
      "Ġplanted": 3879,
      "Ġhelicop": 3880,
      "Ġconn": 3881,
      "Ġtells": 3882,
      "Ġnowhere": 3883,
      "Ġpepper": 3884,
      "Ġpray": 3885,
      "aith": 3886,
      "Ġflood": 3887,
      "Ġremo": 3888,
      "Ġcares": 3889,
      "Ġhandker": 3890,
      "Ġgranted": 3891,
      "Ġimpressed": 3892,
      "Ġdrives": 3893,
      "Ġfoc": 3894,
      "Ġshame": 3895,
      "Ġwins": 3896,
      "Ġcrash": 3897,
      "Ġactress": 3898,
      "Ġdreamed": 3899,
      "Ġpresents": 3900,
      "Ġsells": 3901,
      "Ġinsane": 3902,
      "Ġdistract": 3903,
      "Ġinfl": 3904,
      "Ġelection": 3905,
      "Ġfreed": 3906,
      "Ġdeserted": 3907,
      "Ġdeserves": 3908,
      "Ġdiscussion": 3909,
      "Ġpostp": 3910,
      "Ġstaring": 3911,
      "Ġpressure": 3912,
      "Ġreminds": 3913,
      "Ġcousins": 3914,
      "Ġdisgu": 3915,
      "Ġwounded": 3916,
      "Ġobviously": 3917,
      "Ġscene": 3918,
      "Ġcanceled": 3919,
      "Ġcommunic": 3920,
      "Ġmajor": 3921,
      "Ġencour": 3922,
      "Ġapparently": 3923,
      "Ġhandkerchief": 3924,
      "ium": 3925,
      "law": 3926,
      "round": 3927,
      "hered": 3928,
      "Ġaverage": 3929,
      "Ġwave": 3930,
      "Ġtoy": 3931,
      "Ġsou": 3932,
      "rer": 3933,
      "Ġdess": 3934,
      "Ġfought": 3935,
      "Ġgained": 3936,
      "Ġoh": 3937,
      "iting": 3938,
      "Ġstared": 3939,
      "Ġwhis": 3940,
      "Ġknowing": 3941,
      "aches": 3942,
      "Ġlecture": 3943,
      "Ġnoisy": 3944,
      "Ġoutf": 3945,
      "Ġsaf": 3946,
      "Ġdeer": 3947,
      "ified": 3948,
      "Ġprin": 3949,
      "Ġboots": 3950,
      "mploy": 3951,
      "Ġdiary": 3952,
      "Ġplanet": 3953,
      "Ġcheated": 3954,
      "Ġremembered": 3955,
      "Ġlately": 3956,
      "Ġkindness": 3957,
      "Ġthanked": 3958,
      "ocked": 3959,
      "Ġskill": 3960,
      "uggl": 3961,
      "Ġkissing": 3962,
      "Ġsalad": 3963,
      "velop": 3964,
      "Ġreasonable": 3965,
      "ibly": 3966,
      "Ġobs": 3967,
      "Ġincident": 3968,
      "Ġorders": 3969,
      "Ġruined": 3970,
      "Ġfallen": 3971,
      "Ġsoldier": 3972,
      "Ġgrown": 3973,
      "Ġelected": 3974,
      "Ġgenius": 3975,
      "Ġdiscussed": 3976,
      "Ġdefend": 3977,
      "Ġevidence": 3978,
      "Ġcloser": 3979,
      "Ġpolitics": 3980,
      "Ġlaid": 3981,
      "Ġclaimed": 3982,
      "Ġrecognized": 3983,
      "Ġintroduced": 3984,
      "Ġpleasure": 3985,
      "Ġunexp": 3986,
      "Ġelectricity": 3987,
      "Ġrumor": 3988,
      "Ġspilled": 3989,
      "Ġbaffled": 3990,
      "Ġpsych": 3991,
      "Ġtechn": 3992,
      "Ġdessert": 3993,
      ",\"": 3994,
      "bow": 3995,
      "bage": 3996,
      "how": 3997,
      "ram": 3998,
      "vard": 3999,
      "writ": 4000,
      "zing": 4001,
      "Ġest": 4002,
      "Ġty": 4003,
      "Ġtail": 4004,
      "Ġastr": 4005,
      "Ġdust": 4006,
      "Ġfaith": 4007,
      "anced": 4008,
      "Ġpil": 4009,
      "aring": 4010,
      "Ġhig": 4011,
      "Ġnar": 4012,
      "Ġanger": 4013,
      "Ġstat": 4014,
      "Ġrub": 4015,
      "Ġruss": 4016,
      "uted": 4017,
      "Ġabol": 4018,
      "Ġshorter": 4019,
      "Ġsoci": 4020,
      "Ġhowever": 4021,
      "Ġunus": 4022,
      "Ġfrank": 4023,
      "Ġcarr": 4024,
      "Ġvict": 4025,
      "Ġacqu": 4026,
      "Ġprodu": 4027,
      "Ġroses": 4028,
      "Ġbrit": 4029,
      "Ġsmarter": 4030,
      "Ġtwins": 4031,
      "Ġadj": 4032,
      "Ġharvard": 4033,
      "Ġapply": 4034,
      "Ġscrat": 4035,
      "Ġcareless": 4036,
      "Ġhandle": 4037,
      "Ġfinal": 4038,
      "Ġcheer": 4039,
      "Ġreserv": 4040,
      "Ġmistaken": 4041,
      "Ġmission": 4042,
      "Ġperform": 4043,
      "azz": 4044,
      "Ġconscious": 4045,
      "Ġconfident": 4046,
      "Ġincred": 4047,
      "Ġdoubts": 4048,
      "Ġdeterm": 4049,
      "Ġmagic": 4050,
      "Ġcrossing": 4051,
      "Ġhoped": 4052,
      "Ġdanced": 4053,
      "Ġdrawer": 4054,
      "Ġcloset": 4055,
      "Ġdeny": 4056,
      "Ġpoems": 4057,
      "Ġtower": 4058,
      "Ġdisgust": 4059,
      "Ġimprove": 4060,
      "Ġpleasant": 4061,
      "Ġattractive": 4062,
      "Ġcigarettes": 4063,
      "Ġflew": 4064,
      "Ġinternet": 4065,
      "Ġresembles": 4066,
      "Ġfrightened": 4067,
      "Ġinvitation": 4068,
      "looking": 4069,
      "Ġprohibited": 4070,
      "Ġpuzzle": 4071,
      "Ġremoved": 4072,
      "Ġoutfit": 4073,
      "Ġsafety": 4074,
      "gage": 4075,
      "lig": 4076,
      "lace": 4077,
      "lished": 4078,
      "nal": 4079,
      "year": 4080,
      "Ġtun": 4081,
      "Ġtied": 4082,
      "Ġtask": 4083,
      "Ġwished": 4084,
      "Ġmouse": 4085,
      "Ġciv": 4086,
      "Ġfal": 4087,
      "Ġfashion": 4088,
      "Ġpig": 4089,
      "Ġpath": 4090,
      "llen": 4091,
      "aries": 4092,
      "itions": 4093,
      "Ġange": 4094,
      "usion": 4095,
      "Ġstate": 4096,
      "icag": 4097,
      "imate": 4098,
      "Ġrely": 4099,
      "Ġreasons": 4100,
      "utation": 4101,
      "Ġjazz": 4102,
      "Ġalike": 4103,
      "Ġsoap": 4104,
      "Ġplant": 4105,
      "Ġplants": 4106,
      "Ġsail": 4107,
      "Ġexag": 4108,
      "Ġdevelop": 4109,
      "Ġchicag": 4110,
      "Ġvain": 4111,
      "Ġspell": 4112,
      "Ġquality": 4113,
      "Ġstubb": 4114,
      "icks": 4115,
      "agers": 4116,
      "Ġbush": 4117,
      "Ġswear": 4118,
      "Ġpoet": 4119,
      "Ġfinding": 4120,
      "Ġdoors": 4121,
      "Ġbegged": 4122,
      "Ġshake": 4123,
      "Ġpassword": 4124,
      "Ġreply": 4125,
      "Ġreputation": 4126,
      "Ġparked": 4127,
      "Ġrelative": 4128,
      "Ġinterrup": 4129,
      "Ġcanadians": 4130,
      "Ġselling": 4131,
      "Ġoblig": 4132,
      "Ġcapable": 4133,
      "Ġlesson": 4134,
      "Ġquietly": 4135,
      "Ġnewspapers": 4136,
      "Ġphotos": 4137,
      "Ġcauses": 4138,
      "Ġbattle": 4139,
      "Ġoccas": 4140,
      "Ġgarbage": 4141,
      "Ġcoward": 4142,
      "struct": 4143,
      "Ġoptim": 4144,
      "Ġembarrassing": 4145,
      "Ġdirection": 4146,
      "ophone": 4147,
      "Ġnegot": 4148,
      "Ġcitizen": 4149,
      "Ġconcentrate": 4150,
      "Ġpredict": 4151,
      "Ġphotograph": 4152,
      "Ġoccurred": 4153,
      "Ġdestroyed": 4154,
      "Ġnorth": 4155,
      "Ġeffect": 4156,
      "Ġdiamond": 4157,
      "Ġaudience": 4158,
      "Ġstrangers": 4159,
      "Ġpregnant": 4160,
      "Ġmosqu": 4161,
      "Ġhelicopter": 4162,
      "Ġastron": 4163,
      "Ġexagger": 4164,
      "Ġchicago": 4165,
      "Ġstubborn": 4166,
      "lo": 4167,
      "mates": 4168,
      "mod": 4169,
      "val": 4170,
      "xy": 4171,
      "Ġver": 4172,
      "Ġtig": 4173,
      "Ġmic": 4174,
      "Ġdat": 4175,
      "Ġdouble": 4176,
      "Ġbound": 4177,
      "Ġcd": 4178,
      "Ġfrog": 4179,
      "Ġhyp": 4180,
      "Ġthick": 4181,
      "Ġthroat": 4182,
      "att": 4183,
      "Ġinvent": 4184,
      "Ġanx": 4185,
      "Ġrot": 4186,
      "adays": 4187,
      "Ġsheep": 4188,
      "Ġknee": 4189,
      "Ġshr": 4190,
      "Ġspin": 4191,
      "Ġunc": 4192,
      "Ġupstairs": 4193,
      "Ġdefe": 4194,
      "Ġhelpful": 4195,
      "Ġnowadays": 4196,
      "Ġvase": 4197,
      "Ġvoll": 4198,
      "Ġreads": 4199,
      "Ġrights": 4200,
      "Ġblow": 4201,
      "Ġdisag": 4202,
      "Ġappet": 4203,
      "Ġscare": 4204,
      "Ġscrew": 4205,
      "Ġgramm": 4206,
      "Ġdecl": 4207,
      "Ġchem": 4208,
      "Ġshared": 4209,
      "Ġchallen": 4210,
      "Ġaction": 4211,
      "Ġforgetful": 4212,
      "Ġexciting": 4213,
      "Ġgrandpa": 4214,
      "Ġadmire": 4215,
      "Ġaccommod": 4216,
      "Ġseats": 4217,
      "Ġcolors": 4218,
      "Ġimit": 4219,
      "Ġprisoner": 4220,
      "Ġmurdered": 4221,
      "Ġsuggestion": 4222,
      "eyball": 4223,
      "Ġburst": 4224,
      "Ġstraw": 4225,
      "Ġpackage": 4226,
      "Ġearns": 4227,
      "Ġoptions": 4228,
      "Ġscreamed": 4229,
      "Ġprofession": 4230,
      "Ġproperly": 4231,
      "Ġbarking": 4232,
      "Ġgrapes": 4233,
      "Ġpeanuts": 4234,
      "Ġfuji": 4235,
      "Ġtyph": 4236,
      "Ġunusual": 4237,
      "Ġcarrots": 4238,
      "Ġfalse": 4239,
      "Ġvolleyball": 4240,
      "mer": 4241,
      "uary": 4242,
      "yond": 4243,
      "ints": 4244,
      "Ġditch": 4245,
      "Ġbas": 4246,
      "Ġfile": 4247,
      "Ġlower": 4248,
      "Ġlapt": 4249,
      "ingu": 4250,
      "Ġpet": 4251,
      "arant": 4252,
      "Ġgain": 4253,
      "Ġgro": 4254,
      "Ġhired": 4255,
      "Ġhugged": 4256,
      "Ġner": 4257,
      "Ġnational": 4258,
      "Ġhaw": 4259,
      "atic": 4260,
      "eter": 4261,
      "Ġbeyond": 4262,
      "oos": 4263,
      "Ġforty": 4264,
      "Ġrow": 4265,
      "ential": 4266,
      "Ġwithd": 4267,
      "Ġjew": 4268,
      "Ġjunk": 4269,
      "Ġjune": 4270,
      "allow": 4271,
      "Ġsocial": 4272,
      "Ġlemon": 4273,
      "Ġspite": 4274,
      "Ġund": 4275,
      "Ġconstruct": 4276,
      "Ġafric": 4277,
      "Ġspeed": 4278,
      "Ġbrand": 4279,
      "Ġprevent": 4280,
      "Ġexpert": 4281,
      "Ġoldest": 4282,
      "Ġguarant": 4283,
      "Ġplanned": 4284,
      "Ġscary": 4285,
      "izing": 4286,
      "ization": 4287,
      "ption": 4288,
      "Ġcheaper": 4289,
      "Ġpersonal": 4290,
      "Ġsings": 4291,
      "Ġimportance": 4292,
      "Ġkidn": 4293,
      "Ġserved": 4294,
      "Ġpriest": 4295,
      "Ġsilver": 4296,
      "Ġriding": 4297,
      "Ġexplos": 4298,
      "Ġimagination": 4299,
      "Ġdisappoint": 4300,
      "Ġladder": 4301,
      "Ġerr": 4302,
      "Ġfortunately": 4303,
      "Ġ201": 4304,
      "ratul": 4305,
      "Ġequal": 4306,
      "Ġpersuaded": 4307,
      "Ġdemanded": 4308,
      "Ġambul": 4309,
      "Ġadopt": 4310,
      "Ġweapon": 4311,
      "Ġbullet": 4312,
      "Ġmodel": 4313,
      "Ġservice": 4314,
      "Ġdegrees": 4315,
      "Ġcongratul": 4316,
      "Ġhorrible": 4317,
      "Ġunexpected": 4318,
      "Ġcivil": 4319,
      "Ġnegoti": 4320,
      "Ġlaptop": 4321,
      "ai": 4322,
      "cast": 4323,
      "dom": 4324,
      "sed": 4325,
      "yle": 4326,
      "Ġtre": 4327,
      "oured": 4328,
      "Ġmass": 4329,
      "iny": 4330,
      "Ġdating": 4331,
      "Ġbaked": 4332,
      "vere": 4333,
      "Ġfur": 4334,
      "Ġlent": 4335,
      "orough": 4336,
      "Ġpal": 4337,
      "Ġpapers": 4338,
      "Ġpoured": 4339,
      "Ġnin": 4340,
      "Ġnon": 4341,
      "Ġnumb": 4342,
      "asing": 4343,
      "Ġthri": 4344,
      "Ġthorough": 4345,
      "atient": 4346,
      "Ġwasting": 4347,
      "Ġstren": 4348,
      "icing": 4349,
      "Ġforce": 4350,
      "illy": 4351,
      "alled": 4352,
      "Ġupon": 4353,
      "ounced": 4354,
      "Ġmanage": 4355,
      "Ġcomb": 4356,
      "Ġlog": 4357,
      "Ġconven": 4358,
      "Ġvar": 4359,
      "Ġwatches": 4360,
      "Ġtwin": 4361,
      "osen": 4362,
      "Ġharsh": 4363,
      "abbed": 4364,
      "Ġhandwrit": 4365,
      "Ġraincoat": 4366,
      "Ġdecisions": 4367,
      "Ġopening": 4368,
      "Ġresour": 4369,
      "Ġshoe": 4370,
      "ips": 4371,
      "Ġpersonally": 4372,
      "Ġsnakes": 4373,
      "Ġsnee": 4374,
      "Ġmeth": 4375,
      "Ġtrains": 4376,
      "Ġvisa": 4377,
      "Ġcookie": 4378,
      "Ġcrop": 4379,
      "Ġwondering": 4380,
      "Ġlightning": 4381,
      "Ġparking": 4382,
      "Ġvisitors": 4383,
      "Ġmedical": 4384,
      "Ġconsult": 4385,
      "Ġconfidence": 4386,
      "Ġworrying": 4387,
      "Ġhidden": 4388,
      "Ġinsisted": 4389,
      "Ġokay": 4390,
      "Ġgrowing": 4391,
      "Ġfigured": 4392,
      "Ġmagn": 4393,
      "Ġoppos": 4394,
      "Ġgifts": 4395,
      "Ġbehave": 4396,
      "Ġpencils": 4397,
      "Ġdelayed": 4398,
      "Ġburgl": 4399,
      "Ġvalu": 4400,
      "Ġentering": 4401,
      "Ġclaims": 4402,
      "Ġgermany": 4403,
      "Ġtouched": 4404,
      "Ġturkey": 4405,
      "Ġdivorce": 4406,
      "Ġefforts": 4407,
      "Ġleaned": 4408,
      "Ġadopted": 4409,
      "Ġshouted": 4410,
      "Ġweapons": 4411,
      "Ġrarely": 4412,
      "Ġgreeted": 4413,
      "Ġinflu": 4414,
      "Ġanxious": 4415,
      "Ġambulance": 4416,
      "Ġhandwriting": 4417,
      "case": 4418,
      "mare": 4419,
      "ole": 4420,
      "rance": 4421,
      "tom": 4422,
      "will": 4423,
      "wise": 4424,
      "you": 4425,
      "âĢ": 4426,
      "Ġwide": 4427,
      "Ġsush": 4428,
      "har": 4429,
      "Ġdy": 4430,
      "Ġcities": 4431,
      "Ġink": 4432,
      "Ġweb": 4433,
      "Ġease": 4434,
      "iders": 4435,
      "Ġlion": 4436,
      "Ġreject": 4437,
      "Ġrome": 4438,
      "Ġrush": 4439,
      "unate": 4440,
      "Ġshed": 4441,
      "ril": 4442,
      "acter": 4443,
      "achache": 4444,
      "Ġsevere": 4445,
      "Ġje": 4446,
      "Ġshook": 4447,
      "urance": 4448,
      "Ġhers": 4449,
      "Ġplaces": 4450,
      "Ġspot": 4451,
      "iles": 4452,
      "ounce": 4453,
      "Ġloan": 4454,
      "Ġenvel": 4455,
      "Ġvan": 4456,
      "Ġvit": 4457,
      "Ġquar": 4458,
      "derer": 4459,
      "Ġflour": 4460,
      "Ġnightmare": 4461,
      "Ġpoll": 4462,
      "Ġscreen": 4463,
      "Ġunderstanding": 4464,
      "Ġimpatient": 4465,
      "Ġstops": 4466,
      "Ġrainy": 4467,
      "Ġdecor": 4468,
      "Ġdecent": 4469,
      "Ġtense": 4470,
      "Ġsurround": 4471,
      "Ġcontent": 4472,
      "Ġclassmates": 4473,
      "ference": 4474,
      "Ġstove": 4475,
      "Ġsnowed": 4476,
      "Ġapril": 4477,
      "Ġvisiting": 4478,
      "Ġregister": 4479,
      "Ġinterp": 4480,
      "Ġblackboard": 4481,
      "Ġmessages": 4482,
      "Ġcharged": 4483,
      "Ġcups": 4484,
      "Ġbaggage": 4485,
      "Ġconcern": 4486,
      "Ġinsurance": 4487,
      "Ġdrunken": 4488,
      "Ġapology": 4489,
      "Ġterrific": 4490,
      "Ġmemor": 4491,
      "Ġcalcul": 4492,
      "Ġmurderer": 4493,
      "Ġcarrying": 4494,
      "Ġdemoc": 4495,
      "Ġ50": 4496,
      "Ġceiling": 4497,
      "Ġsuper": 4498,
      "Ġresponsibility": 4499,
      "Ġlawn": 4500,
      "Ġdesper": 4501,
      "Ġbottles": 4502,
      "Ġstomachache": 4503,
      "Ġcellphone": 4504,
      "Ġunemploy": 4505,
      "Ġleader": 4506,
      "Ġparticip": 4507,
      "Ġachieve": 4508,
      "Ġdebt": 4509,
      "Ġgrabbed": 4510,
      "Ġpeeling": 4511,
      "Ġselfish": 4512,
      "Ġkilomet": 4513,
      "Ġdivided": 4514,
      "Ġpillow": 4515,
      "Ġconfessed": 4516,
      "Ġinclud": 4517,
      "Ġculture": 4518,
      "Ġoccasion": 4519,
      "Ġmosquit": 4520,
      "Ġtyphoon": 4521,
      "Ġexplosion": 4522,
      "Ġfurther": 4523,
      "Ġstrength": 4524,
      "Ġsushi": 4525,
      "Ġenvelope": 4526,
      "Ġkilometers": 4527,
      "corn": 4528,
      "gy": 4529,
      "gen": 4530,
      "iens": 4531,
      "mail": 4532,
      "overy": 4533,
      "Ġaid": 4534,
      "Ġtoler": 4535,
      "Ġdare": 4536,
      "onse": 4537,
      "Ġbal": 4538,
      "Ġfirm": 4539,
      "Ġlines": 4540,
      "Ġlux": 4541,
      "Ġheight": 4542,
      "Ġpens": 4543,
      "erk": 4544,
      "arian": 4545,
      "Ġgri": 4546,
      "ators": 4547,
      "Ġeld": 4548,
      "Ġbears": 4549,
      "Ġstew": 4550,
      "Ġreve": 4551,
      "Ġrac": 4552,
      "utter": 4553,
      "Ġknowled": 4554,
      "Ġaside": 4555,
      "iring": 4556,
      "Ġabrupt": 4557,
      "Ġtrunk": 4558,
      "Ġaliens": 4559,
      "Ġplate": 4560,
      "ilies": 4561,
      "Ġunde": 4562,
      "Ġoutstanding": 4563,
      "Ġsum": 4564,
      "Ġchosen": 4565,
      "Ġcoin": 4566,
      "Ġcoinc": 4567,
      "Ġrode": 4568,
      "Ġlovely": 4569,
      "Ġboil": 4570,
      "Ġadult": 4571,
      "Ġmakeup": 4572,
      "Ġrooms": 4573,
      "Ġswit": 4574,
      "Ġswam": 4575,
      "Ġpoker": 4576,
      "issors": 4577,
      "Ġscissors": 4578,
      "Ġgrave": 4579,
      "Ġfamilies": 4580,
      "Ġbegun": 4581,
      "Ġbiggest": 4582,
      "Ġfoods": 4583,
      "Ġbreaking": 4584,
      "Ġcontest": 4585,
      "Ġlistens": 4586,
      "Ġarriving": 4587,
      "Ġrestless": 4588,
      "cially": 4589,
      "Ġdreaming": 4590,
      "Ġentrance": 4591,
      "Ġenjoying": 4592,
      "Ġabsor": 4593,
      "Ġresponse": 4594,
      "Ġterms": 4595,
      "Ġsentenced": 4596,
      "Ġkeyboard": 4597,
      "Ġcraw": 4598,
      "Ġsweep": 4599,
      "Ġexperi": 4600,
      "Ġhonor": 4601,
      "Ġpopcorn": 4602,
      "Ġcourt": 4603,
      "Ġchecked": 4604,
      "Ġtreaty": 4605,
      "Ġheavily": 4606,
      "Ġpreparing": 4607,
      "Ġremains": 4608,
      "Ġhonesty": 4609,
      "Ġinformed": 4610,
      "Ġimagined": 4611,
      "Ġrented": 4612,
      "Ġdrawing": 4613,
      "Ġrequire": 4614,
      "Ġapprove": 4615,
      "Ġthousands": 4616,
      "Ġburning": 4617,
      "Ġsquee": 4618,
      "Ġemployee": 4619,
      "Ġcollecting": 4620,
      "Ġcows": 4621,
      "Ġfluently": 4622,
      "Ġdamage": 4623,
      "Ġcancel": 4624,
      "Ġseparated": 4625,
      "Ġthreatened": 4626,
      "Ġinstruct": 4627,
      "Ġscientist": 4628,
      "Ġdepartment": 4629,
      "Ġromantic": 4630,
      "Ġconceited": 4631,
      "Ġwishes": 4632,
      "Ġexchange": 4633,
      "Ġpunishment": 4634,
      "Ġfascinating": 4635,
      "Ġabolished": 4636,
      "Ġbritish": 4637,
      "Ġrotten": 4638,
      "Ġstrawber": 4639,
      "Ġopposite": 4640,
      "âĢĻ": 4641,
      "Ġknowledge": 4642,
      "aid": 4643,
      "aire": 4644,
      "fl": 4645,
      "house": 4646,
      "jam": 4647,
      "mber": 4648,
      "past": 4649,
      "ron": 4650,
      "sle": 4651,
      "tage": 4652,
      "tured": 4653,
      "vant": 4654,
      "ym": 4655,
      "zzy": 4656,
      "Ġways": 4657,
      "Ġdim": 4658,
      "Ġdrew": 4659,
      "Ġbible": 4660,
      "Ġcoo": 4661,
      "Ġfan": 4662,
      "Ġpac": 4663,
      "erve": 4664,
      "Ġgam": 4665,
      "Ġhom": 4666,
      "Ġnails": 4667,
      "Ġhammer": 4668,
      "Ġoxy": 4669,
      "ites": 4670,
      "Ġbeard": 4671,
      "Ġbeans": 4672,
      "Ġstink": 4673,
      "Ġstake": 4674,
      "Ġstage": 4675,
      "Ġstock": 4676,
      "Ġstamp": 4677,
      "Ġstabbed": 4678,
      "Ġmyst": 4679,
      "Ġfork": 4680,
      "chite": 4681,
      "Ġcandle": 4682,
      "sters": 4683,
      "stances": 4684,
      "ading": 4685,
      "urity": 4686,
      "Ġalice": 4687,
      "Ġspiders": 4688,
      "Ġsax": 4689,
      "Ġsauce": 4690,
      "epend": 4691,
      "Ġconcl": 4692,
      "Ġconference": 4693,
      "Ġamusing": 4694,
      "igr": 4695,
      "Ġarr": 4696,
      "Ġarchite": 4697,
      "box": 4698,
      "Ġadults": 4699,
      "Ġcompare": 4700,
      "Ġcomplex": 4701,
      "Ġputting": 4702,
      "Ġswitch": 4703,
      "Ġpointed": 4704,
      "Ġdownstairs": 4705,
      "Ġdiag": 4706,
      "Ġdizzy": 4707,
      "Ġguard": 4708,
      "tered": 4709,
      "Ġsunny": 4710,
      "Ġcontrib": 4711,
      "Ġkilling": 4712,
      "Ġowner": 4713,
      "Ġ16": 4714,
      "Ġsecrets": 4715,
      "Ġcrack": 4716,
      "Ġwarning": 4717,
      "Ġpromotion": 4718,
      "Ġbitter": 4719,
      "Ġbabbling": 4720,
      "Ġretired": 4721,
      "Ġwalls": 4722,
      "Ġmedit": 4723,
      "Ġsweat": 4724,
      "Ġsweating": 4725,
      "Ġdistingu": 4726,
      "Ġindepend": 4727,
      "Ġtaxes": 4728,
      "Ġpurse": 4729,
      "Ġpresence": 4730,
      "Ġparan": 4731,
      "Ġabsolute": 4732,
      "ducted": 4733,
      "Ġexception": 4734,
      "Ġuniverse": 4735,
      "Ġcrowded": 4736,
      "Ġpolitical": 4737,
      "Ġfairly": 4738,
      "Ġappearance": 4739,
      "Ġmagazines": 4740,
      "Ġdespise": 4741,
      "Ġcustomers": 4742,
      "Ġlacks": 4743,
      "Ġbowl": 4744,
      "known": 4745,
      "Ġscenery": 4746,
      "Ġengineer": 4747,
      "Ġproducts": 4748,
      "Ġcompetition": 4749,
      "Ġdamaged": 4750,
      "Ġunfair": 4751,
      "Ġhesitate": 4752,
      "Ġstrike": 4753,
      "Ġsuffering": 4754,
      "Ġbananas": 4755,
      "ropri": 4756,
      "Ġsensitive": 4757,
      "Ġsupplies": 4758,
      "uggled": 4759,
      "Ġpilot": 4760,
      "Ġreservation": 4761,
      "Ġdata": 4762,
      "Ġresources": 4763,
      "Ġmethod": 4764,
      "Ġjeans": 4765,
      "Ġvitam": 4766,
      "Ġinstructions": 4767,
      "Ġmystery": 4768,
      "50": 4769,
      "cope": 4770,
      "cence": 4771,
      "name": 4772,
      "oven": 4773,
      "ped": 4774,
      "Ġtar": 4775,
      "resent": 4776,
      "inated": 4777,
      "Ġduck": 4778,
      "Ġbass": 4779,
      "Ġbitten": 4780,
      "Ġbanged": 4781,
      "Ġborder": 4782,
      "Ġcy": 4783,
      "Ġfate": 4784,
      "erved": 4785,
      "Ġge": 4786,
      "Ġgym": 4787,
      "Ġhy": 4788,
      "leg": 4789,
      "ushing": 4790,
      "Ġkore": 4791,
      "store": 4792,
      "Ġgoat": 4793,
      "Ġnotes": 4794,
      "Ġatom": 4795,
      "Ġtrack": 4796,
      "Ġlevel": 4797,
      "Ġnodd": 4798,
      "Ġunrel": 4799,
      "Ġframed": 4800,
      "Ġchop": 4801,
      "Ġmanners": 4802,
      "Ġclar": 4803,
      "Ġconse": 4804,
      "Ġvot": 4805,
      "Ġasks": 4806,
      "Ġintended": 4807,
      "umn": 4808,
      "Ġquarter": 4809,
      "Ġbran": 4810,
      "Ġproof": 4811,
      "Ġprinc": 4812,
      "Ġplayers": 4813,
      "Ġdrag": 4814,
      "Ġorphan": 4815,
      "Ġaccur": 4816,
      "ective": 4817,
      "Ġhanging": 4818,
      "Ġdism": 4819,
      "Ġdisaster": 4820,
      "Ġapplic": 4821,
      "Ġpajam": 4822,
      "Ġpolicy": 4823,
      "Ġresist": 4824,
      "Ġfog": 4825,
      "Ġshape": 4826,
      "Ġpainful": 4827,
      "Ġchamp": 4828,
      "Ġmeters": 4829,
      "bell": 4830,
      "Ġslam": 4831,
      "Ġhoax": 4832,
      "Ġclassical": 4833,
      "Ġrepresent": 4834,
      "Ġends": 4835,
      "Ġstands": 4836,
      "Ġspending": 4837,
      "Ġhaircut": 4838,
      "Ġclosely": 4839,
      "ologist": 4840,
      "Ġterror": 4841,
      "Ġpicking": 4842,
      "Ġstreets": 4843,
      "Ġdaughters": 4844,
      "shirt": 4845,
      "Ġincome": 4846,
      "Ġespe": 4847,
      "Ġindust": 4848,
      "olution": 4849,
      "Ġfrequ": 4850,
      "Ġtreatment": 4851,
      "Ġhumor": 4852,
      "Ġforeigners": 4853,
      "Ġeighteen": 4854,
      "Ġtypical": 4855,
      "Ġdancer": 4856,
      "Ġpunct": 4857,
      "Ġengaged": 4858,
      "Ġapproved": 4859,
      "Ġaccordion": 4860,
      "Ġgrades": 4861,
      "Ġknocking": 4862,
      "Ġimproved": 4863,
      "Ġmirac": 4864,
      "Ġbowed": 4865,
      "Ġsharpen": 4866,
      "Ġincrease": 4867,
      "Ġsavings": 4868,
      "Ġlocated": 4869,
      "Ġinstrument": 4870,
      "Ġinsects": 4871,
      "Ġattempted": 4872,
      "Ġremarkable": 4873,
      "Ġshocked": 4874,
      "Ġacknowledged": 4875,
      "Ġofficer": 4876,
      "Ġimpression": 4877,
      "Ġfainted": 4878,
      "Ġelephants": 4879,
      "Ġtoothpast": 4880,
      "Ġcreep": 4881,
      "Ġreleased": 4882,
      "Ġmaterial": 4883,
      "Ġregularly": 4884,
      "Ġcircum": 4885,
      "Ġcottage": 4886,
      "Ġjournal": 4887,
      "Ġfreedom": 4888,
      "Ġdisguised": 4889,
      "Ġsoul": 4890,
      "Ġnarrow": 4891,
      "Ġsociety": 4892,
      "Ġfrankly": 4893,
      "Ġdisagree": 4894,
      "Ġappetite": 4895,
      "Ġafrica": 4896,
      "Ġ2013": 4897,
      "Ġtreasure": 4898,
      "Ġvaluable": 4899,
      "Ġinterpre": 4900,
      "Ġmosquito": 4901,
      "Ġoxygen": 4902,
      "ropriate": 4903,
      "Ġtarget": 4904,
      "Ġprincip": 4905,
      "Ġpajamas": 4906,
      "Ġespecially": 4907,
      "Ġtoothpaste": 4908,
      "!\"": 4909,
      "bon": 4910,
      "can": 4911,
      "dinary": 4912,
      "fers": 4913,
      "mate": 4914,
      "pha": 4915,
      "uff": 4916,
      "ware": 4917,
      "Ġtha": 4918,
      "Ġtit": 4919,
      "Ġtid": 4920,
      "Ġip": 4921,
      "Ġwest": 4922,
      "Ġtore": 4923,
      "Ġbiling": 4924,
      "Ġcage": 4925,
      "Ġcaf": 4926,
      "Ġfurious": 4927,
      "Ġpink": 4928,
      "Ġpound": 4929,
      "Ġpure": 4930,
      "arily": 4931,
      "Ġnation": 4932,
      "ester": 4933,
      "Ġdozen": 4934,
      "Ġine": 4935,
      "Ġbeeth": 4936,
      "Ġstir": 4937,
      "Ġonline": 4938,
      "Ġreact": 4939,
      "Ġreward": 4940,
      "Ġrough": 4941,
      "Ġassem": 4942,
      "Ġaspir": 4943,
      "Ġseated": 4944,
      "iron": 4945,
      "Ġabducted": 4946,
      "aka": 4947,
      "Ġframe": 4948,
      "Ġdeleg": 4949,
      "Ġhappier": 4950,
      "iev": 4951,
      "Ġcliff": 4952,
      "Ġaggress": 4953,
      "Ġcock": 4954,
      "igner": 4955,
      "Ġjoined": 4956,
      "Ġpear": 4957,
      "Ġspec": 4958,
      "Ġqueen": 4959,
      "Ġpra": 4960,
      "Ġprince": 4961,
      "Ġboiling": 4962,
      "Ġordinary": 4963,
      "ittee": 4964,
      "Ġlottery": 4965,
      "Ġbuses": 4966,
      "Ġbelow": 4967,
      "Ġharvest": 4968,
      "Ġturns": 4969,
      "Ġcheating": 4970,
      "Ġremembers": 4971,
      "Ġengland": 4972,
      "Ġsurren": 4973,
      "Ġattitude": 4974,
      "Ġminor": 4975,
      "Ġdesert": 4976,
      "Ġhunch": 4977,
      "Ġsnake": 4978,
      "gging": 4979,
      "gger": 4980,
      "Ġpainter": 4981,
      "Ġmisses": 4982,
      "Ġcontr": 4983,
      "Ġowns": 4984,
      "Ġsmokes": 4985,
      "Ġcrashed": 4986,
      "cient": 4987,
      "Ġrelie": 4988,
      "Ġnearby": 4989,
      "Ġenjoys": 4990,
      "Ġcommittee": 4991,
      "Ġretire": 4992,
      "Ġdollar": 4993,
      "Ġexams": 4994,
      "Ġsecretary": 4995,
      "Ġguns": 4996,
      "Ġbreathing": 4997,
      "Ġopposed": 4998,
      "ival": 4999
    },
    "merges": [
      [
        "Ġ",
        "t"
      ],
      [
        "Ġ",
        "i"
      ],
      [
        "h",
        "e"
      ],
      [
        "Ġ",
        "a"
      ],
      [
        "Ġ",
        "w"
      ],
      [
        "Ġt",
        "o"
      ],
      [
        "o",
        "u"
      ],
      [
        "Ġ",
        "s"
      ],
      [
        "r",
        "e"
      ],
      [
        "Ġ",
        "m"
      ],
      [
        "i",
        "n"
      ],
      [
        "Ġt",
        "he"
      ],
      [
        "h",
        "a"
      ],
      [
        "Ġ",
        "d"
      ],
      [
        "Ġ",
        "y"
      ],
      [
        "Ġy",
        "ou"
      ],
      [
        "o",
        "n"
      ],
      [
        "Ġ",
        "b"
      ],
      [
        "Ġ",
        "c"
      ],
      [
        "v",
        "e"
      ],
      [
        "Ġ",
        "f"
      ],
      [
        "Ġ",
        "l"
      ],
      [
        "in",
        "g"
      ],
      [
        "Ġto",
        "m"
      ],
      [
        "a",
        "n"
      ],
      [
        "e",
        "d"
      ],
      [
        "i",
        "s"
      ],
      [
        "Ġ",
        "he"
      ],
      [
        "o",
        "r"
      ],
      [
        "Ġ",
        "p"
      ],
      [
        "l",
        "l"
      ],
      [
        "e",
        "n"
      ],
      [
        "e",
        "r"
      ],
      [
        "a",
        "r"
      ],
      [
        "Ġ",
        "g"
      ],
      [
        "Ġ",
        "h"
      ],
      [
        "Ġ",
        "n"
      ],
      [
        "Ġ",
        "ha"
      ],
      [
        "'",
        "t"
      ],
      [
        "Ġi",
        "s"
      ],
      [
        "ha",
        "t"
      ],
      [
        "a",
        "s"
      ],
      [
        "Ġ",
        "o"
      ],
      [
        "e",
        "s"
      ],
      [
        "Ġt",
        "h"
      ],
      [
        "Ġd",
        "o"
      ],
      [
        "i",
        "t"
      ],
      [
        "o",
        "m"
      ],
      [
        "a",
        "t"
      ],
      [
        "o",
        "w"
      ],
      [
        "Ġi",
        "n"
      ],
      [
        "o",
        "t"
      ],
      [
        "e",
        "t"
      ],
      [
        "Ġi",
        "t"
      ],
      [
        "a",
        "y"
      ],
      [
        "Ġw",
        "e"
      ],
      [
        "l",
        "e"
      ],
      [
        "Ġ",
        "e"
      ],
      [
        "Ġb",
        "e"
      ],
      [
        "Ġa",
        "n"
      ],
      [
        "'",
        "s"
      ],
      [
        "Ġo",
        "f"
      ],
      [
        "Ġt",
        "hat"
      ],
      [
        "i",
        "d"
      ],
      [
        "l",
        "d"
      ],
      [
        "u",
        "s"
      ],
      [
        "k",
        "e"
      ],
      [
        "ve",
        "r"
      ],
      [
        "Ġm",
        "e"
      ],
      [
        "Ġw",
        "as"
      ],
      [
        "o",
        "o"
      ],
      [
        "Ġs",
        "t"
      ],
      [
        "Ġ",
        "on"
      ],
      [
        "i",
        "c"
      ],
      [
        "i",
        "m"
      ],
      [
        "Ġl",
        "i"
      ],
      [
        "Ġha",
        "ve"
      ],
      [
        "g",
        "h"
      ],
      [
        "Ġth",
        "is"
      ],
      [
        "Ġm",
        "y"
      ],
      [
        "Ġf",
        "or"
      ],
      [
        "Ġ",
        "re"
      ],
      [
        "an",
        "t"
      ],
      [
        "Ġ",
        "k"
      ],
      [
        "Ġd",
        "on"
      ],
      [
        "c",
        "h"
      ],
      [
        "Ġc",
        "an"
      ],
      [
        "Ġw",
        "hat"
      ],
      [
        "Ġ",
        "r"
      ],
      [
        "a",
        "l"
      ],
      [
        "Ġw",
        "ant"
      ],
      [
        "gh",
        "t"
      ],
      [
        "Ġn",
        "e"
      ],
      [
        "Ġm",
        "ar"
      ],
      [
        "s",
        "t"
      ],
      [
        "Ġa",
        "re"
      ],
      [
        "Ġg",
        "o"
      ],
      [
        "Ġyou",
        "r"
      ],
      [
        "a",
        "d"
      ],
      [
        "u",
        "n"
      ],
      [
        "Ġs",
        "he"
      ],
      [
        "ou",
        "ld"
      ],
      [
        "ou",
        "t"
      ],
      [
        "en",
        "t"
      ],
      [
        "Ġk",
        "n"
      ],
      [
        "om",
        "e"
      ],
      [
        "s",
        "e"
      ],
      [
        "Ġmar",
        "y"
      ],
      [
        "Ġd",
        "id"
      ],
      [
        "Ġw",
        "h"
      ],
      [
        "Ġw",
        "it"
      ],
      [
        "'",
        "m"
      ],
      [
        "Ġwit",
        "h"
      ],
      [
        "Ġn",
        "ot"
      ],
      [
        "he",
        "r"
      ],
      [
        "ver",
        "y"
      ],
      [
        "u",
        "t"
      ],
      [
        "l",
        "y"
      ],
      [
        "Ġh",
        "is"
      ],
      [
        "Ġkn",
        "ow"
      ],
      [
        "r",
        "i"
      ],
      [
        "Ġa",
        "t"
      ],
      [
        "i",
        "ll"
      ],
      [
        "a",
        "m"
      ],
      [
        "t",
        "er"
      ],
      [
        "Ġa",
        "s"
      ],
      [
        "a",
        "c"
      ],
      [
        "Ġs",
        "e"
      ],
      [
        "Ġ",
        "j"
      ],
      [
        "a",
        "ll"
      ],
      [
        "Ġli",
        "ke"
      ],
      [
        "i",
        "r"
      ],
      [
        "i",
        "on"
      ],
      [
        "Ġan",
        "d"
      ],
      [
        "on",
        "e"
      ],
      [
        "h",
        "ing"
      ],
      [
        "Ġw",
        "he"
      ],
      [
        "oo",
        "k"
      ],
      [
        "Ġa",
        "b"
      ],
      [
        "Ġs",
        "h"
      ],
      [
        "p",
        "p"
      ],
      [
        "a",
        "in"
      ],
      [
        "in",
        "k"
      ],
      [
        "u",
        "r"
      ],
      [
        "Ġthe",
        "re"
      ],
      [
        "o",
        "re"
      ],
      [
        "'",
        "re"
      ],
      [
        "us",
        "t"
      ],
      [
        "c",
        "e"
      ],
      [
        "o",
        "p"
      ],
      [
        "Ġt",
        "r"
      ],
      [
        "Ġh",
        "im"
      ],
      [
        "i",
        "ght"
      ],
      [
        "Ġt",
        "e"
      ],
      [
        "Ġw",
        "or"
      ],
      [
        "a",
        "ke"
      ],
      [
        "u",
        "p"
      ],
      [
        "Ġthe",
        "y"
      ],
      [
        "Ġan",
        "y"
      ],
      [
        "Ġa",
        "l"
      ],
      [
        "r",
        "o"
      ],
      [
        "'",
        "ll"
      ],
      [
        "Ġha",
        "s"
      ],
      [
        "Ġ",
        "us"
      ],
      [
        "en",
        "d"
      ],
      [
        "Ġt",
        "im"
      ],
      [
        "Ġs",
        "o"
      ],
      [
        "a",
        "k"
      ],
      [
        "Ġl",
        "e"
      ],
      [
        "Ġh",
        "ow"
      ],
      [
        "Ġhe",
        "r"
      ],
      [
        "oo",
        "d"
      ],
      [
        "Ġth",
        "ink"
      ],
      [
        "Ġa",
        "ll"
      ],
      [
        "Ġn",
        "o"
      ],
      [
        "Ġg",
        "et"
      ],
      [
        "Ġp",
        "l"
      ],
      [
        "Ġdo",
        "es"
      ],
      [
        "ha",
        "n"
      ],
      [
        "Ġtim",
        "e"
      ],
      [
        "c",
        "t"
      ],
      [
        "Ġs",
        "p"
      ],
      [
        "i",
        "l"
      ],
      [
        "Ġ",
        "very"
      ],
      [
        "re",
        "n"
      ],
      [
        "Ġhe",
        "re"
      ],
      [
        "Ġw",
        "ill"
      ],
      [
        "Ġse",
        "e"
      ],
      [
        "Ġdid",
        "n"
      ],
      [
        "d",
        "ay"
      ],
      [
        "on",
        "g"
      ],
      [
        "Ġ",
        "un"
      ],
      [
        "Ġha",
        "d"
      ],
      [
        "'",
        "ve"
      ],
      [
        "b",
        "le"
      ],
      [
        "Ġ",
        "up"
      ],
      [
        "Ġab",
        "out"
      ],
      [
        "Ġf",
        "r"
      ],
      [
        "o",
        "st"
      ],
      [
        "i",
        "ve"
      ],
      [
        "u",
        "l"
      ],
      [
        "Ġe",
        "very"
      ],
      [
        "Ġ",
        "out"
      ],
      [
        "Ġs",
        "u"
      ],
      [
        "as",
        "t"
      ],
      [
        "g",
        "e"
      ],
      [
        "Ġs",
        "a"
      ],
      [
        "in",
        "d"
      ],
      [
        "f",
        "e"
      ],
      [
        "Ġe",
        "x"
      ],
      [
        "Ġwh",
        "o"
      ],
      [
        "re",
        "d"
      ],
      [
        "ou",
        "n"
      ],
      [
        "an",
        "d"
      ],
      [
        "Ġon",
        "e"
      ],
      [
        "am",
        "e"
      ],
      [
        "Ġne",
        "ed"
      ],
      [
        "Ġd",
        "e"
      ],
      [
        "ou",
        "r"
      ],
      [
        "as",
        "e"
      ],
      [
        "Ġwhe",
        "n"
      ],
      [
        "Ġf",
        "e"
      ],
      [
        "Ġi",
        "f"
      ],
      [
        "Ġl",
        "et"
      ],
      [
        "r",
        "y"
      ],
      [
        "is",
        "t"
      ],
      [
        "Ġs",
        "ome"
      ],
      [
        "Ġw",
        "ould"
      ],
      [
        "Ġl",
        "ook"
      ],
      [
        "Ġgo",
        "ing"
      ],
      [
        "es",
        "t"
      ],
      [
        "ar",
        "t"
      ],
      [
        "Ġc",
        "h"
      ],
      [
        "Ġwh",
        "y"
      ],
      [
        "Ġm",
        "an"
      ],
      [
        "al",
        "k"
      ],
      [
        "Ġfr",
        "om"
      ],
      [
        "Ġto",
        "o"
      ],
      [
        "all",
        "y"
      ],
      [
        "Ġwe",
        "re"
      ],
      [
        "Ġc",
        "om"
      ],
      [
        "ou",
        "ght"
      ],
      [
        "Ġc",
        "ould"
      ],
      [
        "ic",
        "e"
      ],
      [
        "Ġhe",
        "l"
      ],
      [
        "Ġt",
        "han"
      ],
      [
        "Ġl",
        "o"
      ],
      [
        "Ġg",
        "ood"
      ],
      [
        "d",
        "er"
      ],
      [
        "o",
        "l"
      ],
      [
        "Ġha",
        "pp"
      ],
      [
        "Ġwor",
        "k"
      ],
      [
        "ac",
        "k"
      ],
      [
        "ay",
        "s"
      ],
      [
        "i",
        "e"
      ],
      [
        "q",
        "u"
      ],
      [
        "Ġhel",
        "p"
      ],
      [
        "Ġdoes",
        "n"
      ],
      [
        "t",
        "hing"
      ],
      [
        "at",
        "e"
      ],
      [
        "Ġp",
        "le"
      ],
      [
        "Ġb",
        "y"
      ],
      [
        "a",
        "ve"
      ],
      [
        "es",
        "s"
      ],
      [
        "d",
        "y"
      ],
      [
        "er",
        "s"
      ],
      [
        "e",
        "p"
      ],
      [
        "a",
        "p"
      ],
      [
        "Ġc",
        "ome"
      ],
      [
        "Ġsh",
        "ould"
      ],
      [
        "Ġc",
        "ar"
      ],
      [
        "ot",
        "her"
      ],
      [
        "Ġple",
        "ase"
      ],
      [
        "Ġwhe",
        "re"
      ],
      [
        "Ġe",
        "at"
      ],
      [
        "is",
        "h"
      ],
      [
        "Ġc",
        "l"
      ],
      [
        "Ġj",
        "ust"
      ],
      [
        "Ġa",
        "g"
      ],
      [
        "Ġc",
        "on"
      ],
      [
        "re",
        "e"
      ],
      [
        "Ġ",
        "en"
      ],
      [
        "Ġs",
        "om"
      ],
      [
        "Ġte",
        "ll"
      ],
      [
        "e",
        "l"
      ],
      [
        "Ġb",
        "ut"
      ],
      [
        "s",
        "s"
      ],
      [
        "Ġn",
        "ow"
      ],
      [
        "Ġsom",
        "et"
      ],
      [
        "i",
        "f"
      ],
      [
        "Ġ",
        "v"
      ],
      [
        "Ġbe",
        "en"
      ],
      [
        "Ġm",
        "ore"
      ],
      [
        "l",
        "f"
      ],
      [
        "u",
        "ch"
      ],
      [
        "Ġa",
        "m"
      ],
      [
        "Ġc",
        "o"
      ],
      [
        "i",
        "g"
      ],
      [
        "Ġa",
        "c"
      ],
      [
        "Ġa",
        "r"
      ],
      [
        "at",
        "ion"
      ],
      [
        "Ġj",
        "o"
      ],
      [
        "or",
        "t"
      ],
      [
        "c",
        "k"
      ],
      [
        "Ġas",
        "k"
      ],
      [
        "Ġp",
        "e"
      ],
      [
        "w",
        "n"
      ],
      [
        "Ġin",
        "t"
      ],
      [
        "r",
        "ow"
      ],
      [
        "Ġh",
        "ome"
      ],
      [
        "ou",
        "s"
      ],
      [
        "Ġne",
        "ver"
      ],
      [
        "Ġa",
        "f"
      ],
      [
        "it",
        "e"
      ],
      [
        "Ġb",
        "ook"
      ],
      [
        "Ġg",
        "ot"
      ],
      [
        "Ġt",
        "alk"
      ],
      [
        "ri",
        "end"
      ],
      [
        "Ġp",
        "ro"
      ],
      [
        "Ġr",
        "o"
      ],
      [
        "Ġsp",
        "e"
      ],
      [
        "u",
        "m"
      ],
      [
        "Ġt",
        "ake"
      ],
      [
        "Ġm",
        "uch"
      ],
      [
        "Ġw",
        "r"
      ],
      [
        "Ġ",
        "qu"
      ],
      [
        "'",
        "d"
      ],
      [
        "in",
        "e"
      ],
      [
        "at",
        "her"
      ],
      [
        "Ġsomet",
        "hing"
      ],
      [
        "oun",
        "d"
      ],
      [
        "Ġb",
        "r"
      ],
      [
        "Ġlo",
        "ve"
      ],
      [
        "Ġre",
        "ad"
      ],
      [
        "Ġb",
        "u"
      ],
      [
        "Ġl",
        "ast"
      ],
      [
        "as",
        "s"
      ],
      [
        "Ġp",
        "re"
      ],
      [
        "Ġw",
        "on"
      ],
      [
        "Ġp",
        "r"
      ],
      [
        "one",
        "y"
      ],
      [
        "Ġb",
        "o"
      ],
      [
        "a",
        "re"
      ],
      [
        "Ġst",
        "u"
      ],
      [
        "Ġpl",
        "ay"
      ],
      [
        "Ġis",
        "n"
      ],
      [
        "Ġm",
        "oney"
      ],
      [
        "Ġof",
        "f"
      ],
      [
        "i",
        "ld"
      ],
      [
        "n",
        "ing"
      ],
      [
        "Ġd",
        "ay"
      ],
      [
        "Ġd",
        "r"
      ],
      [
        "e",
        "ar"
      ],
      [
        "ar",
        "d"
      ],
      [
        "Ġ",
        "or"
      ],
      [
        "it",
        "t"
      ],
      [
        "Ġw",
        "at"
      ],
      [
        "Ġne",
        "w"
      ],
      [
        "op",
        "le"
      ],
      [
        "Ġpe",
        "ople"
      ],
      [
        "Ġ",
        "our"
      ],
      [
        "Ġs",
        "m"
      ],
      [
        "oo",
        "l"
      ],
      [
        "Ġb",
        "ack"
      ],
      [
        "t",
        "h"
      ],
      [
        "m",
        "p"
      ],
      [
        "ic",
        "k"
      ],
      [
        "Ġ",
        "ke"
      ],
      [
        "Ġt",
        "w"
      ],
      [
        "b",
        "o"
      ],
      [
        "Ġl",
        "ot"
      ],
      [
        "Ġf",
        "riend"
      ],
      [
        "Ġs",
        "ay"
      ],
      [
        "Ġli",
        "ve"
      ],
      [
        "a",
        "g"
      ],
      [
        "Ġl",
        "ong"
      ],
      [
        "Ġspe",
        "ak"
      ],
      [
        "Ġre",
        "ally"
      ],
      [
        "ri",
        "ed"
      ],
      [
        "Ġhapp",
        "en"
      ],
      [
        "Ġsa",
        "id"
      ],
      [
        "Ġex",
        "p"
      ],
      [
        "he",
        "d"
      ],
      [
        "Ġth",
        "ought"
      ],
      [
        "Ġany",
        "thing"
      ],
      [
        "ou",
        "se"
      ],
      [
        "Ġy",
        "ear"
      ],
      [
        "u",
        "re"
      ],
      [
        "se",
        "lf"
      ],
      [
        "ren",
        "ch"
      ],
      [
        "Ġg",
        "ive"
      ],
      [
        "Ġf",
        "rench"
      ],
      [
        "Ġa",
        "d"
      ],
      [
        "Ġac",
        "c"
      ],
      [
        "Ġun",
        "der"
      ],
      [
        "id",
        "e"
      ],
      [
        "Ġo",
        "ld"
      ],
      [
        "Ġm",
        "ad"
      ],
      [
        "Ġcom",
        "p"
      ],
      [
        "Ġb",
        "us"
      ],
      [
        "Ġman",
        "y"
      ],
      [
        "Ġto",
        "ld"
      ],
      [
        "Ġm",
        "ake"
      ],
      [
        "Ġto",
        "day"
      ],
      [
        "bo",
        "dy"
      ],
      [
        "Ġb",
        "et"
      ],
      [
        "Ġh",
        "ouse"
      ],
      [
        "t",
        "her"
      ],
      [
        "ve",
        "n"
      ],
      [
        "o",
        "s"
      ],
      [
        "ur",
        "n"
      ],
      [
        "a",
        "it"
      ],
      [
        "Ġr",
        "ight"
      ],
      [
        "Ġst",
        "ay"
      ],
      [
        "Ġag",
        "ain"
      ],
      [
        "Ġch",
        "ild"
      ],
      [
        "Ġw",
        "ent"
      ],
      [
        "v",
        "ing"
      ],
      [
        "an",
        "g"
      ],
      [
        "Ġm",
        "ust"
      ],
      [
        "Ġon",
        "ly"
      ],
      [
        "w",
        "ays"
      ],
      [
        "or",
        "row"
      ],
      [
        "b",
        "er"
      ],
      [
        "Ġal",
        "ways"
      ],
      [
        "Ġro",
        "om"
      ],
      [
        "Ġc",
        "all"
      ],
      [
        "a",
        "ge"
      ],
      [
        "Ġs",
        "ch"
      ],
      [
        "Ġst",
        "ill"
      ],
      [
        "d",
        "e"
      ],
      [
        "Ġw",
        "ait"
      ],
      [
        "Ġdo",
        "g"
      ],
      [
        "Ġsch",
        "ool"
      ],
      [
        "Ġth",
        "ing"
      ],
      [
        "ou",
        "gh"
      ],
      [
        "e",
        "ct"
      ],
      [
        "f",
        "t"
      ],
      [
        "Ġth",
        "ree"
      ],
      [
        "Ġaf",
        "ter"
      ],
      [
        "Ġmad",
        "e"
      ],
      [
        "a",
        "ch"
      ],
      [
        "t",
        "y"
      ],
      [
        "Ġb",
        "l"
      ],
      [
        "Ġfe",
        "el"
      ],
      [
        "Ġm",
        "ay"
      ],
      [
        "Ġf",
        "l"
      ],
      [
        "Ġo",
        "ver"
      ],
      [
        "Ġtr",
        "y"
      ],
      [
        "Ġre",
        "m"
      ],
      [
        "Ġbe",
        "l"
      ],
      [
        "a",
        "ble"
      ],
      [
        "e",
        "m"
      ],
      [
        "Ġp",
        "ut"
      ],
      [
        "t",
        "s"
      ],
      [
        "u",
        "e"
      ],
      [
        "Ġm",
        "o"
      ],
      [
        "it",
        "y"
      ],
      [
        "Ġtw",
        "o"
      ],
      [
        "Ġbe",
        "c"
      ],
      [
        "ac",
        "e"
      ],
      [
        "Ġle",
        "ave"
      ],
      [
        "Ġha",
        "r"
      ],
      [
        "Ġb",
        "ost"
      ],
      [
        "Ġbost",
        "on"
      ],
      [
        "Ġtom",
        "orrow"
      ],
      [
        "Ġo",
        "p"
      ],
      [
        "Ġwant",
        "ed"
      ],
      [
        "Ġwe",
        "ll"
      ],
      [
        "Ġha",
        "n"
      ],
      [
        "Ġn",
        "ight"
      ],
      [
        "Ġle",
        "ft"
      ],
      [
        "Ġo",
        "ther"
      ],
      [
        "Ġf",
        "ather"
      ],
      [
        "f",
        "ore"
      ],
      [
        "Ġbu",
        "y"
      ],
      [
        "Ġs",
        "w"
      ],
      [
        "Ġbe",
        "fore"
      ],
      [
        "a",
        "u"
      ],
      [
        "Ġy",
        "es"
      ],
      [
        "Ġa",
        "w"
      ],
      [
        "ve",
        "d"
      ],
      [
        "Ġp",
        "o"
      ],
      [
        "r",
        "a"
      ],
      [
        "g",
        "et"
      ],
      [
        "oun",
        "t"
      ],
      [
        "i",
        "es"
      ],
      [
        "o",
        "se"
      ],
      [
        "Ġbet",
        "ter"
      ],
      [
        "Ġm",
        "on"
      ],
      [
        "Ġl",
        "itt"
      ],
      [
        "us",
        "e"
      ],
      [
        "Ġlitt",
        "le"
      ],
      [
        "le",
        "ep"
      ],
      [
        "Ġf",
        "a"
      ],
      [
        "Ġd",
        "is"
      ],
      [
        "Ġdo",
        "wn"
      ],
      [
        "Ġunder",
        "st"
      ],
      [
        "Ġd",
        "i"
      ],
      [
        "Ġg",
        "u"
      ],
      [
        "Ġw",
        "ay"
      ],
      [
        "Ġthe",
        "m"
      ],
      [
        "Ġask",
        "ed"
      ],
      [
        "Ġa",
        "pp"
      ],
      [
        "Ġjo",
        "b"
      ],
      [
        "re",
        "at"
      ],
      [
        "is",
        "s"
      ],
      [
        "Ġpl",
        "an"
      ],
      [
        "Ġs",
        "c"
      ],
      [
        "ter",
        "day"
      ],
      [
        "Ġevery",
        "thing"
      ],
      [
        "Ġf",
        "ind"
      ],
      [
        "Ġyes",
        "terday"
      ],
      [
        "e",
        "k"
      ],
      [
        "Ġc",
        "han"
      ],
      [
        "ble",
        "m"
      ],
      [
        "Ġsa",
        "w"
      ],
      [
        "Ġpro",
        "blem"
      ],
      [
        "Ġc",
        "are"
      ],
      [
        "a",
        "b"
      ],
      [
        "ic",
        "t"
      ],
      [
        "Ġp",
        "art"
      ],
      [
        "i",
        "z"
      ],
      [
        "Ġnot",
        "hing"
      ],
      [
        "Ġsee",
        "m"
      ],
      [
        "Ġbel",
        "ie"
      ],
      [
        "Ġint",
        "o"
      ],
      [
        "ir",
        "st"
      ],
      [
        "Ġhan",
        "d"
      ],
      [
        "t",
        "e"
      ],
      [
        "p",
        "t"
      ],
      [
        "Ġunderst",
        "and"
      ],
      [
        "ar",
        "n"
      ],
      [
        "Ġc",
        "at"
      ],
      [
        "re",
        "ad"
      ],
      [
        "ar",
        "y"
      ],
      [
        "Ġg",
        "r"
      ],
      [
        "Ġdo",
        "ing"
      ],
      [
        "op",
        "e"
      ],
      [
        "Ġf",
        "in"
      ],
      [
        "is",
        "e"
      ],
      [
        "Ġwe",
        "ek"
      ],
      [
        "re",
        "ss"
      ],
      [
        "Ġd",
        "if"
      ],
      [
        "Ġp",
        "a"
      ],
      [
        "ar",
        "k"
      ],
      [
        "Ġc",
        "ame"
      ],
      [
        "Ġi",
        "mp"
      ],
      [
        "Ġbo",
        "y"
      ],
      [
        "Ġhapp",
        "y"
      ],
      [
        "Ġst",
        "art"
      ],
      [
        "Ġst",
        "op"
      ],
      [
        "Ġf",
        "irst"
      ],
      [
        "Ġr",
        "ain"
      ],
      [
        "f",
        "ul"
      ],
      [
        "ic",
        "h"
      ],
      [
        "Ġke",
        "ep"
      ],
      [
        "t",
        "ing"
      ],
      [
        "Ġwant",
        "s"
      ],
      [
        "x",
        "t"
      ],
      [
        "Ġyear",
        "s"
      ],
      [
        "Ġdr",
        "ink"
      ],
      [
        "Ġchild",
        "ren"
      ],
      [
        "Ġsu",
        "re"
      ],
      [
        "Ġbelie",
        "ve"
      ],
      [
        "Ġthe",
        "se"
      ],
      [
        "Ġg",
        "ir"
      ],
      [
        "Ġhar",
        "d"
      ],
      [
        "ac",
        "t"
      ],
      [
        "Ġt",
        "urn"
      ],
      [
        "en",
        "ce"
      ],
      [
        "ul",
        "t"
      ],
      [
        "Ġli",
        "fe"
      ],
      [
        "Ġm",
        "other"
      ],
      [
        "Ġfriend",
        "s"
      ],
      [
        "i",
        "red"
      ],
      [
        "Ġs",
        "leep"
      ],
      [
        "Ġme",
        "et"
      ],
      [
        "Ġde",
        "c"
      ],
      [
        "Ġdo",
        "or"
      ],
      [
        "Ġop",
        "en"
      ],
      [
        "Ġso",
        "on"
      ],
      [
        "g",
        "l"
      ],
      [
        "Ġcould",
        "n"
      ],
      [
        "Ġb",
        "ought"
      ],
      [
        "Ġtoo",
        "k"
      ],
      [
        "Ġ",
        "\""
      ],
      [
        "Ġw",
        "alk"
      ],
      [
        "ak",
        "es"
      ],
      [
        "Ġsh",
        "ow"
      ],
      [
        "i",
        "le"
      ],
      [
        "i",
        "re"
      ],
      [
        "Ġne",
        "xt"
      ],
      [
        "Ġd",
        "ri"
      ],
      [
        "Ġg",
        "l"
      ],
      [
        "Ġwas",
        "n"
      ],
      [
        "i",
        "an"
      ],
      [
        "Ġwat",
        "ch"
      ],
      [
        "t",
        "en"
      ],
      [
        "at",
        "ed"
      ],
      [
        "Ġc",
        "he"
      ],
      [
        "Ġus",
        "ed"
      ],
      [
        "Ġm",
        "or"
      ],
      [
        "Ġl",
        "ost"
      ],
      [
        "re",
        "st"
      ],
      [
        "Ġrem",
        "em"
      ],
      [
        "Ġt",
        "en"
      ],
      [
        "Ġl",
        "ate"
      ],
      [
        "Ġh",
        "ur"
      ],
      [
        "Ġstu",
        "d"
      ],
      [
        "Ġaw",
        "ay"
      ],
      [
        "Ġstu",
        "dy"
      ],
      [
        "Ġf",
        "am"
      ],
      [
        "Ġmor",
        "ning"
      ],
      [
        "Ġe",
        "ver"
      ],
      [
        "Ġli",
        "k"
      ],
      [
        "Ġhappen",
        "ed"
      ],
      [
        "Ġevery",
        "one"
      ],
      [
        "Ġthe",
        "ir"
      ],
      [
        "Ġp",
        "ol"
      ],
      [
        "id",
        "ent"
      ],
      [
        "Ġst",
        "r"
      ],
      [
        "est",
        "ion"
      ],
      [
        "Ġle",
        "arn"
      ],
      [
        "m",
        "ent"
      ],
      [
        "Ġe",
        "ar"
      ],
      [
        "Ġre",
        "s"
      ],
      [
        "i",
        "ous"
      ],
      [
        "Ġg",
        "ave"
      ],
      [
        "t",
        "ed"
      ],
      [
        "f",
        "ic"
      ],
      [
        "n",
        "g"
      ],
      [
        "Ġb",
        "ed"
      ],
      [
        "Ġte",
        "ac"
      ],
      [
        "Ġm",
        "at"
      ],
      [
        "Ġe",
        "ven"
      ],
      [
        "Ġp",
        "ers"
      ],
      [
        "a",
        "use"
      ],
      [
        "s",
        "w"
      ],
      [
        "au",
        "ght"
      ],
      [
        "Ġan",
        "sw"
      ],
      [
        "Ġwat",
        "er"
      ],
      [
        "Ġb",
        "ad"
      ],
      [
        "Ġal",
        "read"
      ],
      [
        "Ġalread",
        "y"
      ],
      [
        "Ġb",
        "ot"
      ],
      [
        "Ġus",
        "e"
      ],
      [
        "Ġbe",
        "g"
      ],
      [
        "Ġf",
        "o"
      ],
      [
        "i",
        "ly"
      ],
      [
        "Ġqu",
        "estion"
      ],
      [
        "Ġn",
        "ame"
      ],
      [
        "Ġsh",
        "o"
      ],
      [
        "Ġremem",
        "ber"
      ],
      [
        "Ġbr",
        "other"
      ],
      [
        "ap",
        "an"
      ],
      [
        "is",
        "ed"
      ],
      [
        "Ġj",
        "apan"
      ],
      [
        "Ġwr",
        "ong"
      ],
      [
        "a",
        "ut"
      ],
      [
        "Ġp",
        "h"
      ],
      [
        "i",
        "p"
      ],
      [
        "Ġal",
        "one"
      ],
      [
        "Ġi",
        "de"
      ],
      [
        "g",
        "ry"
      ],
      [
        "Ġl",
        "ist"
      ],
      [
        "Ġc",
        "le"
      ],
      [
        "Ġhe",
        "ar"
      ],
      [
        "Ġh",
        "our"
      ],
      [
        "e",
        "w"
      ],
      [
        "Ġteac",
        "her"
      ],
      [
        "Ġdon",
        "e"
      ],
      [
        "f",
        "fe"
      ],
      [
        "Ġb",
        "ig"
      ],
      [
        "Ġwith",
        "out"
      ],
      [
        "Ġyou",
        "ng"
      ],
      [
        "or",
        "y"
      ],
      [
        "Ġh",
        "ope"
      ],
      [
        "Ġen",
        "gl"
      ],
      [
        "Ġint",
        "e"
      ],
      [
        "Ġen",
        "ough"
      ],
      [
        "Ġthing",
        "s"
      ],
      [
        "an",
        "ce"
      ],
      [
        "re",
        "am"
      ],
      [
        "Ġs",
        "ur"
      ],
      [
        "Ġat",
        "t"
      ],
      [
        "Ġe",
        "as"
      ],
      [
        "he",
        "s"
      ],
      [
        "Ġb",
        "est"
      ],
      [
        "Ġc",
        "ount"
      ],
      [
        "Ġengl",
        "ish"
      ],
      [
        "Ġknow",
        "s"
      ],
      [
        "Ġco",
        "ld"
      ],
      [
        "Ġab",
        "le"
      ],
      [
        "Ġf",
        "ood"
      ],
      [
        "Ġbe",
        "aut"
      ],
      [
        "Ġsome",
        "one"
      ],
      [
        "ak",
        "ing"
      ],
      [
        "Ġlook",
        "ing"
      ],
      [
        "Ġb",
        "re"
      ],
      [
        "Ġh",
        "ot"
      ],
      [
        "Ġgir",
        "l"
      ],
      [
        "ct",
        "or"
      ],
      [
        "is",
        "hed"
      ],
      [
        "Ġbus",
        "y"
      ],
      [
        "Ġhe",
        "ard"
      ],
      [
        "Ġbec",
        "ause"
      ],
      [
        "i",
        "fe"
      ],
      [
        "Ġs",
        "ha"
      ],
      [
        "Ġm",
        "in"
      ],
      [
        "Ġk",
        "ind"
      ],
      [
        "Ġf",
        "ound"
      ],
      [
        "Ġmar",
        "ried"
      ],
      [
        "Ġsw",
        "im"
      ],
      [
        "Ġpers",
        "on"
      ],
      [
        "Ġd",
        "es"
      ],
      [
        "v",
        "or"
      ],
      [
        "Ġof",
        "ten"
      ],
      [
        "Ġad",
        "v"
      ],
      [
        "Ġs",
        "ing"
      ],
      [
        "Ġh",
        "un"
      ],
      [
        "Ġlook",
        "s"
      ],
      [
        "i",
        "ble"
      ],
      [
        "it",
        "ed"
      ],
      [
        "Ġr",
        "un"
      ],
      [
        "Ġs",
        "n"
      ],
      [
        "g",
        "g"
      ],
      [
        "u",
        "ll"
      ],
      [
        "u",
        "ally"
      ],
      [
        "is",
        "ter"
      ],
      [
        "Ġkn",
        "ew"
      ],
      [
        "Ġs",
        "ame"
      ],
      [
        "pp",
        "ed"
      ],
      [
        "o",
        "y"
      ],
      [
        "Ġs",
        "un"
      ],
      [
        "Ġpart",
        "y"
      ],
      [
        "Ġstud",
        "ent"
      ],
      [
        "Ġm",
        "ist"
      ],
      [
        "Ġco",
        "ffe"
      ],
      [
        "if",
        "ul"
      ],
      [
        "Ġcoffe",
        "e"
      ],
      [
        "i",
        "a"
      ],
      [
        "Ġare",
        "n"
      ],
      [
        "Ġse",
        "en"
      ],
      [
        "Ġy",
        "et"
      ],
      [
        "Ġp",
        "ay"
      ],
      [
        "Ġbeaut",
        "iful"
      ],
      [
        "Ġlik",
        "es"
      ],
      [
        "a",
        "w"
      ],
      [
        "ar",
        "s"
      ],
      [
        "Ġide",
        "a"
      ],
      [
        "Ġf",
        "un"
      ],
      [
        "Ġansw",
        "er"
      ],
      [
        "l",
        "ain"
      ],
      [
        "Ġp",
        "ain"
      ],
      [
        "at",
        "h"
      ],
      [
        "Ġlet",
        "ter"
      ],
      [
        "Ġb",
        "ro"
      ],
      [
        "Ġinte",
        "rest"
      ],
      [
        "l",
        "es"
      ],
      [
        "Ġbe",
        "ing"
      ],
      [
        "h",
        "n"
      ],
      [
        "n",
        "er"
      ],
      [
        "Ġc",
        "ha"
      ],
      [
        "Ġw",
        "ish"
      ],
      [
        "Ġt",
        "ired"
      ],
      [
        "Ġm",
        "et"
      ],
      [
        "Ġtr",
        "ue"
      ],
      [
        "Ġthan",
        "k"
      ],
      [
        "Ġpre",
        "t"
      ],
      [
        "Ġtr",
        "ain"
      ],
      [
        "Ġbre",
        "ak"
      ],
      [
        "Ġjo",
        "hn"
      ],
      [
        "Ġm",
        "iss"
      ],
      [
        "an",
        "s"
      ],
      [
        "d",
        "s"
      ],
      [
        "o",
        "g"
      ],
      [
        "Ġw",
        "ind"
      ],
      [
        "Ġdo",
        "ctor"
      ],
      [
        "Ġcon",
        "t"
      ],
      [
        "c",
        "er"
      ],
      [
        "Ġlist",
        "en"
      ],
      [
        "m",
        "ost"
      ],
      [
        "Ġar",
        "ri"
      ],
      [
        "Ġw",
        "om"
      ],
      [
        "i",
        "gh"
      ],
      [
        "Ġk",
        "ill"
      ],
      [
        "Ġs",
        "ister"
      ],
      [
        "Ġacc",
        "ident"
      ],
      [
        "Ġo",
        "wn"
      ],
      [
        "Ġe",
        "l"
      ],
      [
        "ut",
        "h"
      ],
      [
        "Ġal",
        "most"
      ],
      [
        "Ġv",
        "is"
      ],
      [
        "Ġhave",
        "n"
      ],
      [
        "in",
        "ce"
      ],
      [
        "i",
        "ed"
      ],
      [
        "Ġp",
        "ass"
      ],
      [
        "ig",
        "n"
      ],
      [
        "a",
        "il"
      ],
      [
        "Ġbook",
        "s"
      ],
      [
        "Ġb",
        "ir"
      ],
      [
        "ve",
        "s"
      ],
      [
        "Ġar",
        "ound"
      ],
      [
        "i",
        "x"
      ],
      [
        "Ġwh",
        "ile"
      ],
      [
        "Ġany",
        "one"
      ],
      [
        "Ġfor",
        "g"
      ],
      [
        "Ġwor",
        "ld"
      ],
      [
        "c",
        "le"
      ],
      [
        "Ġp",
        "er"
      ],
      [
        "Ġwh",
        "ich"
      ],
      [
        "ren",
        "ts"
      ],
      [
        "b",
        "e"
      ],
      [
        "o",
        "ck"
      ],
      [
        "Ġre",
        "st"
      ],
      [
        "Ġfe",
        "w"
      ],
      [
        "Ġmo",
        "v"
      ],
      [
        "Ġc",
        "ook"
      ],
      [
        "an",
        "k"
      ],
      [
        "Ġmin",
        "ut"
      ],
      [
        "Ġ",
        "1"
      ],
      [
        "Ġd",
        "ays"
      ],
      [
        "Ġth",
        "ose"
      ],
      [
        "Ġfa",
        "vor"
      ],
      [
        "Ġpol",
        "ice"
      ],
      [
        "Ġs",
        "l"
      ],
      [
        "Ġg",
        "reat"
      ],
      [
        "Ġh",
        "o"
      ],
      [
        "Ġsm",
        "o"
      ],
      [
        "Ġm",
        "ind"
      ],
      [
        "Ġan",
        "other"
      ],
      [
        "Ġdif",
        "fic"
      ],
      [
        "Ġe",
        "ach"
      ],
      [
        "Ġcl",
        "ass"
      ],
      [
        "Ġw",
        "in"
      ],
      [
        "Ġre",
        "p"
      ],
      [
        "Ġdi",
        "ed"
      ],
      [
        "m",
        "m"
      ],
      [
        "n",
        "o"
      ],
      [
        "es",
        "e"
      ],
      [
        "Ġt",
        "ried"
      ],
      [
        "Ġget",
        "ting"
      ],
      [
        "Ġaf",
        "ra"
      ],
      [
        "Ġafra",
        "id"
      ],
      [
        "Ġpa",
        "rents"
      ],
      [
        "Ġs",
        "k"
      ],
      [
        "Ġbot",
        "h"
      ],
      [
        "Ġf",
        "ar"
      ],
      [
        "Ġno",
        "body"
      ],
      [
        "Ġmon",
        "day"
      ],
      [
        "Ġre",
        "c"
      ],
      [
        "Ġmon",
        "th"
      ],
      [
        "Ġs",
        "it"
      ],
      [
        "Ġtalk",
        "ing"
      ],
      [
        "Ġel",
        "se"
      ],
      [
        "on",
        "d"
      ],
      [
        "on",
        "s"
      ],
      [
        "Ġear",
        "ly"
      ],
      [
        "or",
        "m"
      ],
      [
        "Ġse",
        "c"
      ],
      [
        "Ġe",
        "y"
      ],
      [
        "s",
        "ide"
      ],
      [
        "un",
        "ch"
      ],
      [
        "Ġwr",
        "ite"
      ],
      [
        "Ġseem",
        "s"
      ],
      [
        "n",
        "ight"
      ],
      [
        "at",
        "er"
      ],
      [
        "u",
        "ck"
      ],
      [
        "a",
        "red"
      ],
      [
        "get",
        "her"
      ],
      [
        "e",
        "ll"
      ],
      [
        "en",
        "s"
      ],
      [
        "s",
        "ent"
      ],
      [
        "Ġc",
        "r"
      ],
      [
        "Ġpl",
        "ace"
      ],
      [
        "Ġfam",
        "ily"
      ],
      [
        "Ġto",
        "gether"
      ],
      [
        "y",
        "s"
      ],
      [
        "p",
        "r"
      ],
      [
        "or",
        "k"
      ],
      [
        "Ġimp",
        "ort"
      ],
      [
        "Ġmat",
        "ter"
      ],
      [
        "Ġtr",
        "uth"
      ],
      [
        "Ġ",
        "2"
      ],
      [
        "Ġp",
        "ict"
      ],
      [
        "Ġlook",
        "ed"
      ],
      [
        "Ġpict",
        "ure"
      ],
      [
        "Ġw",
        "ar"
      ],
      [
        "Ġs",
        "at"
      ],
      [
        "Ġm",
        "us"
      ],
      [
        "Ġl",
        "ang"
      ],
      [
        "Ġeas",
        "y"
      ],
      [
        "Ġlang",
        "u"
      ],
      [
        "id",
        "ed"
      ],
      [
        "Ġun",
        "t"
      ],
      [
        "Ġw",
        "ife"
      ],
      [
        "Ġon",
        "ce"
      ],
      [
        "Ġd",
        "in"
      ],
      [
        "Ġyour",
        "self"
      ],
      [
        "Ġdiffic",
        "ult"
      ],
      [
        "Ġm",
        "ost"
      ],
      [
        "Ġm",
        "ight"
      ],
      [
        "Ġwould",
        "n"
      ],
      [
        "Ġwind",
        "ow"
      ],
      [
        "c",
        "ed"
      ],
      [
        "Ġm",
        "ine"
      ],
      [
        "ang",
        "er"
      ],
      [
        "g",
        "ed"
      ],
      [
        "i",
        "ver"
      ],
      [
        "m",
        "ore"
      ],
      [
        "Ġs",
        "or"
      ],
      [
        "Ġl",
        "unch"
      ],
      [
        "Ġa",
        "ct"
      ],
      [
        "Ġpr",
        "om"
      ],
      [
        "Ġsor",
        "ry"
      ],
      [
        ".",
        "\""
      ],
      [
        "Ġha",
        "te"
      ],
      [
        "Ġany",
        "more"
      ],
      [
        "Ġmus",
        "ic"
      ],
      [
        "Ġin",
        "v"
      ],
      [
        "Ġwe",
        "ar"
      ],
      [
        "Ġph",
        "one"
      ],
      [
        "Ġwon",
        "der"
      ],
      [
        "Ġmeet",
        "ing"
      ],
      [
        "fe",
        "ren"
      ],
      [
        "Ġcom",
        "ing"
      ],
      [
        "Ġeat",
        "ing"
      ],
      [
        "c",
        "i"
      ],
      [
        "c",
        "ess"
      ],
      [
        "Ġre",
        "al"
      ],
      [
        "Ġread",
        "y"
      ],
      [
        "Ġunt",
        "il"
      ],
      [
        "r",
        "al"
      ],
      [
        "Ġs",
        "ince"
      ],
      [
        "Ġf",
        "ire"
      ],
      [
        "Ġdin",
        "ner"
      ],
      [
        "Ġevery",
        "body"
      ],
      [
        "Ġplay",
        "ing"
      ],
      [
        "iz",
        "e"
      ],
      [
        "Ġt",
        "able"
      ],
      [
        "re",
        "t"
      ],
      [
        "Ġan",
        "gry"
      ],
      [
        "Ġli",
        "ght"
      ],
      [
        "Ġcount",
        "ry"
      ],
      [
        "Ġread",
        "ing"
      ],
      [
        "Ġ",
        "end"
      ],
      [
        "Ġp",
        "ark"
      ],
      [
        "ce",
        "pt"
      ],
      [
        "Ġfor",
        "get"
      ],
      [
        "Ġsur",
        "pr"
      ],
      [
        "Ġt",
        "v"
      ],
      [
        "Ġexp",
        "ect"
      ],
      [
        "Ġwait",
        "ing"
      ],
      [
        "l",
        "ed"
      ],
      [
        "Ġat",
        "e"
      ],
      [
        "Ġhim",
        "self"
      ],
      [
        "Ġa",
        "ust"
      ],
      [
        "Ġm",
        "il"
      ],
      [
        "k",
        "ing"
      ],
      [
        "Ġs",
        "on"
      ],
      [
        "os",
        "ed"
      ],
      [
        "Ġd",
        "ream"
      ],
      [
        "Ġa",
        "ir"
      ],
      [
        "Ġhur",
        "t"
      ],
      [
        "Ġhour",
        "s"
      ],
      [
        "Ġshould",
        "n"
      ],
      [
        "Ġnew",
        "s"
      ],
      [
        "Ġs",
        "ays"
      ],
      [
        "Ġaust",
        "ral"
      ],
      [
        "Ġst",
        "o"
      ],
      [
        "Ġsu",
        "pp"
      ],
      [
        "Ġag",
        "o"
      ],
      [
        "Ġtry",
        "ing"
      ],
      [
        "Ġstart",
        "ed"
      ],
      [
        "us",
        "ed"
      ],
      [
        "Ġdif",
        "feren"
      ],
      [
        "Ġdri",
        "ve"
      ],
      [
        "Ġgl",
        "ass"
      ],
      [
        "he",
        "re"
      ],
      [
        "Ġsm",
        "all"
      ],
      [
        "Ġpret",
        "ty"
      ],
      [
        "ion",
        "s"
      ],
      [
        "Ġfavor",
        "ite"
      ],
      [
        "Ġimport",
        "ant"
      ],
      [
        "0",
        "0"
      ],
      [
        "Ġst",
        "and"
      ],
      [
        "Ġk",
        "id"
      ],
      [
        "Ġsp",
        "end"
      ],
      [
        "Ġsn",
        "ow"
      ],
      [
        "Ġha",
        "ir"
      ],
      [
        "Ġa",
        "p"
      ],
      [
        "Ġre",
        "d"
      ],
      [
        "Ġaustral",
        "ia"
      ],
      [
        "r",
        "ist"
      ],
      [
        "Ġc",
        "ry"
      ],
      [
        "Ġforg",
        "ot"
      ],
      [
        "l",
        "t"
      ],
      [
        "Ġt",
        "all"
      ],
      [
        "Ġd",
        "anger"
      ],
      [
        "or",
        "s"
      ],
      [
        "m",
        "an"
      ],
      [
        "Ġto",
        "night"
      ],
      [
        "u",
        "b"
      ],
      [
        "ou",
        "ble"
      ],
      [
        "Ġf",
        "ore"
      ],
      [
        "Ġmy",
        "self"
      ],
      [
        "e",
        "ly"
      ],
      [
        "Ġn",
        "ice"
      ],
      [
        "ss",
        "ible"
      ],
      [
        "Ġchan",
        "ge"
      ],
      [
        "Ġsho",
        "es"
      ],
      [
        "or",
        "n"
      ],
      [
        "Ġre",
        "l"
      ],
      [
        "Ġ",
        "ent"
      ],
      [
        "Ġs",
        "er"
      ],
      [
        "Ġd",
        "ress"
      ],
      [
        "at",
        "ing"
      ],
      [
        "Ġus",
        "ually"
      ],
      [
        "Ġsu",
        "ch"
      ],
      [
        "Ġr",
        "an"
      ],
      [
        "ap",
        "er"
      ],
      [
        "a",
        "z"
      ],
      [
        "Ġlive",
        "s"
      ],
      [
        "Ġs",
        "ong"
      ],
      [
        "Ġs",
        "ick"
      ],
      [
        "Ġm",
        "om"
      ],
      [
        "ll",
        "ow"
      ],
      [
        "it",
        "al"
      ],
      [
        "Ġfin",
        "ished"
      ],
      [
        "Ġf",
        "ast"
      ],
      [
        "Ġch",
        "rist"
      ],
      [
        "Ġb",
        "it"
      ],
      [
        "Ġb",
        "ab"
      ],
      [
        "er",
        "ic"
      ],
      [
        "Ġso",
        "l"
      ],
      [
        "Ġcall",
        "ed"
      ],
      [
        "Ġdec",
        "ided"
      ],
      [
        "Ġre",
        "f"
      ],
      [
        "Ġcle",
        "an"
      ],
      [
        "l",
        "ic"
      ],
      [
        "Ġneed",
        "s"
      ],
      [
        "Ġfe",
        "lt"
      ],
      [
        "i",
        "ent"
      ],
      [
        "w",
        "ork"
      ],
      [
        "Ġha",
        "ving"
      ],
      [
        "Ġe",
        "le"
      ],
      [
        "Ġst",
        "ation"
      ],
      [
        "Ġte",
        "le"
      ],
      [
        "Ġwork",
        "ing"
      ],
      [
        "Ġtr",
        "ust"
      ],
      [
        "ot",
        "e"
      ],
      [
        "Ġstudent",
        "s"
      ],
      [
        "Ġminut",
        "es"
      ],
      [
        "3",
        "0"
      ],
      [
        "al",
        "s"
      ],
      [
        "Ġtim",
        "es"
      ],
      [
        "Ġam",
        "eric"
      ],
      [
        "Ġfl",
        "ow"
      ],
      [
        "Ġwom",
        "an"
      ],
      [
        "b",
        "all"
      ],
      [
        "u",
        "g"
      ],
      [
        "as",
        "on"
      ],
      [
        "Ġne",
        "ar"
      ],
      [
        "f",
        "ort"
      ],
      [
        "j",
        "oy"
      ],
      [
        "Ġvis",
        "it"
      ],
      [
        "a",
        "x"
      ],
      [
        "ou",
        "p"
      ],
      [
        "Ġc",
        "am"
      ],
      [
        "Ġf",
        "ive"
      ],
      [
        "Ġen",
        "joy"
      ],
      [
        "w",
        "e"
      ],
      [
        "Ġtr",
        "ouble"
      ],
      [
        "Ġcom",
        "m"
      ],
      [
        "Ġdis",
        "c"
      ],
      [
        "a",
        "f"
      ],
      [
        "g",
        "er"
      ],
      [
        "Ġhand",
        "s"
      ],
      [
        "e",
        "red"
      ],
      [
        "Ġs",
        "ound"
      ],
      [
        "Ġc",
        "ity"
      ],
      [
        "Ġme",
        "an"
      ],
      [
        "Ġl",
        "ar"
      ],
      [
        "is",
        "ion"
      ],
      [
        "Ġhe",
        "ad"
      ],
      [
        "Ġp",
        "en"
      ],
      [
        "Ġey",
        "es"
      ],
      [
        "Ġmil",
        "k"
      ],
      [
        "Ġre",
        "t"
      ],
      [
        "Ġoff",
        "ice"
      ],
      [
        "Ġexp",
        "lain"
      ],
      [
        "Ġbeg",
        "in"
      ],
      [
        "Ġmov",
        "ie"
      ],
      [
        "Ġc",
        "ut"
      ],
      [
        "m",
        "as"
      ],
      [
        "Ġf",
        "ree"
      ],
      [
        "Ġdo",
        "ll"
      ],
      [
        "Ġst",
        "ory"
      ],
      [
        "Ġex",
        "c"
      ],
      [
        "um",
        "b"
      ],
      [
        "Ġbro",
        "ke"
      ],
      [
        "Ġchrist",
        "mas"
      ],
      [
        "re",
        "et"
      ],
      [
        "al",
        "th"
      ],
      [
        "Ġarri",
        "ved"
      ],
      [
        "or",
        "d"
      ],
      [
        "Ġab",
        "s"
      ],
      [
        "f",
        "ast"
      ],
      [
        "Ġm",
        "en"
      ],
      [
        "Ġre",
        "g"
      ],
      [
        "Ġcl",
        "ose"
      ],
      [
        "Ġmist",
        "ake"
      ],
      [
        "b",
        "r"
      ],
      [
        "Ġha",
        "t"
      ],
      [
        "Ġbr",
        "ing"
      ],
      [
        "Ġgr",
        "and"
      ],
      [
        "i",
        "er"
      ],
      [
        "Ġl",
        "au"
      ],
      [
        "er",
        "t"
      ],
      [
        "Ġten",
        "n"
      ],
      [
        "Ġbreak",
        "fast"
      ],
      [
        "Ġth",
        "ir"
      ],
      [
        "Ġst",
        "up"
      ],
      [
        "Ġstup",
        "id"
      ],
      [
        "Ġtenn",
        "is"
      ],
      [
        "Ġw",
        "all"
      ],
      [
        "Ġwor",
        "d"
      ],
      [
        "Ġsu",
        "c"
      ],
      [
        "Ġex",
        "am"
      ],
      [
        "e",
        "ver"
      ],
      [
        "w",
        "here"
      ],
      [
        "ou",
        "d"
      ],
      [
        "in",
        "t"
      ],
      [
        "Ġl",
        "aw"
      ],
      [
        "en",
        "se"
      ],
      [
        "o",
        "ice"
      ],
      [
        "Ġlong",
        "er"
      ],
      [
        "Ġgo",
        "es"
      ],
      [
        "un",
        "k"
      ],
      [
        "Ġp",
        "at"
      ],
      [
        "ent",
        "ion"
      ],
      [
        "Ġhome",
        "work"
      ],
      [
        "l",
        "et"
      ],
      [
        "ic",
        "y"
      ],
      [
        "ic",
        "al"
      ],
      [
        "Ġcomp",
        "ut"
      ],
      [
        "Ġafter",
        "no"
      ],
      [
        "Ġf",
        "ace"
      ],
      [
        "ol",
        "og"
      ],
      [
        "Ġres",
        "p"
      ],
      [
        "Ġfo",
        "llow"
      ],
      [
        "mm",
        "er"
      ],
      [
        "Ġh",
        "igh"
      ],
      [
        "Ġk",
        "iss"
      ],
      [
        "Ġpre",
        "sent"
      ],
      [
        "Ġafterno",
        "on"
      ],
      [
        "an",
        "ge"
      ],
      [
        "Ġfe",
        "ll"
      ],
      [
        "Ġqu",
        "ite"
      ],
      [
        "Ġbab",
        "y"
      ],
      [
        "c",
        "l"
      ],
      [
        "Ġr",
        "ich"
      ],
      [
        "f",
        "er"
      ],
      [
        "in",
        "ess"
      ],
      [
        "Ġho",
        "ld"
      ],
      [
        "Ġs",
        "ix"
      ],
      [
        "it",
        "ion"
      ],
      [
        "Ġsh",
        "ort"
      ],
      [
        "Ġs",
        "al"
      ],
      [
        "Ġthe",
        "n"
      ],
      [
        "ir",
        "t"
      ],
      [
        "il",
        "ed"
      ],
      [
        "at",
        "es"
      ],
      [
        "ro",
        "ss"
      ],
      [
        "Ġto",
        "wn"
      ],
      [
        "Ġg",
        "ame"
      ],
      [
        "Ġf",
        "ish"
      ],
      [
        "Ġg",
        "one"
      ],
      [
        "it",
        "her"
      ],
      [
        "j",
        "ect"
      ],
      [
        "p",
        "h"
      ],
      [
        "Ġt",
        "er"
      ],
      [
        "Ġs",
        "ent"
      ],
      [
        "re",
        "w"
      ],
      [
        "Ġf",
        "ull"
      ],
      [
        "Ġcan",
        "ad"
      ],
      [
        "Ġsomet",
        "im"
      ],
      [
        "Ġar",
        "m"
      ],
      [
        "ict",
        "ion"
      ],
      [
        "ve",
        "l"
      ],
      [
        "an",
        "y"
      ],
      [
        "Ġad",
        "d"
      ],
      [
        "Ġinterest",
        "ing"
      ],
      [
        "Ġjapan",
        "ese"
      ],
      [
        "Ġlangu",
        "age"
      ],
      [
        "Ġc",
        "aught"
      ],
      [
        "Ġfeel",
        "ing"
      ],
      [
        "Ġp",
        "ick"
      ],
      [
        "Ġadv",
        "ice"
      ],
      [
        "Ġbo",
        "x"
      ],
      [
        "os",
        "p"
      ],
      [
        "Ġturn",
        "ed"
      ],
      [
        "Ġm",
        "ed"
      ],
      [
        "as",
        "h"
      ],
      [
        "Ġcl",
        "ot"
      ],
      [
        "ag",
        "es"
      ],
      [
        "Ġh",
        "it"
      ],
      [
        "Ġcon",
        "s"
      ],
      [
        "Ġco",
        "ll"
      ],
      [
        "Ġold",
        "er"
      ],
      [
        "Ġagain",
        "st"
      ],
      [
        "r",
        "ough"
      ],
      [
        "Ġt",
        "ri"
      ],
      [
        "Ġm",
        "akes"
      ],
      [
        "Ġtr",
        "ave"
      ],
      [
        "Ġbu",
        "ild"
      ],
      [
        "re",
        "ct"
      ],
      [
        "Ġre",
        "ason"
      ],
      [
        "Ġr",
        "iver"
      ],
      [
        "Ġthink",
        "ing"
      ],
      [
        "Ġsu",
        "mmer"
      ],
      [
        "c",
        "hed"
      ],
      [
        "Ġd",
        "ark"
      ],
      [
        "Ġl",
        "uck"
      ],
      [
        "Ġst",
        "reet"
      ],
      [
        "Ġwatch",
        "ing"
      ],
      [
        "k",
        "en"
      ],
      [
        "Ġth",
        "rough"
      ],
      [
        "Ġn",
        "um"
      ],
      [
        "ro",
        "om"
      ],
      [
        "Ġgl",
        "ad"
      ],
      [
        "l",
        "ess"
      ],
      [
        "u",
        "d"
      ],
      [
        "Ġin",
        "ter"
      ],
      [
        "Ġal",
        "ong"
      ],
      [
        "Ġke",
        "y"
      ],
      [
        "Ġt",
        "aking"
      ],
      [
        "Ġd",
        "aught"
      ],
      [
        "Ġl",
        "ater"
      ],
      [
        "Ġwe",
        "ather"
      ],
      [
        "Ġe",
        "mp"
      ],
      [
        "iz",
        "ed"
      ],
      [
        "Ġbir",
        "th"
      ],
      [
        "Ġw",
        "ine"
      ],
      [
        "Ġas",
        "s"
      ],
      [
        "Ġsp",
        "o"
      ],
      [
        "Ġcon",
        "f"
      ],
      [
        "Ġlove",
        "s"
      ],
      [
        "Ġhun",
        "gry"
      ],
      [
        "Ġsto",
        "pped"
      ],
      [
        "y",
        "ing"
      ],
      [
        "Ġc",
        "ake"
      ],
      [
        "er",
        "a"
      ],
      [
        "Ġh",
        "osp"
      ],
      [
        "Ġhot",
        "el"
      ],
      [
        "Ġsometim",
        "es"
      ],
      [
        "n",
        "ess"
      ],
      [
        "Ġm",
        "aking"
      ],
      [
        "Ġbeg",
        "an"
      ],
      [
        "Ġhosp",
        "ital"
      ],
      [
        "c",
        "es"
      ],
      [
        "i",
        "ence"
      ],
      [
        "Ġd",
        "ie"
      ],
      [
        "Ġhas",
        "n"
      ],
      [
        "w",
        "ard"
      ],
      [
        "Ġhe",
        "alth"
      ],
      [
        "ate",
        "ly"
      ],
      [
        "Ġbl",
        "ack"
      ],
      [
        "Ġsmo",
        "king"
      ],
      [
        "i",
        "b"
      ],
      [
        "Ġc",
        "or"
      ],
      [
        "Ġli",
        "ving"
      ],
      [
        "Ġfin",
        "ish"
      ],
      [
        "b",
        "ed"
      ],
      [
        "Ġt",
        "ree"
      ],
      [
        "Ġd",
        "iction"
      ],
      [
        "fe",
        "ct"
      ],
      [
        "Ġdog",
        "s"
      ],
      [
        "Ġnum",
        "ber"
      ],
      [
        "Ġde",
        "ath"
      ],
      [
        "Ġac",
        "cept"
      ],
      [
        "p",
        "l"
      ],
      [
        "Ġe",
        "m"
      ],
      [
        "Ġqu",
        "ick"
      ],
      [
        "Ġchan",
        "ce"
      ],
      [
        "Ġstr",
        "ong"
      ],
      [
        "Ġcomput",
        "er"
      ],
      [
        "d",
        "u"
      ],
      [
        "s",
        "h"
      ],
      [
        "Ġc",
        "ra"
      ],
      [
        "Ġke",
        "pt"
      ],
      [
        "Ġlive",
        "d"
      ],
      [
        "Ġcare",
        "ful"
      ],
      [
        "Ġquestion",
        "s"
      ],
      [
        "Ġkill",
        "ed"
      ],
      [
        "Ġde",
        "ad"
      ],
      [
        "Ġad",
        "m"
      ],
      [
        "z",
        "y"
      ],
      [
        "Ġwr",
        "it"
      ],
      [
        "Ġstudy",
        "ing"
      ],
      [
        "Ġsec",
        "ret"
      ],
      [
        "at",
        "ive"
      ],
      [
        "Ġe",
        "gg"
      ],
      [
        "Ġwor",
        "ry"
      ],
      [
        "Ġde",
        "p"
      ],
      [
        "Ġag",
        "ree"
      ],
      [
        "Ġacc",
        "om"
      ],
      [
        "Ġcanad",
        "ian"
      ],
      [
        "a",
        "ir"
      ],
      [
        "Ġa",
        "ge"
      ],
      [
        "Ġc",
        "ost"
      ],
      [
        "it",
        "c"
      ],
      [
        "Ġyour",
        "s"
      ],
      [
        "Ġlar",
        "ge"
      ],
      [
        "m",
        "ing"
      ],
      [
        "Ġb",
        "icy"
      ],
      [
        "Ġh",
        "id"
      ],
      [
        "Ġwh",
        "ite"
      ],
      [
        "Ġsay",
        "ing"
      ],
      [
        "Ġdifferen",
        "t"
      ],
      [
        "Ġmom",
        "ent"
      ],
      [
        "Ġdiction",
        "ary"
      ],
      [
        "Ġm",
        "ess"
      ],
      [
        "Ġret",
        "urn"
      ],
      [
        "Ġp",
        "ie"
      ],
      [
        "Ġany",
        "body"
      ],
      [
        "Ġcha",
        "r"
      ],
      [
        "Ġclot",
        "hes"
      ],
      [
        "Ġdaught",
        "er"
      ],
      [
        "?",
        "\""
      ],
      [
        "Ġc",
        "up"
      ],
      [
        "Ġf",
        "ight"
      ],
      [
        "Ġst",
        "ore"
      ],
      [
        "Ġcam",
        "era"
      ],
      [
        "Ġthink",
        "s"
      ],
      [
        "Ġwork",
        "s"
      ],
      [
        "Ġflow",
        "ers"
      ],
      [
        "Ġb",
        "ag"
      ],
      [
        "Ġcomp",
        "any"
      ],
      [
        "Ġcom",
        "es"
      ],
      [
        "Ġcon",
        "cer"
      ],
      [
        "Ġexp",
        "ens"
      ],
      [
        "Ġbec",
        "ame"
      ],
      [
        "Ġsurpr",
        "ised"
      ],
      [
        "Ġte",
        "a"
      ],
      [
        "Ġhur",
        "ry"
      ],
      [
        "Ġbicy",
        "cle"
      ],
      [
        "is",
        "on"
      ],
      [
        "Ġtr",
        "ans"
      ],
      [
        "Ġcomp",
        "let"
      ],
      [
        "Ġsw",
        "e"
      ],
      [
        "Ġwear",
        "ing"
      ],
      [
        "l",
        "ves"
      ],
      [
        "Ġse",
        "ll"
      ],
      [
        "Ġsun",
        "day"
      ],
      [
        "Ġser",
        "ious"
      ],
      [
        "Ġbuild",
        "ing"
      ],
      [
        "Ġi",
        "ce"
      ],
      [
        "Ġo",
        "b"
      ],
      [
        "Ġbe",
        "h"
      ],
      [
        "Ġan",
        "im"
      ],
      [
        "Ġcomp",
        "lain"
      ],
      [
        "Ġfl",
        "o"
      ],
      [
        "Ġbirth",
        "day"
      ],
      [
        "d",
        "d"
      ],
      [
        "p",
        "ort"
      ],
      [
        "Ġin",
        "s"
      ],
      [
        "end",
        "ed"
      ],
      [
        "um",
        "p"
      ],
      [
        "Ġbeh",
        "ind"
      ],
      [
        "Ġs",
        "et"
      ],
      [
        "Ġhe",
        "art"
      ],
      [
        "Ġout",
        "side"
      ],
      [
        "Ġlo",
        "se"
      ],
      [
        "Ġtrave",
        "l"
      ],
      [
        "Ġin",
        "c"
      ],
      [
        "Ġget",
        "s"
      ],
      [
        "Ġdr",
        "unk"
      ],
      [
        "Ġor",
        "der"
      ],
      [
        "de",
        "red"
      ],
      [
        "Ġfo",
        "ot"
      ],
      [
        "se",
        "lves"
      ],
      [
        "Ġwhe",
        "ther"
      ],
      [
        "Ġsp",
        "ent"
      ],
      [
        "Ġwr",
        "ote"
      ],
      [
        "a",
        "pp"
      ],
      [
        "Ġo",
        "k"
      ],
      [
        "Ġbe",
        "er"
      ],
      [
        "Ġli",
        "e"
      ],
      [
        "il",
        "ity"
      ],
      [
        "Ġsome",
        "body"
      ],
      [
        "Ġstr",
        "ange"
      ],
      [
        "Ġcle",
        "ar"
      ],
      [
        "Ġc",
        "ap"
      ],
      [
        "us",
        "h"
      ],
      [
        "Ġother",
        "s"
      ],
      [
        "Ġpo",
        "ssible"
      ],
      [
        "Ġi",
        "ll"
      ],
      [
        "Ġs",
        "ign"
      ],
      [
        "Ġr",
        "u"
      ],
      [
        "Ġte",
        "am"
      ],
      [
        "Ġhelp",
        "ed"
      ],
      [
        "Ġdoll",
        "ars"
      ],
      [
        "Ġb",
        "ath"
      ],
      [
        "Ġb",
        "orn"
      ],
      [
        "im",
        "e"
      ],
      [
        "Ġr",
        "ather"
      ],
      [
        "Ġle",
        "g"
      ],
      [
        "Ġmay",
        "be"
      ],
      [
        "Ġgu",
        "ess"
      ],
      [
        "Ġchan",
        "ged"
      ],
      [
        "n",
        "ot"
      ],
      [
        "Ġeat",
        "en"
      ],
      [
        "i",
        "o"
      ],
      [
        "Ġb",
        "ank"
      ],
      [
        "lf",
        "riend"
      ],
      [
        "itt",
        "ing"
      ],
      [
        "Ġbec",
        "ome"
      ],
      [
        "Ġp",
        "ian"
      ],
      [
        "ount",
        "ain"
      ],
      [
        "Ġcra",
        "zy"
      ],
      [
        "Ġd",
        "ist"
      ],
      [
        "Ġproblem",
        "s"
      ],
      [
        "ab",
        "ly"
      ],
      [
        "Ġgir",
        "lfriend"
      ],
      [
        "Ġexpens",
        "ive"
      ],
      [
        "u",
        "al"
      ],
      [
        "us",
        "s"
      ],
      [
        "Ġneed",
        "ed"
      ],
      [
        "Ġstay",
        "ed"
      ],
      [
        "Ġpa",
        "id"
      ],
      [
        "i",
        "ke"
      ],
      [
        "ou",
        "b"
      ],
      [
        "Ġse",
        "at"
      ],
      [
        "Ġex",
        "act"
      ],
      [
        "Ġbus",
        "iness"
      ],
      [
        "Ġt",
        "ick"
      ],
      [
        "Ġ",
        "es"
      ],
      [
        "Ġs",
        "end"
      ],
      [
        "Ġwho",
        "le"
      ],
      [
        "Ġglass",
        "es"
      ],
      [
        "Ġto",
        "uch"
      ],
      [
        "on",
        "ed"
      ],
      [
        "Ġl",
        "ess"
      ],
      [
        "Ġp",
        "aper"
      ],
      [
        "Ġh",
        "or"
      ],
      [
        "Ġin",
        "f"
      ],
      [
        "Ġas",
        "leep"
      ],
      [
        "Ġbet",
        "we"
      ],
      [
        "Ġcat",
        "ch"
      ],
      [
        "Ġbetwe",
        "en"
      ],
      [
        "Ġno",
        "ise"
      ],
      [
        "Ġpr",
        "oud"
      ],
      [
        "Ġgu",
        "it"
      ],
      [
        "Ġap",
        "olog"
      ],
      [
        "e",
        "al"
      ],
      [
        "Ġm",
        "ountain"
      ],
      [
        "Ġcat",
        "s"
      ],
      [
        "Ġinterest",
        "ed"
      ],
      [
        "Ġthir",
        "ty"
      ],
      [
        "Ġter",
        "ri"
      ],
      [
        "Ġc",
        "ol"
      ],
      [
        "Ġte",
        "ach"
      ],
      [
        "ul",
        "ar"
      ],
      [
        "Ġsl",
        "ow"
      ],
      [
        "a",
        "ur"
      ],
      [
        "Ġf",
        "all"
      ],
      [
        "Ġg",
        "ard"
      ],
      [
        "Ġwor",
        "ds"
      ],
      [
        "Ġso",
        "ld"
      ],
      [
        "Ġsa",
        "fe"
      ],
      [
        "Ġplay",
        "ed"
      ],
      [
        "Ġquick",
        "ly"
      ],
      [
        "Ġgard",
        "en"
      ],
      [
        "i",
        "et"
      ],
      [
        "u",
        "red"
      ],
      [
        "on",
        "t"
      ],
      [
        "Ġcan",
        "not"
      ],
      [
        "Ġexp",
        "er"
      ],
      [
        "Ġlau",
        "gh"
      ],
      [
        "ph",
        "one"
      ],
      [
        "a",
        "v"
      ],
      [
        "b",
        "and"
      ],
      [
        "c",
        "ent"
      ],
      [
        "ic",
        "s"
      ],
      [
        "ro",
        "ad"
      ],
      [
        "art",
        "h"
      ],
      [
        "Ġqu",
        "it"
      ],
      [
        "Ġpre",
        "fer"
      ],
      [
        "Ġmist",
        "akes"
      ],
      [
        "Ġdanger",
        "ous"
      ],
      [
        "Ġguit",
        "ar"
      ],
      [
        "t",
        "le"
      ],
      [
        "in",
        "s"
      ],
      [
        "Ġb",
        "ase"
      ],
      [
        "Ġwe",
        "ight"
      ],
      [
        "ore",
        "d"
      ],
      [
        "ust",
        "om"
      ],
      [
        "Ġh",
        "on"
      ],
      [
        "Ġe",
        "arth"
      ],
      [
        "us",
        "band"
      ],
      [
        "Ġli",
        "br"
      ],
      [
        "Ġpro",
        "b"
      ],
      [
        "Ġsm",
        "ell"
      ],
      [
        "Ġseem",
        "ed"
      ],
      [
        "Ġswim",
        "ming"
      ],
      [
        "n",
        "y"
      ],
      [
        "y",
        "p"
      ],
      [
        "Ġt",
        "akes"
      ],
      [
        "Ġg",
        "row"
      ],
      [
        "Ġit",
        "s"
      ],
      [
        "ak",
        "en"
      ],
      [
        "Ġspeak",
        "ing"
      ],
      [
        "Ġpian",
        "o"
      ],
      [
        "m",
        "ed"
      ],
      [
        "Ġs",
        "ad"
      ],
      [
        "Ġf",
        "our"
      ],
      [
        "Ġh",
        "usband"
      ],
      [
        "Ġte",
        "mp"
      ],
      [
        "Ġv",
        "ac"
      ],
      [
        "Ġp",
        "op"
      ],
      [
        "Ġin",
        "d"
      ],
      [
        "Ġe",
        "ve"
      ],
      [
        "out",
        "h"
      ],
      [
        "Ġse",
        "ven"
      ],
      [
        "Ġwork",
        "ed"
      ],
      [
        "Ġar",
        "t"
      ],
      [
        "Ġrun",
        "ning"
      ],
      [
        "Ġwom",
        "en"
      ],
      [
        "Ġme",
        "m"
      ],
      [
        "Ġall",
        "ow"
      ],
      [
        "ive",
        "d"
      ],
      [
        "Ġrest",
        "aur"
      ],
      [
        "Ġameric",
        "a"
      ],
      [
        "Ġlibr",
        "ary"
      ],
      [
        "Ġrestaur",
        "ant"
      ],
      [
        "r",
        "act"
      ],
      [
        "Ġsu",
        "b"
      ],
      [
        "Ġrain",
        "ing"
      ],
      [
        "Ġflo",
        "or"
      ],
      [
        "Ġd",
        "oub"
      ],
      [
        "ur",
        "ing"
      ],
      [
        "Ġthank",
        "s"
      ],
      [
        "Ġexact",
        "ly"
      ],
      [
        "Ġprob",
        "ably"
      ],
      [
        "Ġc",
        "our"
      ],
      [
        "is",
        "hing"
      ],
      [
        "er",
        "g"
      ],
      [
        "Ġsh",
        "irt"
      ],
      [
        "Ġle",
        "ast"
      ],
      [
        "Ġcon",
        "v"
      ],
      [
        "Ġspeak",
        "s"
      ],
      [
        "k",
        "y"
      ],
      [
        "o",
        "c"
      ],
      [
        "Ġi",
        "m"
      ],
      [
        "he",
        "n"
      ],
      [
        "Ġf",
        "ix"
      ],
      [
        "Ġfr",
        "ont"
      ],
      [
        "Ġdis",
        "app"
      ],
      [
        "Ġfam",
        "ous"
      ],
      [
        "Ġele",
        "ct"
      ],
      [
        "ert",
        "ain"
      ],
      [
        "Ġtri",
        "p"
      ],
      [
        "u",
        "ation"
      ],
      [
        "Ġd",
        "uring"
      ],
      [
        "Ġh",
        "ide"
      ],
      [
        "at",
        "or"
      ],
      [
        "Ġab",
        "road"
      ],
      [
        "Ġun",
        "cle"
      ],
      [
        "Ġlove",
        "d"
      ],
      [
        "Ġplan",
        "e"
      ],
      [
        "b",
        "y"
      ],
      [
        "Ġt",
        "est"
      ],
      [
        "Ġm",
        "id"
      ],
      [
        "Ġc",
        "al"
      ],
      [
        "as",
        "ter"
      ],
      [
        "Ġin",
        "st"
      ],
      [
        "Ġex",
        "t"
      ],
      [
        "Ġcl",
        "im"
      ],
      [
        "Ġtalk",
        "ed"
      ],
      [
        "Ġpat",
        "ient"
      ],
      [
        "cl",
        "ock"
      ],
      [
        "Ġmed",
        "ic"
      ],
      [
        "s",
        "o"
      ],
      [
        "Ġc",
        "ertain"
      ],
      [
        "Ġwe",
        "ren"
      ],
      [
        "Ġr",
        "ul"
      ],
      [
        "Ġche",
        "ck"
      ],
      [
        "Ġprom",
        "ise"
      ],
      [
        "Ġegg",
        "s"
      ],
      [
        "Ġtrans",
        "l"
      ],
      [
        "Ġt",
        "ast"
      ],
      [
        "Ġt",
        "ax"
      ],
      [
        "ol",
        "ut"
      ],
      [
        "Ġpo",
        "or"
      ],
      [
        "Ġbro",
        "ken"
      ],
      [
        "Ġper",
        "fect"
      ],
      [
        "Ġkid",
        "s"
      ],
      [
        "Ġf",
        "re"
      ],
      [
        "Ġp",
        "ri"
      ],
      [
        "Ġg",
        "en"
      ],
      [
        "et",
        "s"
      ],
      [
        "Ġsh",
        "ip"
      ],
      [
        "itt",
        "en"
      ],
      [
        "Ġopen",
        "ed"
      ],
      [
        "Ġmov",
        "ies"
      ],
      [
        "Ġd",
        "et"
      ],
      [
        "Ġre",
        "ce"
      ],
      [
        "Ġsh",
        "ut"
      ],
      [
        "Ġwor",
        "th"
      ],
      [
        "Ġde",
        "al"
      ],
      [
        "Ġch",
        "oice"
      ],
      [
        "Ġsit",
        "uation"
      ],
      [
        "c",
        "ap"
      ],
      [
        "o",
        "ve"
      ],
      [
        "Ġt",
        "reat"
      ],
      [
        "Ġh",
        "um"
      ],
      [
        "Ġwor",
        "ried"
      ],
      [
        "Ġlo",
        "ck"
      ],
      [
        "ag",
        "ed"
      ],
      [
        "Ġmo",
        "ve"
      ],
      [
        "Ġfin",
        "ally"
      ],
      [
        "Ġsuc",
        "cess"
      ],
      [
        "Ġ",
        "ve"
      ],
      [
        "Ġha",
        "lf"
      ],
      [
        "Ġe",
        "ither"
      ],
      [
        "Ġme",
        "at"
      ],
      [
        "Ġr",
        "ad"
      ],
      [
        "Ġadv",
        "ised"
      ],
      [
        "Ġher",
        "self"
      ],
      [
        "Ġbl",
        "ame"
      ],
      [
        "Ġgu",
        "ys"
      ],
      [
        "Ġapp",
        "le"
      ],
      [
        "Ġluck",
        "y"
      ],
      [
        "a",
        "ving"
      ],
      [
        "Ġs",
        "ide"
      ],
      [
        "Ġno",
        "vel"
      ],
      [
        "Ġro",
        "ad"
      ],
      [
        "Ġdes",
        "er"
      ],
      [
        "Ġbase",
        "ball"
      ],
      [
        "Ġa",
        "v"
      ],
      [
        "er",
        "v"
      ],
      [
        "oo",
        "se"
      ],
      [
        "Ġne",
        "igh"
      ],
      [
        "Ġbl",
        "ue"
      ],
      [
        "Ġsleep",
        "ing"
      ],
      [
        "Ġatt",
        "ention"
      ],
      [
        "Ġsmo",
        "ke"
      ],
      [
        "Ġneigh",
        "b"
      ],
      [
        "p",
        "le"
      ],
      [
        "Ġd",
        "ance"
      ],
      [
        "Ġc",
        "ase"
      ],
      [
        "Ġf",
        "ing"
      ],
      [
        "Ġf",
        "ly"
      ],
      [
        "ver",
        "al"
      ],
      [
        "Ġse",
        "veral"
      ],
      [
        "Ġbr",
        "ought"
      ],
      [
        "Ġpr",
        "ison"
      ],
      [
        "Ġwait",
        "ed"
      ],
      [
        "ull",
        "y"
      ],
      [
        "ci",
        "al"
      ],
      [
        "Ġcor",
        "rect"
      ],
      [
        "Ġes",
        "cap"
      ],
      [
        "g",
        "n"
      ],
      [
        "Ġf",
        "act"
      ],
      [
        "Ġr",
        "a"
      ],
      [
        "ent",
        "ly"
      ],
      [
        "Ġab",
        "and"
      ],
      [
        "Ġwho",
        "se"
      ],
      [
        "Ġweek",
        "end"
      ],
      [
        "e",
        "e"
      ],
      [
        "f",
        "ully"
      ],
      [
        "Ġs",
        "il"
      ],
      [
        "re",
        "ll"
      ],
      [
        "Ġg",
        "un"
      ],
      [
        "Ġbe",
        "ach"
      ],
      [
        "id",
        "ge"
      ],
      [
        "Ġle",
        "aving"
      ],
      [
        "Ġsu",
        "dd"
      ],
      [
        "Ġboy",
        "s"
      ],
      [
        "Ġwalk",
        "ed"
      ],
      [
        "Ġlearn",
        "ed"
      ],
      [
        "Ġinv",
        "ited"
      ],
      [
        "Ġlaw",
        "y"
      ],
      [
        "Ġrul",
        "es"
      ],
      [
        "Ġsudd",
        "en"
      ],
      [
        "Ġs",
        "im"
      ],
      [
        "in",
        "ed"
      ],
      [
        "id",
        "er"
      ],
      [
        "Ġar",
        "g"
      ],
      [
        "Ġshow",
        "ed"
      ],
      [
        "Ġcry",
        "ing"
      ],
      [
        "Ġsol",
        "ve"
      ],
      [
        "re",
        "es"
      ],
      [
        "Ġb",
        "reat"
      ],
      [
        "as",
        "ed"
      ],
      [
        "pp",
        "ing"
      ],
      [
        "Ġal",
        "so"
      ],
      [
        "Ġdec",
        "ision"
      ],
      [
        "Ġcomplet",
        "ely"
      ],
      [
        "Ġanim",
        "als"
      ],
      [
        "f",
        "ather"
      ],
      [
        "g",
        "ar"
      ],
      [
        "Ġ",
        "umb"
      ],
      [
        "Ġm",
        "ur"
      ],
      [
        "Ġb",
        "orrow"
      ],
      [
        "Ġf",
        "ig"
      ],
      [
        "ver",
        "s"
      ],
      [
        "Ġne",
        "cess"
      ],
      [
        "Ġal",
        "ive"
      ],
      [
        "il",
        "ing"
      ],
      [
        "Ġqu",
        "iet"
      ],
      [
        "Ġtele",
        "phone"
      ],
      [
        "Ġdisc",
        "uss"
      ],
      [
        "Ġumb",
        "rell"
      ],
      [
        "l",
        "ing"
      ],
      [
        "re",
        "en"
      ],
      [
        "Ġm",
        "ag"
      ],
      [
        "Ġhe",
        "av"
      ],
      [
        "Ġp",
        "ur"
      ],
      [
        "Ġr",
        "id"
      ],
      [
        "Ġknow",
        "n"
      ],
      [
        "am",
        "es"
      ],
      [
        "Ġdri",
        "ving"
      ],
      [
        "Ġlangu",
        "ages"
      ],
      [
        "v",
        "ision"
      ],
      [
        "w",
        "ay"
      ],
      [
        "Ġs",
        "itting"
      ],
      [
        "Ġtr",
        "af"
      ],
      [
        "Ġcl",
        "osed"
      ],
      [
        "Ġpre",
        "p"
      ],
      [
        "Ġpr",
        "op"
      ],
      [
        "Ġdes",
        "k"
      ],
      [
        "Ġfore",
        "ign"
      ],
      [
        "Ġeve",
        "ning"
      ],
      [
        "c",
        "y"
      ],
      [
        "p",
        "s"
      ],
      [
        "t",
        "on"
      ],
      [
        "Ġf",
        "ine"
      ],
      [
        "Ġwas",
        "h"
      ],
      [
        "Ġminut",
        "e"
      ],
      [
        "ky",
        "o"
      ],
      [
        "Ġtraf",
        "fic"
      ],
      [
        "u",
        "it"
      ],
      [
        "Ġt",
        "ie"
      ],
      [
        "Ġi",
        "mm"
      ],
      [
        "Ġto",
        "kyo"
      ],
      [
        "Ġc",
        "ross"
      ],
      [
        "Ġe",
        "ight"
      ],
      [
        "Ġkn",
        "ife"
      ],
      [
        "Ġsc",
        "ared"
      ],
      [
        "Ġdrink",
        "ing"
      ],
      [
        "Ġwin",
        "ter"
      ],
      [
        "Ġmedic",
        "ine"
      ],
      [
        "Ġrad",
        "io"
      ],
      [
        "c",
        "o"
      ],
      [
        "Ġ",
        "z"
      ],
      [
        "Ġt",
        "yp"
      ],
      [
        "Ġs",
        "y"
      ],
      [
        "Ġl",
        "ying"
      ],
      [
        "Ġh",
        "op"
      ],
      [
        "Ġo",
        "pp"
      ],
      [
        "Ġde",
        "ep"
      ],
      [
        "Ġen",
        "em"
      ],
      [
        "Ġbel",
        "ong"
      ],
      [
        "Ġpo",
        "int"
      ],
      [
        "Ġmiss",
        "ed"
      ],
      [
        "Ġtele",
        "vision"
      ],
      [
        "Ġconcer",
        "t"
      ],
      [
        "d",
        "ing"
      ],
      [
        "Ġp",
        "ub"
      ],
      [
        "ent",
        "y"
      ],
      [
        "um",
        "ent"
      ],
      [
        "Ġmess",
        "age"
      ],
      [
        "Ġumbrell",
        "a"
      ],
      [
        "i",
        "v"
      ],
      [
        "n",
        "ed"
      ],
      [
        "Ġb",
        "ri"
      ],
      [
        "Ġf",
        "ishing"
      ],
      [
        "Ġfe",
        "ed"
      ],
      [
        "Ġch",
        "in"
      ],
      [
        "Ġpre",
        "s"
      ],
      [
        "Ġexp",
        "l"
      ],
      [
        "b",
        "it"
      ],
      [
        "r",
        "ing"
      ],
      [
        "Ġt",
        "aken"
      ],
      [
        "Ġp",
        "ar"
      ],
      [
        "as",
        "k"
      ],
      [
        "ad",
        "e"
      ],
      [
        "itt",
        "ed"
      ],
      [
        "Ġrem",
        "ain"
      ],
      [
        "Ġyoung",
        "er"
      ],
      [
        "Ġcha",
        "ir"
      ],
      [
        "Ġnews",
        "p"
      ],
      [
        "Ġabs",
        "olut"
      ],
      [
        "Ġvac",
        "ation"
      ],
      [
        "r",
        "ic"
      ],
      [
        "Ġfor",
        "ward"
      ],
      [
        "ri",
        "es"
      ],
      [
        "ce",
        "ed"
      ],
      [
        "Ġop",
        "in"
      ],
      [
        "Ġlik",
        "ed"
      ],
      [
        "Ġarri",
        "ve"
      ],
      [
        "Ġwrit",
        "ing"
      ],
      [
        "Ġlawy",
        "er"
      ],
      [
        "d",
        "le"
      ],
      [
        "Ġb",
        "all"
      ],
      [
        "Ġc",
        "ream"
      ],
      [
        "Ġl",
        "ake"
      ],
      [
        "et",
        "h"
      ],
      [
        "Ġr",
        "is"
      ],
      [
        "Ġso",
        "c"
      ],
      [
        "Ġc",
        "row"
      ],
      [
        "at",
        "ure"
      ],
      [
        "Ġsee",
        "ing"
      ],
      [
        "Ġdr",
        "ank"
      ],
      [
        "Ġke",
        "ys"
      ],
      [
        "Ġhappen",
        "s"
      ],
      [
        "Ġsing",
        "ing"
      ],
      [
        "Ġhon",
        "est"
      ],
      [
        "Ġsoc",
        "cer"
      ],
      [
        "Ġi",
        "d"
      ],
      [
        "Ġs",
        "us"
      ],
      [
        "Ġp",
        "ast"
      ],
      [
        "Ġsu",
        "gg"
      ],
      [
        "Ġsm",
        "art"
      ],
      [
        "Ġ1",
        "9"
      ],
      [
        "Ġexc",
        "use"
      ],
      [
        "Ġadd",
        "ress"
      ],
      [
        "Ġinf",
        "orm"
      ],
      [
        "Ġsus",
        "p"
      ],
      [
        "l",
        "oy"
      ],
      [
        "Ġf",
        "ill"
      ],
      [
        "Ġj",
        "ack"
      ],
      [
        "Ġdri",
        "ver"
      ],
      [
        "Ġgirl",
        "s"
      ],
      [
        "o",
        "ssible"
      ],
      [
        "Ġk",
        "itc"
      ],
      [
        "Ġbo",
        "ss"
      ],
      [
        "Ġimp",
        "ossible"
      ],
      [
        "Ġgrand",
        "father"
      ],
      [
        "air",
        "s"
      ],
      [
        "Ġkitc",
        "hen"
      ],
      [
        "g",
        "ing"
      ],
      [
        "l",
        "and"
      ],
      [
        "Ġd",
        "an"
      ],
      [
        "Ġy",
        "ell"
      ],
      [
        "Ġf",
        "ool"
      ],
      [
        "Ġin",
        "side"
      ],
      [
        "Ġwar",
        "m"
      ],
      [
        "Ġexpect",
        "ed"
      ],
      [
        "f",
        "f"
      ],
      [
        "Ġs",
        "ense"
      ],
      [
        "Ġth",
        "ough"
      ],
      [
        "at",
        "o"
      ],
      [
        "Ġj",
        "ump"
      ],
      [
        "Ġwor",
        "se"
      ],
      [
        "um",
        "e"
      ],
      [
        "Ġph",
        "ot"
      ],
      [
        "c",
        "il"
      ],
      [
        "d",
        "red"
      ],
      [
        "Ġi",
        "r"
      ],
      [
        "Ġd",
        "ro"
      ],
      [
        "Ġf",
        "ut"
      ],
      [
        "ow",
        "er"
      ],
      [
        "Ġv",
        "i"
      ],
      [
        "Ġco",
        "at"
      ],
      [
        "Ġwr",
        "itten"
      ],
      [
        "Ġpr",
        "ot"
      ],
      [
        "Ġbl",
        "ood"
      ],
      [
        "Ġhun",
        "dred"
      ],
      [
        "Ġsec",
        "ond"
      ],
      [
        "Ġpicture",
        "s"
      ],
      [
        "Ġsound",
        "s"
      ],
      [
        "Ġc",
        "a"
      ],
      [
        "Ġc",
        "ur"
      ],
      [
        "Ġf",
        "at"
      ],
      [
        "Ġg",
        "if"
      ],
      [
        "Ġde",
        "f"
      ],
      [
        "te",
        "en"
      ],
      [
        "Ġcont",
        "in"
      ],
      [
        "Ġprom",
        "ised"
      ],
      [
        "Ġdoub",
        "t"
      ],
      [
        "Ġs",
        "and"
      ],
      [
        "Ġmonth",
        "s"
      ],
      [
        "Ġap",
        "art"
      ],
      [
        "fort",
        "able"
      ],
      [
        "Ġp",
        "ot"
      ],
      [
        "Ġr",
        "ing"
      ],
      [
        "Ġsu",
        "gar"
      ],
      [
        "Ġoff",
        "er"
      ],
      [
        "Ġtw",
        "ice"
      ],
      [
        "Ġatt",
        "ack"
      ],
      [
        "Ġlisten",
        "ing"
      ],
      [
        "Ġrep",
        "ort"
      ],
      [
        "Ġspo",
        "ke"
      ],
      [
        "Ġterri",
        "ble"
      ],
      [
        "Ġopin",
        "ion"
      ],
      [
        "Ġw",
        "ake"
      ],
      [
        "Ġb",
        "read"
      ],
      [
        "it",
        "ies"
      ],
      [
        "Ġbe",
        "ha"
      ],
      [
        "Ġwas",
        "te"
      ],
      [
        "Ġpl",
        "ays"
      ],
      [
        "Ġun",
        "ited"
      ],
      [
        "Ġch",
        "ur"
      ],
      [
        "Ġar",
        "rest"
      ],
      [
        "Ġfa",
        "ult"
      ],
      [
        "Ġgu",
        "y"
      ],
      [
        "Ġplan",
        "s"
      ],
      [
        "Ġpen",
        "cil"
      ],
      [
        "Ġpie",
        "ce"
      ],
      [
        "Ġfut",
        "ure"
      ],
      [
        "f",
        "ied"
      ],
      [
        "i",
        "al"
      ],
      [
        "o",
        "id"
      ],
      [
        "r",
        "up"
      ],
      [
        "ic",
        "es"
      ],
      [
        "Ġsp",
        "ort"
      ],
      [
        "Ġacc",
        "ount"
      ],
      [
        "Ġpass",
        "ed"
      ],
      [
        "Ġair",
        "port"
      ],
      [
        "Ġtall",
        "er"
      ],
      [
        "Ġim",
        "ag"
      ],
      [
        "Ġnecess",
        "ary"
      ],
      [
        "Ġw",
        "ood"
      ],
      [
        "Ġm",
        "ach"
      ],
      [
        "Ġp",
        "un"
      ],
      [
        "Ġst",
        "ates"
      ],
      [
        "Ġsho",
        "pping"
      ],
      [
        "Ġbir",
        "d"
      ],
      [
        "Ġsupp",
        "osed"
      ],
      [
        "Ġsuc",
        "ceed"
      ],
      [
        "Ġhor",
        "se"
      ],
      [
        "Ġchur",
        "ch"
      ],
      [
        "f",
        "riend"
      ],
      [
        "k",
        "es"
      ],
      [
        "Ġs",
        "le"
      ],
      [
        "Ġm",
        "outh"
      ],
      [
        "Ġf",
        "if"
      ],
      [
        "Ġp",
        "ost"
      ],
      [
        "Ġre",
        "n"
      ],
      [
        "Ġsh",
        "ot"
      ],
      [
        "Ġsa",
        "ve"
      ],
      [
        "ation",
        "s"
      ],
      [
        "in",
        "ted"
      ],
      [
        "Ġcar",
        "ry"
      ],
      [
        "Ġv",
        "oice"
      ],
      [
        "Ġdr",
        "aw"
      ],
      [
        "Ġhappen",
        "ing"
      ],
      [
        "Ġfa",
        "iled"
      ],
      [
        "Ġhard",
        "ly"
      ],
      [
        "Ġwalk",
        "ing"
      ],
      [
        "Ġey",
        "e"
      ],
      [
        "Ġsurpr",
        "ise"
      ],
      [
        "Ġresp",
        "ect"
      ],
      [
        "Ġcoll",
        "e"
      ],
      [
        "Ġhid",
        "ing"
      ],
      [
        "Ġtick",
        "et"
      ],
      [
        "Ġve",
        "get"
      ],
      [
        "z",
        "e"
      ],
      [
        "Ġi",
        "gn"
      ],
      [
        "Ġm",
        "is"
      ],
      [
        "ar",
        "ning"
      ],
      [
        "Ġeat",
        "s"
      ],
      [
        "Ġforg",
        "ive"
      ],
      [
        "Ġact",
        "ually"
      ],
      [
        "Ġslow",
        "ly"
      ],
      [
        "Ġdisapp",
        "o"
      ],
      [
        "Ġsudden",
        "ly"
      ],
      [
        "Ġfig",
        "ure"
      ],
      [
        "Ġle",
        "arning"
      ],
      [
        "Ġfr",
        "uit"
      ],
      [
        "ie",
        "f"
      ],
      [
        "Ġtell",
        "ing"
      ],
      [
        "Ġapp",
        "les"
      ],
      [
        "Ġboy",
        "friend"
      ],
      [
        "Ġshow",
        "er"
      ],
      [
        "Ġdifferen",
        "ce"
      ],
      [
        "Ġcons",
        "ider"
      ],
      [
        "Ġb",
        "ill"
      ],
      [
        "Ġc",
        "oup"
      ],
      [
        "Ġl",
        "end"
      ],
      [
        "Ġgo",
        "d"
      ],
      [
        "ist",
        "s"
      ],
      [
        "Ġreg",
        "ret"
      ],
      [
        "Ġemp",
        "ty"
      ],
      [
        "Ġaccom",
        "pl"
      ],
      [
        "Ġabsolut",
        "ely"
      ],
      [
        "g",
        "hed"
      ],
      [
        "Ġe",
        "v"
      ],
      [
        "ut",
        "e"
      ],
      [
        "Ġab",
        "ility"
      ],
      [
        "Ġde",
        "l"
      ],
      [
        "Ġde",
        "m"
      ],
      [
        "Ġcl",
        "a"
      ],
      [
        "c",
        "c"
      ],
      [
        "c",
        "ome"
      ],
      [
        "Ġs",
        "oup"
      ],
      [
        "Ġg",
        "reen"
      ],
      [
        "Ġbe",
        "at"
      ],
      [
        "Ġme",
        "ans"
      ],
      [
        "oo",
        "f"
      ],
      [
        "Ġsome",
        "where"
      ],
      [
        "Ġmo",
        "ved"
      ],
      [
        "Ġfun",
        "ny"
      ],
      [
        "Ġsk",
        "y"
      ],
      [
        "Ġaband",
        "oned"
      ],
      [
        "t",
        "ain"
      ],
      [
        "er",
        "m"
      ],
      [
        "Ġst",
        "ar"
      ],
      [
        "Ġr",
        "ide"
      ],
      [
        "Ġen",
        "g"
      ],
      [
        "Ġac",
        "ross"
      ],
      [
        "Ġgive",
        "n"
      ],
      [
        "Ġeas",
        "ily"
      ],
      [
        "Ġsha",
        "re"
      ],
      [
        "Ġcook",
        "ing"
      ],
      [
        "Ġwall",
        "et"
      ],
      [
        "Ġcol",
        "or"
      ],
      [
        "c",
        "ri"
      ],
      [
        "Ġ",
        "5"
      ],
      [
        "Ġt",
        "aught"
      ],
      [
        "in",
        "ation"
      ],
      [
        "or",
        "ing"
      ],
      [
        "Ġth",
        "ous"
      ],
      [
        "Ġe",
        "ur"
      ],
      [
        "Ġre",
        "qu"
      ],
      [
        "Ġab",
        "sent"
      ],
      [
        "Ġsu",
        "it"
      ],
      [
        "Ġv",
        "ol"
      ],
      [
        "Ġapp",
        "ro"
      ],
      [
        "Ġcare",
        "fully"
      ],
      [
        "Ġsal",
        "t"
      ],
      [
        "Ġexper",
        "ience"
      ],
      [
[...]
