{
  "version": "1.0",
  "truncation": null,
  "padding": {
    "strategy": "BatchLongest",
    "direction": "Right",
    "pad_to_multiple_of": null,
    "pad_id": 2,
    "pad_type_id": 0,
    "pad_token": "[pad]"
  },
  "added_tokens": [
    {
      "id": 0,
      "content": "[start]",
      "single_word": false,
      "lstrip": false,
      "rstrip": false,
      "normalized": false,
      "special": true
    },
    {
      "id": 1,
      "content": "[end]",
      "single_word": false,
      "lstrip": false,
      "rstrip": false,
      "normalized": false,
      "special": true
    },
    {
      "id": 2,
      "content": "[pad]",
      "single_word": false,
      "lstrip": false,
      "rstrip": false,
      "normalized": false,
      "special": true
    }
  ],
  "normalizer": null,
  "pre_tokenizer": {
    "type": "ByteLevel",
    "add_prefix_space": true,
    "trim_offsets": true,
    "use_regex": true
  },
  "post_processor": null,
  "decoder": {
    "type": "ByteLevel",
    "add_prefix_space": true,
    "trim_offsets": true,
    "use_regex": true
  },
  "model": {
    "type": "BPE",
    "dropout": null,
    "unk_token": null,
    "continuing_subword_prefix": null,
    "end_of_word_suffix": null,
    "fuse_unk": false,
    "byte_fallback": false,
    "ignore_merges": false,
    "vocab": {
      "[start]": 0,
      "[end]": 1,
      "[pad]": 2,
      "!": 3,
      "\"": 4,
      "$": 5,
      "%": 6,
      "&": 7,
      "'": 8,
      "(": 9,
      ")": 10,
      "+": 11,
      ",": 12,
      "-": 13,
      ".": 14,
      "/": 15,
      "0": 16,
      "1": 17,
      "2": 18,
      "3": 19,
      "4": 20,
      "5": 21,
      "6": 22,
      "7": 23,
      "8": 24,
      "9": 25,
      ":": 26,
      ";": 27,
      "?": 28,
      "a": 29,
      "b": 30,
      "c": 31,
      "d": 32,
      "e": 33,
      "f": 34,
      "g": 35,
      "h": 36,
      "i": 37,
      "j": 38,
      "k": 39,
      "l": 40,
      "m": 41,
      "n": 42,
      "o": 43,
      "p": 44,
      "q": 45,
      "r": 46,
      "s": 47,
      "t": 48,
      "u": 49,
      "v": 50,
      "w": 51,
      "x": 52,
      "y": 53,
      "z": 54,
      "¡": 55,
      "©": 56,
      "ª": 57,
      "«": 58,
      "¬": 59,
      "°": 60,
      "±": 61,
      "³": 62,
      "º": 63,
      "»": 64,
      "¼": 65,
      "¿": 66,
      "Â": 67,
      "Ã": 68,
      "Ä": 69,
      "Ì": 70,
      "â": 71,
      "Ġ": 72,
      "Ģ": 73,
      "ģ": 74,
      "Ĥ": 75,
      "Ī": 76,
      "ĭ": 77,
      "į": 78,
      "Ķ": 79,
      "Ń": 80,
      "Ġe": 81,
      "Ġt": 82,
      "Ġa": 83,
      "Ġd": 84,
      "Ġl": 85,
      "er": 86,
      "Ġp": 87,
      "Ġc": 88,
      "Ġm": 89,
      "Ġes": 90,
      "ar": 91,
      "en": 92,
      "Ġs": 93,
      "qu": 94,
      "os": 95,
      "Ġn": 96,
      "Ġde": 97,
      "Ġqu": 98,
      "om": 99,
      "as": 100,
      "es": 101,
      "do": 102,
      "an": 103,
      "Ġh": 104,
      "Ã©": 105,
      "un": 106,
      "ÃŃ": 107,
      "on": 108,
      "or": 109,
      "Ġest": 110,
      "Ġque": 111,
      "Ã³": 112,
      "Ġno": 113,
      "Ġtom": 114,
      "Ã¡": 115,
      "Ġel": 116,
      "Ġla": 117,
      "Ġv": 118,
      "ĠÂ": 119,
      "Ġun": 120,
      "Ġen": 121,
      "re": 122,
      "te": 123,
      "ĠÂ¿": 124,
      "ab": 125,
      "ci": 126,
      "ta": 127,
      "in": 128,
      "da": 129,
      "Ġf": 130,
      "ÃŃa": 131,
      "ue": 132,
      "ien": 133,
      "to": 134,
      "ra": 135,
      "Ġse": 136,
      "Ġme": 137,
      "Ġcon": 138,
      "la": 139,
      "Ġb": 140,
      "is": 141,
      "al": 142,
      "ro": 143,
      "Ġal": 144,
      "Ġha": 145,
      "us": 146,
      "le": 147,
      "Ġg": 148,
      "ier": 149,
      "ch": 150,
      "Ġy": 151,
      "de": 152,
      "Ġlo": 153,
      "di": 154,
      "mos": 155,
      "go": 156,
      "Ã¡s": 157,
      "Ã³n": 158,
      "Ġcom": 159,
      "Ġpar": 160,
      "Ġsu": 161,
      "ado": 162,
      "ol": 163,
      "ir": 164,
      "ĠÃ©": 165,
      "Ġmu": 166,
      "Ã±": 167,
      "Ġuna": 168,
      "mp": 169,
      "Ġpor": 170,
      "Ġle": 171,
      "ĠÃ©l": 172,
      "cu": 173,
      "ĠestÃ¡": 174,
      "Ġo": 175,
      "ic": 176,
      "aba": 177,
      "Ġmi": 178,
      "ente": 179,
      "oy": 180,
      "Ġte": 181,
      "res": 182,
      "lo": 183,
      "Ġto": 184,
      "Ġmar": 185,
      "Ġten": 186,
      "Ġlos": 187,
      "ando": 188,
      "Ġhab": 189,
      "Ġdi": 190,
      "Ġcu": 191,
      "Ġsi": 192,
      "ti": 193,
      "Ġre": 194,
      "ec": 195,
      "Ġper": 196,
      "Ġin": 197,
      "Ãº": 198,
      "ri": 199,
      "am": 200,
      "jo": 201,
      "Ġpara": 202,
      "gu": 203,
      "tr": 204,
      "tar": 205,
      "Ġmary": 206,
      "Ġpue": 207,
      "Ġhac": 208,
      "Ġquier": 209,
      "Ġella": 210,
      "Ġlas": 211,
      "dad": 212,
      "Ġtien": 213,
      "ĠmÃ¡s": 214,
      "ad": 215,
      "Ġtu": 216,
      "me": 217,
      "Ġvi": 218,
      "ca": 219,
      "Ġdes": 220,
      "Ġcas": 221,
      "ada": 222,
      "Ġesta": 223,
      "Ġpo": 224,
      "ĠquÃ©": 225,
      "Ġi": 226,
      "vi": 227,
      "mo": 228,
      "co": 229,
      "ran": 230,
      "ero": 231,
      "Ġj": 232,
      "ma": 233,
      "ciÃ³n": 234,
      "Ġyo": 235,
      "Ġgus": 236,
      "ez": 237,
      "cho": 238,
      "Ġhacer": 239,
      "Ġac": 240,
      "Ġtr": 241,
      "Ã©s": 242,
      "se": 243,
      "emp": 244,
      "Ġeso": 245,
      "Ġpro": 246,
      "Ġdeb": 247,
      "Ġver": 248,
      "Ġti": 249,
      "li": 250,
      "tra": 251,
      "ana": 252,
      "dos": 253,
      "Ġestoy": 254,
      "Ġpre": 255,
      "gun": 256,
      "Ġhe": 257,
      "Ġsab": 258,
      "ent": 259,
      "Ġmuy": 260,
      "mente": 261,
      "Ġaqu": 262,
      "Ġcomp": 263,
      "bre": 264,
      "Ġma": 265,
      "mi": 266,
      "Ġpas": 267,
      "vo": 268,
      "eces": 269,
      "Ġeste": 270,
      "Ġesp": 271,
      "era": 272,
      "Ġcre": 273,
      "Ġdel": 274,
      "Ġtiene": 275,
      "lar": 276,
      "tos": 277,
      "Ã¡n": 278,
      "quÃ©": 279,
      "Ġtengo": 280,
      "Ġquiero": 281,
      "Ġay": 282,
      "Ġlle": 283,
      "ĠaquÃŃ": 284,
      "Ġestaba": 285,
      "Ġfue": 286,
      "ora": 287,
      "tes": 288,
      "Ġr": 289,
      "Ġan": 290,
      "Ġhi": 291,
      "Ġpe": 292,
      "ÃŃas": 293,
      "Ġser": 294,
      "Ġex": 295,
      "ib": 296,
      "Ġsol": 297,
      "Ġap": 298,
      "dar": 299,
      "Ã©n": 300,
      "Ġtan": 301,
      "Ġtraba": 302,
      "Ġfu": 303,
      "los": 304,
      "Ġcasa": 305,
      "Ġir": 306,
      "ver": 307,
      "ten": 308,
      "Ġca": 309,
      "Ġnos": 310,
      "Ġfa": 311,
      "che": 312,
      "Ġva": 313,
      "Ġson": 314,
      "Ġco": 315,
      "por": 316,
      "tas": 317,
      "des": 318,
      "ues": 319,
      "tu": 320,
      "gar": 321,
      "ido": 322,
      "Ġcomo": 323,
      "Ġesc": 324,
      "Ġni": 325,
      "ve": 326,
      "Ġesto": 327,
      "erÃŃa": 328,
      "Ġtodo": 329,
      "io": 330,
      "vor": 331,
      "ga": 332,
      "Ġab": 333,
      "pa": 334,
      "emos": 335,
      "Ġhay": 336,
      "Ġneces": 337,
      "Ã±o": 338,
      "Ġfavor": 339,
      "Ġmis": 340,
      "Ġah": 341,
      "Ġalgo": 342,
      "ens": 343,
      "Ġsal": 344,
      "Ġna": 345,
      "empo": 346,
      "Ġpr": 347,
      "Ġres": 348,
      "Ġgusta": 349,
      "Ġas": 350,
      "iÃ©n": 351,
      "Ġtiempo": 352,
      "Ġso": 353,
      "Ġbu": 354,
      "ita": 355,
      "Ġcam": 356,
      "Ġus": 357,
      "mas": 358,
      "Ġpa": 359,
      "tÃ³": 360,
      "erm": 361,
      "Ġestu": 362,
      "Ã±os": 363,
      "Ġtodos": 364,
      "Ġman": 365,
      "iendo": 366,
      "Ġnada": 367,
      "dr": 368,
      "Ġayu": 369,
      "der": 370,
      "Ġpuedo": 371,
      "Ġbuen": 372,
      "Ġbien": 373,
      "tro": 374,
      "Ġdej": 375,
      "tan": 376,
      "Ġera": 377,
      "Ġdeci": 378,
      "cion": 379,
      "Ãºn": 380,
      "Ġpu": 381,
      "Ġcar": 382,
      "ica": 383,
      "cia": 384,
      "Ġmucho": 385,
      "Ġenc": 386,
      "Ġcan": 387,
      "que": 388,
      "Ġvez": 389,
      "Ġven": 390,
      "zo": 391,
      "Ġlib": 392,
      "Ġcuando": 393,
      "ĠsÃ©": 394,
      "ico": 395,
      "iÃ³": 396,
      "ce": 397,
      "las": 398,
      "Ġpuede": 399,
      "Ã³mo": 400,
      "Ġestar": 401,
      "ter": 402,
      "Ġcompr": 403,
      "Ġpens": 404,
      "ĠÂ¡": 405,
      "Ġtra": 406,
      "Ã³nde": 407,
      "ici": 408,
      "adre": 409,
      "Ġcreo": 410,
      "das": 411,
      "unca": 412,
      "Ġch": 413,
      "ĠmaÃ±": 414,
      "Ġdu": 415,
      "Ġsolo": 416,
      "Ġlla": 417,
      "Ġnunca": 418,
      "Ġcor": 419,
      "Ġya": 420,
      "Ġprob": 421,
      "no": 422,
      "Ġdis": 423,
      "Ġhas": 424,
      "Ġtar": 425,
      "Ġpi": 426,
      "je": 427,
      "Ġar": 428,
      "Ġimp": 429,
      "iÃ³n": 430,
      "Ġsus": 431,
      "Ġmuch": 432,
      "ĠmaÃ±ana": 433,
      "Ġpregun": 434,
      "Ġnecesi": 435,
      "lan": 436,
      "ja": 437,
      "iera": 438,
      "Ġellos": 439,
      "Ġtrabajo": 440,
      "Ġahora": 441,
      "Ġdin": 442,
      "ano": 443,
      "Ġparec": 444,
      "tros": 445,
      "tado": 446,
      "Ġdijo": 447,
      "Ġmej": 448,
      "Ġcos": 449,
      "Ġhablar": 450,
      "diÃ³": 451,
      "Ġdinero": 452,
      "tor": 453,
      "Ġuste": 454,
      "va": 455,
      "Ġsoy": 456,
      "par": 457,
      "cuÃ¡n": 458,
      "za": 459,
      "du": 460,
      "iste": 461,
      "el": 462,
      "Ġnue": 463,
      "Ġmejor": 464,
      "Ġdos": 465,
      "die": 466,
      "Ġesper": 467,
      "Ġdesp": 468,
      "Ġpero": 469,
      "Ġnadie": 470,
      "ida": 471,
      "il": 472,
      "mar": 473,
      "po": 474,
      "Ġfran": 475,
      "Ġve": 476,
      "ĠestÃ¡n": 477,
      "Ġcono": 478,
      "Ġtoda": 479,
      "ĠmÃŃ": 480,
      "Ġese": 481,
      "Ġsegu": 482,
      "ia": 483,
      "empre": 484,
      "ombre": 485,
      "Ġami": 486,
      "ton": 487,
      "ros": 488,
      "Ġsiempre": 489,
      "Ġsin": 490,
      "Ġhaber": 491,
      "Ġnues": 492,
      "Ġmen": 493,
      "Ġvis": 494,
      "Ġfranc": 495,
      "ĠhabÃŃa": 496,
      "Ġvol": 497,
      "Ġhoy": 498,
      "ven": 499,
      "Ġba": 500,
      "ren": 501,
      "Ġvoy": 502,
      "ĠtomÃ¡s": 503,
      "Ġpoco": 504,
      "Ġemp": 505,
      "Ġro": 506,
      "cil": 507,
      "iado": 508,
      "ĠdÃŃa": 509,
      "Ġhace": 510,
      "Ġau": 511,
      "son": 512,
      "ĠfrancÃ©s": 513,
      "Ġll": 514,
      "Ġestudi": 515,
      "Ġencon": 516,
      "Ġocu": 517,
      "Ġlibro": 518,
      "Ġcer": 519,
      "Ġalgun": 520,
      "Ġproble": 521,
      "ba": 522,
      "ĠtÃº": 523,
      "ĠestÃ¡s": 524,
      "iento": 525,
      "Ġcal": 526,
      "Ġquiere": 527,
      "Ġgran": 528,
      "Ġdecir": 529,
      "Ġju": 530,
      "jar": 531,
      "les": 532,
      "lÃŃ": 533,
      "ino": 534,
      "Ġesa": 535,
      "Ġdemas": 536,
      "Ġtienes": 537,
      "pue": 538,
      "Ġverdad": 539,
      "eb": 540,
      "Ġbos": 541,
      "Ġherm": 542,
      "ento": 543,
      "pon": 544,
      "Ġmal": 545,
      "Ġperson": 546,
      "fer": 547,
      "den": 548,
      "Ġtres": 549,
      "jos": 550,
      "trar": 551,
      "almente": 552,
      "ĠquerÃŃa": 553,
      "ĠtenÃŃa": 554,
      "mb": 555,
      "Ġtarde": 556,
      "Ġantes": 557,
      "Ġescri": 558,
      "able": 559,
      "guien": 560,
      "Ġhizo": 561,
      "fici": 562,
      "Ġdemasiado": 563,
      "gra": 564,
      "car": 565,
      "gas": 566,
      "Ġeres": 567,
      "Ġparece": 568,
      "Ġent": 569,
      "ados": 570,
      "Ġsabe": 571,
      "uel": 572,
      "idad": 573,
      "vÃŃa": 574,
      "ĠaÃ±os": 575,
      "tras": 576,
      "endo": 577,
      "Ġsobre": 578,
      "Ġusted": 579,
      "enta": 580,
      "Ġayudar": 581,
      "Ġra": 582,
      "est": 583,
      "oso": 584,
      "Ġboston": 585,
      "Ġdeber": 586,
      "ieron": 587,
      "na": 588,
      "Ġcomer": 589,
      "gos": 590,
      "qui": 591,
      "cÃ³mo": 592,
      "ĠmarÃŃa": 593,
      "Ġpadre": 594,
      "Ġlu": 595,
      "quier": 596,
      "jer": 597,
      "Ġci": 598,
      "ru": 599,
      "Ġnoche": 600,
      "ina": 601,
      "dÃ³nde": 602,
      "Ġgu": 603,
      "Ġpri": 604,
      "riÃ³": 605,
      "ĠdeberÃŃa": 606,
      "Ġpuedes": 607,
      "quiÃ©n": 608,
      "tido": 609,
      "orm": 610,
      "Ġbeb": 611,
      "ante": 612,
      "Ġdic": 613,
      "dido": 614,
      "ras": 615,
      "Ġhora": 616,
      "Ã©is": 617,
      "tarÃŃa": 618,
      "ÃŃo": 619,
      "erte": 620,
      "Ġimpor": 621,
      "Ġjo": 622,
      "dio": 623,
      "si": 624,
      "aron": 625,
      "Ġayer": 626,
      "pe": 627,
      "Ġhu": 628,
      "Ã±a": 629,
      "Ġpon": 630,
      "esta": 631,
      "cuer": 632,
      "Ġpodr": 633,
      "Ġnecesito": 634,
      "dÃŃ": 635,
      "Ġperro": 636,
      "Ġalguien": 637,
      "Ġinter": 638,
      "Ġsem": 639,
      "Ġtenemos": 640,
      "Ġnoso": 641,
      "tante": 642,
      "Ã¡l": 643,
      "gua": 644,
      "Ġhasta": 645,
      "Ġllev": 646,
      "ĠtodavÃŃa": 647,
      "Ġol": 648,
      "ena": 649,
      "Ġestado": 650,
      "Ġcoche": 651,
      "ĠasÃŃ": 652,
      "lia": 653,
      "Ġreg": 654,
      "Ġvida": 655,
      "Ġmes": 656,
      "Ġnuevo": 657,
      "Ġam": 658,
      "Ġpres": 659,
      "ono": 660,
      "so": 661,
      "Ġquer": 662,
      "Ġfi": 663,
      "amente": 664,
      "Ġplan": 665,
      "Ġhar": 666,
      "ces": 667,
      "Ġfe": 668,
      "ĠdÃŃas": 669,
      "Ġgente": 670,
      "anas": 671,
      "Ġhecho": 672,
      "Ġauto": 673,
      "Ġprof": 674,
      "Ġterm": 675,
      "Ġhacerlo": 676,
      "Ġor": 677,
      "erta": 678,
      "Ġhombre": 679,
      "ĠcÃ³mo": 680,
      "Ġexp": 681,
      "Ġfin": 682,
      "uela": 683,
      "Ġmismo": 684,
      "ac": 685,
      "gÃºn": 686,
      "Ġgra": 687,
      "eza": 688,
      "ĠpensÃ©": 689,
      "Ġproblema": 690,
      "Ġnosotros": 691,
      "Ġga": 692,
      "gÃ³": 693,
      "nos": 694,
      "Ġpol": 695,
      "Ġli": 696,
      "ciones": 697,
      "Ġmun": 698,
      "Ġapren": 699,
      "ame": 700,
      "Ġquieres": 701,
      "dÃ³": 702,
      "Ġing": 703,
      "ya": 704,
      "Ġpien": 705,
      "ĠsabÃŃa": 706,
      "Ġestamos": 707,
      "omb": 708,
      "xi": 709,
      "ĠquiÃ©n": 710,
      "ĠgustarÃŃa": 711,
      "liz": 712,
      "lti": 713,
      "Ġdif": 714,
      "Ġcab": 715,
      "Ġpes": 716,
      "cio": 717,
      "Ġbo": 718,
      "Ġcomprar": 719,
      "ĠoÃŃ": 720,
      "Ġescu": 721,
      "vis": 722,
      "ĠÃº": 723,
      "Ġpod": 724,
      "Ġbus": 725,
      "Ġtermin": 726,
      "ciendo": 727,
      "cha": 728,
      "Ġdar": 729,
      "Ġob": 730,
      "Ġmo": 731,
      "ÃŃs": 732,
      "Ġquedar": 733,
      "ĠallÃŃ": 734,
      "Ġescrib": 735,
      "Ġvas": 736,
      "Ġhabita": 737,
      "Ġotra": 738,
      "Ġmundo": 739,
      "Ġsemana": 740,
      "Ġprim": 741,
      "aban": 742,
      "encia": 743,
      "ĠdeberÃŃas": 744,
      "Ġne": 745,
      "tamente": 746,
      "Ġolvi": 747,
      "Ġmadre": 748,
      "Ġcosas": 749,
      "onto": 750,
      "Ġja": 751,
      "rr": 752,
      "Ġuno": 753,
      "tien": 754,
      "Ġide": 755,
      "ĠhabitaciÃ³n": 756,
      "cias": 757,
      "Ãºs": 758,
      "tir": 759,
      "Ġsen": 760,
      "Ã¡p": 761,
      "Ġsaber": 762,
      "Ġnin": 763,
      "ario": 764,
      "Ġpuerta": 765,
      "ores": 766,
      "Ġmin": 767,
      "dia": 768,
      "rante": 769,
      "ĠdÃ³nde": 770,
      "Ġmon": 771,
      "Ġconf": 772,
      "lig": 773,
      "Ġtus": 774,
      "ay": 775,
      "Ġseguro": 776,
      "ĠniÃ±os": 777,
      "ciÃ³": 778,
      "bol": 779,
      "van": 780,
      "ara": 781,
      "Ġescuela": 782,
      "Ġcamb": 783,
      "cuÃ¡l": 784,
      "Ġcasi": 785,
      "ista": 786,
      "Ġayuda": 787,
      "Ġamigos": 788,
      "Ġsue": 789,
      "ÃŃcil": 790,
      "Ġfuera": 791,
      "ĠdifÃŃcil": 792,
      "uÃ©s": 793,
      "vir": 794,
      "ĠdespuÃ©s": 795,
      "migo": 796,
      "lla": 797,
      "tÃ©": 798,
      "Ġequi": 799,
      "tiÃ³": 800,
      "rado": 801,
      "ul": 802,
      "Ġvuel": 803,
      "Ġpasado": 804,
      "Ġhici": 805,
      "Ġclas": 806,
      "ĠÃºlti": 807,
      "ocu": 808,
      "Ġ\"": 809,
      "Ġvolver": 810,
      "Ġfr": 811,
      "Ġpronto": 812,
      "Ġprofes": 813,
      "Ġagua": 814,
      "ÃŃan": 815,
      "Ġos": 816,
      "ĠpodrÃŃa": 817,
      "cuerdo": 818,
      "gado": 819,
      "Ġmenos": 820,
      "Ġllegar": 821,
      "iz": 822,
      "udad": 823,
      "Ġrec": 824,
      "Ġles": 825,
      "dente": 826,
      "Ġhor": 827,
      "Ġciudad": 828,
      "Ġveces": 829,
      "Ġocup": 830,
      "cer": 831,
      "Ġotro": 832,
      "Ġfeliz": 833,
      "Ġpal": 834,
      "Ġmujer": 835,
      "cado": 836,
      "Ġmuchos": 837,
      "Ġidea": 838,
      "Ġcin": 839,
      "Ġhabla": 840,
      "Ġcondu": 841,
      "unto": 842,
      "ones": 843,
      "Ġbuena": 844,
      "Ġnecesita": 845,
      "Ġdejar": 846,
      "Ġencontrar": 847,
      "ĠahÃŃ": 848,
      "cre": 849,
      "Ã¡r": 850,
      "lÃ©s": 851,
      "Ġbas": 852,
      "tigo": 853,
      "uso": 854,
      "cuÃ¡ndo": 855,
      "Ġta": 856,
      "rec": 857,
      "im": 858,
      "Ġcomida": 859,
      "Ġdio": 860,
      "Ġcaf": 861,
      "ĠniÃ±o": 862,
      "ĠinglÃ©s": 863,
      "Ġescuch": 864,
      "Ġnuestro": 865,
      "pues": 866,
      "Ġsent": 867,
      "ĠsÃ³": 868,
      "Ġhabl": 869,
      "sa": 870,
      "Ġsa": 871,
      "osa": 872,
      "Ġmay": 873,
      "Ġlun": 874,
      "Ġpos": 875,
      "Ġconse": 876,
      "dir": 877,
      "Ġtodas": 878,
      "Ġconmigo": 879,
      "Ġempez": 880,
      "ĠfÃ¡": 881,
      "Ġfal": 882,
      "ĠrÃ¡p": 883,
      "gue": 884,
      "Ġrealmente": 885,
      "ĠaÃ±o": 886,
      "Ġmir": 887,
      "puedo": 888,
      "tin": 889,
      "Ġsea": 890,
      "Ġvino": 891,
      "demos": 892,
      "Ġvisto": 893,
      "Ġtele": 894,
      "Ġtanto": 895,
      "rar": 896,
      "amb": 897,
      "Ġdesde": 898,
      "zÃ³n": 899,
      "Ġnombre": 900,
      "eron": 901,
      "ĠcafÃ©": 902,
      "Ġda": 903,
      "Ġdiscu": 904,
      "Ġpasa": 905,
      "Ġtomar": 906,
      "Ġcontigo": 907,
      "Ġinten": 908,
      "Ġbueno": 909,
      "Ġlevan": 910,
      "Ġpersonas": 911,
      "ĠsÃ³lo": 912,
      "iar": 913,
      "Ġher": 914,
      "ales": 915,
      "Ġtener": 916,
      "Ġacer": 917,
      "Ġfui": 918,
      "Ġamigo": 919,
      "iente": 920,
      "Ġinteres": 921,
      "Ġgan": 922,
      "Ġtemp": 923,
      "Ġleer": 924,
      "Ġcada": 925,
      "itar": 926,
      "ami": 927,
      "Ġespero": 928,
      "Ġcons": 929,
      "Ġhaciendo": 930,
      "Ġhermano": 931,
      "Ġpersona": 932,
      "Ġerr": 933,
      "Ġmucha": 934,
      "Ġfiesta": 935,
      "ible": 936,
      "Ġalguna": 937,
      "Ġint": 938,
      "Ġentre": 939,
      "Ġhub": 940,
      "sab": 941,
      "Ġcier": 942,
      "ĠÃºn": 943,
      "Ġaus": 944,
      "Ġsiento": 945,
      "Ġsufici": 946,
      "Ġcans": 947,
      "erto": 948,
      "Ġllam": 949,
      "zar": 950,
      "Ġquis": 951,
      "Ġfami": 952,
      "lic": 953,
      "ĠaÃºn": 954,
      "Ġmie": 955,
      "Ġpreocu": 956,
      "Ġtrabaj": 957,
      "hn": 958,
      "Ġcuenta": 959,
      "Ġacci": 960,
      "Ġjohn": 961,
      "Ġtren": 962,
      "lÃ©": 963,
      "mor": 964,
      "Ġsor": 965,
      "Ġpasar": 966,
      "Ġmayor": 967,
      "ne": 968,
      "Ġtamb": 969,
      "Ġcul": 970,
      "Ġdurante": 971,
      "ĠfÃ¡cil": 972,
      "Ġsuficiente": 973,
      "ĠpodÃŃa": 974,
      "aste": 975,
      "Ġdice": 976,
      "Ġdorm": 977,
      "Ġcome": 978,
      "cuÃ¡nto": 979,
      "Ġsalir": 980,
      "ĠtambiÃ©n": 981,
      "Ġjue": 982,
      "tura": 983,
      "Ġtienen": 984,
      "Ġmom": 985,
      "Ġcoci": 986,
      "Ġpolic": 987,
      "yÃ³": 988,
      "Ġho": 989,
      "Ġnuestra": 990,
      "estÃ¡s": 991,
      "Ġense": 992,
      "viÃ³": 993,
      "Ġlibros": 994,
      "Ġacab": 995,
      "Ġnad": 996,
      "ome": 997,
      "Ġenten": 998,
      "ĠcuÃ¡n": 999,
      "entes": 1000,
      "taba": 1001,
      "Ġcama": 1002,
      "Ġpad": 1003,
      "trÃ³": 1004,
      "Ġlugar": 1005,
      "Ġcarta": 1006,
      "pi": 1007,
      "Ġminu": 1008,
      "lado": 1009,
      "Ġpeque": 1010,
      "Ġmuchas": 1011,
      "cas": 1012,
      "antes": 1013,
      "Ġclase": 1014,
      "Ġprofesor": 1015,
      "Ġpalab": 1016,
      "Ġpla": 1017,
      "Ġfo": 1018,
      "Ġuni": 1019,
      "Ġgustan": 1020,
      "ĠpolicÃŃa": 1021,
      "Ġpadres": 1022,
      "ĠsÃŃ": 1023,
      "Ġenf": 1024,
      "Ġencan": 1025,
      "for": 1026,
      "zco": 1027,
      "Ã©r": 1028,
      "tic": 1029,
      "Ġvia": 1030,
      "Ġano": 1031,
      "Ġtrabajar": 1032,
      "ĠpasÃ³": 1033,
      "fono": 1034,
      "Ġenfer": 1035,
      "isa": 1036,
      "Ġlunes": 1037,
      "Ġcol": 1038,
      "Ġextra": 1039,
      "Ġgrande": 1040,
      "tun": 1041,
      "Ġustedes": 1042,
      "gan": 1043,
      "udo": 1044,
      "Ġjun": 1045,
      "tienes": 1046,
      "vos": 1047,
      "Ġval": 1048,
      "ĠtelÃ©": 1049,
      "Ġvamos": 1050,
      "Ġproblemas": 1051,
      "Ġmomento": 1052,
      "ste": 1053,
      "ves": 1054,
      "ĠdÃ©": 1055,
      "ice": 1056,
      "ĠrÃ¡pido": 1057,
      "Ġad": 1058,
      "Ġvie": 1059,
      "Ġhan": 1060,
      "Ġhis": 1061,
      "Ġporque": 1062,
      "Ġdo": 1063,
      "ĠtelÃ©fono": 1064,
      "puedes": 1065,
      "Ġqueda": 1066,
      "tando": 1067,
      "ur": 1068,
      "mple": 1069,
      "Ġdesc": 1070,
      "Ġdese": 1071,
      "quieres": 1072,
      "Ġale": 1073,
      "Ġsido": 1074,
      "Ġaccidente": 1075,
      "Ġop": 1076,
      "verdad": 1077,
      "Ġjugar": 1078,
      "Ġvivir": 1079,
      "Ġdon": 1080,
      "Ġrespon": 1081,
      "Ġvien": 1082,
      "Ġhistor": 1083,
      "Ġfor": 1084,
      "Ġagra": 1085,
      "Ġreci": 1086,
      "Ġcole": 1087,
      "Ġcerca": 1088,
      "Ġtuvo": 1089,
      "Ġsorp": 1090,
      "dÃ©": 1091,
      "Ġvent": 1092,
      "Ġintent": 1093,
      "Ġfamilia": 1094,
      "Ġhijo": 1095,
      "Ġjoven": 1096,
      "jas": 1097,
      "Ġcontra": 1098,
      "Ġcual": 1099,
      "Ġinc": 1100,
      "Ġtal": 1101,
      "Ġcapa": 1102,
      "gn": 1103,
      "Ġestaban": 1104,
      "Ġaquel": 1105,
      "Ġmiedo": 1106,
      "ecto": 1107,
      "Ġhermana": 1108,
      "Ġacerca": 1109,
      "tÃ³n": 1110,
      "entro": 1111,
      "ĠdejÃ³": 1112,
      "Ġhoras": 1113,
      "Ġbastante": 1114,
      "Ġru": 1115,
      "Ġ1": 1116,
      "Ġacuerdo": 1117,
      "cir": 1118,
      "Ġsos": 1119,
      "Ġcomen": 1120,
      "Ġpregunta": 1121,
      "Ġdormir": 1122,
      "Ġreun": 1123,
      "Ġpuso": 1124,
      "Ġhice": 1125,
      "Ġtelevis": 1126,
      "alo": 1127,
      "ĠpaÃŃs": 1128,
      "Ġcosa": 1129,
      "vas": 1130,
      "dico": 1131,
      "ger": 1132,
      "tal": 1133,
      "Ġdiez": 1134,
      "Ġanoche": 1135,
      "Ġban": 1136,
      "Ġvenir": 1137,
      "Ġesperar": 1138,
      "Ġves": 1139,
      "has": 1140,
      "tom": 1141,
      "Ġllo": 1142,
      "Ġvive": 1143,
      "Ġdebe": 1144,
      "per": 1145,
      "Ġder": 1146,
      "ĠmÃ©": 1147,
      "cido": 1148,
      "Ġgato": 1149,
      "rÃ³": 1150,
      "anos": 1151,
      "Ġconsi": 1152,
      "Ġbol": 1153,
      "tivo": 1154,
      "pÃ³n": 1155,
      "ĠmuriÃ³": 1156,
      "Ġdije": 1157,
      "Ġllor": 1158,
      "via": 1159,
      "Ġdebes": 1160,
      "Ġmano": 1161,
      "Ġpudo": 1162,
      "Ġgracias": 1163,
      "ĠmÃºs": 1164,
      "Ġmesa": 1165,
      "Ġaprender": 1166,
      "mento": 1167,
      "Ġestos": 1168,
      "Ġfun": 1169,
      "guna": 1170,
      "ĠpelÃŃ": 1171,
      "Ġlar": 1172,
      "Ġrom": 1173,
      "ĠpelÃŃcu": 1174,
      "zÃ³": 1175,
      "Ġins": 1176,
      "Ġtempran": 1177,
      "Ġhistoria": 1178,
      "Ġfl": 1179,
      "Ġnadar": 1180,
      "Ġapar": 1181,
      "Ġparte": 1182,
      "Ġpodemos": 1183,
      "ĠrazÃ³n": 1184,
      "Ġdonde": 1185,
      "cando": 1186,
      "Ġbar": 1187,
      "Ġdicho": 1188,
      "Ġtemprano": 1189,
      "Ġpelig": 1190,
      "Ġrob": 1191,
      "ito": 1192,
      "Ġmien": 1193,
      "Ġpelo": 1194,
      "ĠjapÃ³n": 1195,
      "ĠenseÃ±": 1196,
      "Ġprepar": 1197,
      "Ġllamar": 1198,
      "fe": 1199,
      "Ġacos": 1200,
      "tel": 1201,
      "leta": 1202,
      "Ġza": 1203,
      "Ġmedi": 1204,
      "Ġaustra": 1205,
      "jÃ³": 1206,
      "rÃŃa": 1207,
      "Ġconoc": 1208,
      "Ġzapa": 1209,
      "ctor": 1210,
      "Ġvo": 1211,
      "mbre": 1212,
      "Ġhaga": 1213,
      "Ġnueva": 1214,
      "Ġllevar": 1215,
      "Ġpin": 1216,
      "tran": 1217,
      "ble": 1218,
      "llos": 1219,
      "Ġalgunos": 1220,
      "Ġmenudo": 1221,
      "Ġocupado": 1222,
      "Ġaustralia": 1223,
      "ep": 1224,
      "ios": 1225,
      "Ġcamin": 1226,
      "alidad": 1227,
      "Ġequivo": 1228,
      "puesta": 1229,
      "pu": 1230,
      "Ġsom": 1231,
      "Ġpap": 1232,
      "Ġmor": 1233,
      "quiera": 1234,
      "Ġinvi": 1235,
      "Ġdol": 1236,
      "til": 1237,
      "Ġcreer": 1238,
      "Ġconozco": 1239,
      "var": 1240,
      "illo": 1241,
      "Ġter": 1242,
      "ĠpidiÃ³": 1243,
      "Ġcorr": 1244,
      "Ġimportante": 1245,
      "Ġmientras": 1246,
      "pita": 1247,
      "Ġech": 1248,
      "Ġhemos": 1249,
      "ĠserÃ¡": 1250,
      "ĠÃºltima": 1251,
      "ĠtelevisiÃ³n": 1252,
      "ientes": 1253,
      "ĠalgÃºn": 1254,
      "Ġcamino": 1255,
      "Ġsomos": 1256,
      "tico": 1257,
      "dor": 1258,
      "ĠestaciÃ³n": 1259,
      "Ġtipo": 1260,
      "Ġsola": 1261,
      "Ġcansado": 1262,
      "Ġalto": 1263,
      "ĠprÃ³": 1264,
      "Ġestudiar": 1265,
      "Ġlimp": 1266,
      "Ġhijos": 1267,
      "Ġalgunas": 1268,
      "Ġzapatos": 1269,
      "cos": 1270,
      "podr": 1271,
      "Ġponer": 1272,
      "Ġminutos": 1273,
      "ĠpÃ¡": 1274,
      "Ġlleva": 1275,
      "Ġimporta": 1276,
      "ĠmÃºsica": 1277,
      "ĠprÃ³xi": 1278,
      "Ġfuerte": 1279,
      "Ġcinco": 1280,
      "Ġviene": 1281,
      "Ġsorpren": 1282,
      "Ġofici": 1283,
      "Ġlis": 1284,
      "ĠfrÃŃo": 1285,
      "Ġlado": 1286,
      "Ġpueden": 1287,
      "Ġextran": 1288,
      "Ġvaya": 1289,
      "sabes": 1290,
      "Ġsabes": 1291,
      "Ġhue": 1292,
      "abas": 1293,
      "Ġpare": 1294,
      "Ġjuntos": 1295,
      "Ġrecib": 1296,
      "um": 1297,
      "ĠÃ¡r": 1298,
      "Ġestuvo": 1299,
      "ĠcomprÃ³": 1300,
      "if": 1301,
      "Ġaf": 1302,
      "Ġgol": 1303,
      "gio": 1304,
      "Ġley": 1305,
      "Ġprop": 1306,
      "aÃ±": 1307,
      "Ġunos": 1308,
      "taron": 1309,
      "Ġbici": 1310,
      "Ġperder": 1311,
      "ĠpreguntÃ³": 1312,
      "lidad": 1313,
      "Ġocur": 1314,
      "Ġventana": 1315,
      "tÃŃ": 1316,
      "Ġquien": 1317,
      "Ġpienso": 1318,
      "ador": 1319,
      "icos": 1320,
      "Ġvio": 1321,
      "ĠningÃºn": 1322,
      "00": 1323,
      "ea": 1324,
      "Ġdeja": 1325,
      "gro": 1326,
      "Ġpreocup": 1327,
      "cleta": 1328,
      "Ġatra": 1329,
      "Ã¡is": 1330,
      "Ġcuan": 1331,
      "ĠsolÃŃa": 1332,
      "Ġerror": 1333,
      "jero": 1334,
      "eso": 1335,
      "Ġtuve": 1336,
      "cÃ³": 1337,
      "ete": 1338,
      "hay": 1339,
      "tera": 1340,
      "Ġtocar": 1341,
      "Ġescribir": 1342,
      "ĠreuniÃ³n": 1343,
      "pital": 1344,
      "tru": 1345,
      "Ġprimera": 1346,
      "ayun": 1347,
      "ĠÃºnico": 1348,
      "ĠpelÃŃcula": 1349,
      "Ġsub": 1350,
      "Ġdiver": 1351,
      "Ġdesayun": 1352,
      "Ġpagar": 1353,
      "Ġhablando": 1354,
      "Ġcolegio": 1355,
      "ias": 1356,
      "Ġresul": 1357,
      "aciÃ³n": 1358,
      "miento": 1359,
      "Ġdifer": 1360,
      "adas": 1361,
      "ĠllegÃ³": 1362,
      "Ġvoso": 1363,
      "Ġcuar": 1364,
      "ĠoÃŃr": 1365,
      "ĠcÃ¡": 1366,
      "Ġmos": 1367,
      "Ġinv": 1368,
      "lares": 1369,
      "Ġescon": 1370,
      "Ġfoto": 1371,
      "ig": 1372,
      "lu": 1373,
      "Ġhomb": 1374,
      "Ġveo": 1375,
      "ĠÃ¡rbol": 1376,
      "Ġdom": 1377,
      "Ġojos": 1378,
      "tumb": 1379,
      "Ġsalu": 1380,
      "eta": 1381,
      "nar": 1382,
      "Ġpase": 1383,
      "Ġarre": 1384,
      "Ġcabeza": 1385,
      "trÃ©": 1386,
      "vidad": 1387,
      "Ġbuscando": 1388,
      "Ġcualquier": 1389,
      "lÃ³": 1390,
      "Ġedad": 1391,
      "Ġaz": 1392,
      "Ġcomple": 1393,
      "Ġestudiantes": 1394,
      "Ġdolor": 1395,
      "Ġbicicleta": 1396,
      "Ġleche": 1397,
      "Ġrep": 1398,
      "Ġmanz": 1399,
      "Ġpis": 1400,
      "Ġpunto": 1401,
      "loj": 1402,
      "Ġacep": 1403,
      "Ġesposa": 1404,
      "Ġesperando": 1405,
      "Ġconducir": 1406,
      "Ġreloj": 1407,
      "bamos": 1408,
      "ĠdÃ©j": 1409,
      "Ġoficina": 1410,
      "Ġtor": 1411,
      "Ġdor": 1412,
      "Ġpan": 1413,
      "Ġnie": 1414,
      "cep": 1415,
      "ĠcomprÃ©": 1416,
      "Ġcen": 1417,
      "Ġgen": 1418,
      "Ġganas": 1419,
      "Ġcuida": 1420,
      "trÃ¡s": 1421,
      "Ġentender": 1422,
      "Ġacostumb": 1423,
      "elo": 1424,
      "Ġdesa": 1425,
      "Ġfumar": 1426,
      "Ġfueron": 1427,
      "Ġpie": 1428,
      "yo": 1429,
      "Ġtre": 1430,
      "Ġdebo": 1431,
      "Ġpues": 1432,
      "Ġtenis": 1433,
      "Ġido": 1434,
      "Ġpensar": 1435,
      "Ġorden": 1436,
      "Ġri": 1437,
      "Ġmol": 1438,
      "ĠsueÃ±o": 1439,
      "Ġ2": 1440,
      "Ġrespuesta": 1441,
      "Ġusar": 1442,
      "lÃ¡": 1443,
      "siÃ³n": 1444,
      "cidad": 1445,
      "tener": 1446,
      "Ġllave": 1447,
      "Ġdormi": 1448,
      "Ġperdido": 1449,
      "drÃ¡": 1450,
      "Ġcanad": 1451,
      "Ġautob": 1452,
      "Ġquisiera": 1453,
      "Ġviejo": 1454,
      "fier": 1455,
      "uer": 1456,
      "Ġestas": 1457,
      "Ġpueda": 1458,
      "ĠcanciÃ³n": 1459,
      "Ġfuncion": 1460,
      "gando": 1461,
      "Ġentrar": 1462,
      "Ġbor": 1463,
      "Ġdirec": 1464,
      "Ġprome": 1465,
      "Ġjapon": 1466,
      "arme": 1467,
      "Ġhacia": 1468,
      "Ġcaja": 1469,
      "Ġabs": 1470,
      "con": 1471,
      "Ġblan": 1472,
      "Ġchica": 1473,
      "ĠparecÃŃa": 1474,
      "Ġguer": 1475,
      "Ġce": 1476,
      "ĠnÃº": 1477,
      "Ġespera": 1478,
      "Ġconsegu": 1479,
      "ĠnÃºm": 1480,
      "Ġamb": 1481,
      "ĠdÃ³": 1482,
      "Ġhaz": 1483,
      "Ġcalle": 1484,
      "Ġterminar": 1485,
      "Ġencanta": 1486,
      "ĠmÃ©dico": 1487,
      "Ġaver": 1488,
      "Ġvues": 1489,
      "Ġverte": 1490,
      "diendo": 1491,
      "Ġhos": 1492,
      "uelo": 1493,
      "usto": 1494,
      "Ġpermi": 1495,
      "jal": 1496,
      "Ġaten": 1497,
      "Ġlen": 1498,
      "Ġnavidad": 1499,
      "Ġcuanto": 1500,
      "Ġdomin": 1501,
      "ciente": 1502,
      "Ġhubiera": 1503,
      "ĠautobÃºs": 1504,
      "ion": 1505,
      "arÃŃa": 1506,
      "Ġsecre": 1507,
      "Ġmedia": 1508,
      "Ġexam": 1509,
      "Ġmisma": 1510,
      "Ġropa": 1511,
      "Ġpalabra": 1512,
      "atro": 1513,
      "Ġlejos": 1514,
      "Ġmil": 1515,
      "Ġseis": 1516,
      "Ġconven": 1517,
      "Ġodio": 1518,
      "tarme": 1519,
      "ĠrÃŃo": 1520,
      "ĠoÃŃdo": 1521,
      "Ġfalta": 1522,
      "Ġguerra": 1523,
      "enas": 1524,
      "cios": 1525,
      "Ġdij": 1526,
      "Ġcorre": 1527,
      "Ġnecesitas": 1528,
      ".\"": 1529,
      "tri": 1530,
      "Ġgas": 1531,
      "guÃ©": 1532,
      "Ġdescu": 1533,
      "Ġanim": 1534,
      "Ġapro": 1535,
      "Ġvista": 1536,
      "jalÃ¡": 1537,
      "mon": 1538,
      "pen": 1539,
      "Ġavi": 1540,
      "Ġverano": 1541,
      "Ġchico": 1542,
      "Ġencu": 1543,
      "Ã±as": 1544,
      "Ġperros": 1545,
      "Ġiba": 1546,
      "Ġpreguntas": 1547,
      "ĠmÃŃo": 1548,
      "Ġbajo": 1549,
      "viendo": 1550,
      "Ġcru": 1551,
      "Ġvin": 1552,
      "Ġbr": 1553,
      "Ġgri": 1554,
      "ĠcompaÃ±": 1555,
      "ĠserÃŃa": 1556,
      "Ġabr": 1557,
      "Ġmanera": 1558,
      "Ġinteresante": 1559,
      "ĠsaliÃ³": 1560,
      "Ġmanos": 1561,
      "Ġcara": 1562,
      "mara": 1563,
      "Ġhiciste": 1564,
      "Ġcierto": 1565,
      "arse": 1566,
      "eno": 1567,
      "dado": 1568,
      "Ġpedir": 1569,
      "Ġapa": 1570,
      "br": 1571,
      "eci": 1572,
      "tis": 1573,
      "Ġenam": 1574,
      "ensa": 1575,
      "Ġninguna": 1576,
      "Ġrecor": 1577,
      "tre": 1578,
      "ĠestÃº": 1579,
      "Ġsupon": 1580,
      "Ġcree": 1581,
      "ĠbebÃ©": 1582,
      "Ġdiccion": 1583,
      "Ġforma": 1584,
      "Ġdere": 1585,
      "Ġcuarto": 1586,
      "ĠtÃ©": 1587,
      "Ġclar": 1588,
      "olu": 1589,
      "guas": 1590,
      "Ġcrees": 1591,
      "vers": 1592,
      "Ġpregunto": 1593,
      "illa": 1594,
      "Ġbai": 1595,
      "graf": 1596,
      "Ġcapaz": 1597,
      "ĠnÃºmero": 1598,
      "Ġenamor": 1599,
      "eros": 1600,
      "Ġmer": 1601,
      "ĠquedÃ³": 1602,
      "ierta": 1603,
      "Ġtienda": 1604,
      "ĠojalÃ¡": 1605,
      "Ġpoder": 1606,
      "Ġexplic": 1607,
      "Ġlisto": 1608,
      "cÃŃ": 1609,
      "tica": 1610,
      "eras": 1611,
      "ese": 1612,
      "Ġdiscul": 1613,
      "Ġhotel": 1614,
      "Ġcuidado": 1615,
      "ĠdÃ³lares": 1616,
      "sas": 1617,
      "Ġevi": 1618,
      "Ġado": 1619,
      "Ġdir": 1620,
      "Ġinf": 1621,
      "Ġabando": 1622,
      "Ġjuego": 1623,
      "ĠestÃ©": 1624,
      "Ġprobable": 1625,
      "estÃ¡": 1626,
      "Ġnoti": 1627,
      "Ġcorrec": 1628,
      "ĠdeberÃŃamos": 1629,
      "Ġbeber": 1630,
      "amos": 1631,
      "man": 1632,
      "Ġsuce": 1633,
      "Ġtrabaja": 1634,
      "Ġpude": 1635,
      "Ġluz": 1636,
      "Ġposible": 1637,
      "Ġhermos": 1638,
      "Ġexamen": 1639,
      "Ġdiccionario": 1640,
      "Ġmira": 1641,
      "ece": 1642,
      "Ġcabal": 1643,
      "ĠcÃ¡mara": 1644,
      "Ġcanadien": 1645,
      "can": 1646,
      "Ġu": 1647,
      "inta": 1648,
      "ierto": 1649,
      "ĠperdiÃ³": 1650,
      "Ġprefier": 1651,
      "Ġoscu": 1652,
      "Ġnecesitamos": 1653,
      "Â¿": 1654,
      "Ġcumple": 1655,
      "Ġcambiar": 1656,
      "Ġhombres": 1657,
      "viera": 1658,
      "esa": 1659,
      "Ġunas": 1660,
      "olver": 1661,
      "dieron": 1662,
      "men": 1663,
      "Ġele": 1664,
      "Ġhambre": 1665,
      "Ġvivo": 1666,
      "entos": 1667,
      "Ġrico": 1668,
      "Ġhija": 1669,
      "portun": 1670,
      "Ġregalo": 1671,
      "Ġdoctor": 1672,
      "Ġhospital": 1673,
      "Ġade": 1674,
      "Ġsomb": 1675,
      "Ġemple": 1676,
      "Ġflores": 1677,
      "ĠaviÃ³n": 1678,
      "ilidad": 1679,
      "Ġcr": 1680,
      "Ġoportun": 1681,
      "Ġjar": 1682,
      "Ġvaca": 1683,
      "cuÃ¡ntos": 1684,
      "Ġregres": 1685,
      "Ġqueremos": 1686,
      "imos": 1687,
      "quer": 1688,
      "Ġvar": 1689,
      "torio": 1690,
      "ĠencontrÃ©": 1691,
      "Ġlibre": 1692,
      "Ġpier": 1693,
      "Ġbon": 1694,
      "mpo": 1695,
      "Ġcaus": 1696,
      "Ġdesper": 1697,
      "Ġmalo": 1698,
      "ĠpequeÃ±o": 1699,
      "Ġsalud": 1700,
      "Ġparque": 1701,
      "tarte": 1702,
      "Ġcerv": 1703,
      "Ġconsejo": 1704,
      "Ġenfermo": 1705,
      "jado": 1706,
      "inci": 1707,
      "Ġsuerte": 1708,
      "Ġmuerte": 1709,
      "gamos": 1710,
      "Ġdespe": 1711,
      "Ġagrade": 1712,
      "Ġromp": 1713,
      "aÃ±os": 1714,
      "Ã¡b": 1715,
      "tio": 1716,
      "Ġjam": 1717,
      "Ġvisitar": 1718,
      "Ġcalor": 1719,
      "ĠharÃ©": 1720,
      "Ġprimero": 1721,
      "ĠdÃ©jame": 1722,
      "tbol": 1723,
      "Ġestados": 1724,
      "Ġvos": 1725,
      "Ġsigu": 1726,
      "Ġrealidad": 1727,
      "Ġinte": 1728,
      "adamente": 1729,
      "Ġacon": 1730,
      "lio": 1731,
      "Ġduro": 1732,
      "Ġvestido": 1733,
      "Ġextranjero": 1734,
      "Ġoportunidad": 1735,
      "Ġz": 1736,
      "arÃ¡": 1737,
      "Ġnorm": 1738,
      "Ġvan": 1739,
      "Ġquieras": 1740,
      "ĠempezÃ³": 1741,
      "Ġagu": 1742,
      "Ġsan": 1743,
      "Ġbes": 1744,
      "Ġcantar": 1745,
      "Ġentiendo": 1746,
      "Ġunidos": 1747,
      "ientos": 1748,
      "Ġhagas": 1749,
      "tim": 1750,
      "Ġculpa": 1751,
      "Ġruido": 1752,
      "ĠcumpleaÃ±os": 1753,
      "ierno": 1754,
      "dida": 1755,
      "Ġtenido": 1756,
      "Ġarro": 1757,
      "Ġesperaba": 1758,
      "ÃŃdo": 1759,
      "vimos": 1760,
      "ĠacÃ¡": 1761,
      "Ġpiensa": 1762,
      "Ġnieve": 1763,
      "ge": 1764,
      "Ġqui": 1765,
      "mag": 1766,
      "Ġcompar": 1767,
      "Ġhaya": 1768,
      "Ġterminado": 1769,
      "Ġvuelta": 1770,
      "Ġarreg": 1771,
      "Ġcerveza": 1772,
      "Ġconta": 1773,
      "Ġbib": 1774,
      "Ġsiquiera": 1775,
      "Ġseguir": 1776,
      "Ġpalabras": 1777,
      "oma": 1778,
      "iencia": 1779,
      "Ġimag": 1780,
      "Ġexac": 1781,
      "Ġdisf": 1782,
      "Ġequipo": 1783,
      "Ġbanco": 1784,
      "Ġllover": 1785,
      "ĠestÃºp": 1786,
      "Ġvacaciones": 1787,
      "Ġlista": 1788,
      "ieras": 1789,
      "Ġotros": 1790,
      "Ġidi": 1791,
      "Ġpensaba": 1792,
      "roso": 1793,
      "ĠcuÃ¡ndo": 1794,
      "Ġintelig": 1795,
      "zado": 1796,
      "arÃ©": 1797,
      "ramos": 1798,
      "Ġperf": 1799,
      "Ġedi": 1800,
      "ĠtomÃ³": 1801,
      "icas": 1802,
      "Ġsimple": 1803,
      "Ġrecuerdo": 1804,
      "Ġpensando": 1805,
      "ĠextraÃ±o": 1806,
      "Ġvosotros": 1807,
      "Ġdijiste": 1808,
      "ĠjamÃ¡s": 1809,
      "rero": 1810,
      "Ġcena": 1811,
      "Ġestabas": 1812,
      "Ġnovia": 1813,
      "remos": 1814,
      "Ġsup": 1815,
      "ĠÃ©s": 1816,
      "Ġdue": 1817,
      "Ġdame": 1818,
      "Ġment": 1819,
      "Ġmedio": 1820,
      "ĠniÃ±a": 1821,
      "Ġorgu": 1822,
      "gnif": 1823,
      "Ġlargo": 1824,
      "giÃ³": 1825,
      "Ġtran": 1826,
      "ĠfÃº": 1827,
      "Ġjusto": 1828,
      "Ġmonta": 1829,
      "ĠfÃºtbol": 1830,
      "diste": 1831,
      "Ġlin": 1832,
      "teca": 1833,
      "ĠallÃ¡": 1834,
      "chos": 1835,
      "Ġquieren": 1836,
      "Ġvay": 1837,
      "Ġguar": 1838,
      "Ġcocina": 1839,
      "Ġtoma": 1840,
      "ĠestarÃ©": 1841,
      "Ġdur": 1842,
      "Ġllama": 1843,
      "Ġeran": 1844,
      "Ġesos": 1845,
      "Ġesca": 1846,
      "dedor": 1847,
      "Ġabo": 1848,
      "Ġresp": 1849,
      "Ġtreinta": 1850,
      "Ġsecreto": 1851,
      "dando": 1852,
      "Ġsac": 1853,
      "Ġalmor": 1854,
      "Ġsignif": 1855,
      "Ġgatos": 1856,
      "Ġpuesto": 1857,
      "Ġlengua": 1858,
      "Ġinme": 1859,
      "Ġguitar": 1860,
      "Ġamor": 1861,
      "tiene": 1862,
      "Ġopin": 1863,
      "uerzo": 1864,
      "fico": 1865,
      "arte": 1866,
      "Ġnar": 1867,
      "Ġrela": 1868,
      "ĠdecisiÃ³n": 1869,
      "Ġestudiante": 1870,
      "ĠpÃ¡jar": 1871,
      "Ġinmedia": 1872,
      "pas": 1873,
      "esto": 1874,
      "trado": 1875,
      "Ġprinci": 1876,
      "Ġcarne": 1877,
      "Ġganar": 1878,
      "Ġerrores": 1879,
      "Ġadmi": 1880,
      "bu": 1881,
      "dan": 1882,
      "ices": 1883,
      "Ġviaje": 1884,
      "Ġcanadiense": 1885,
      "ĠlÃŃ": 1886,
      "Ġquiz": 1887,
      "Ġeno": 1888,
      "Ġsitu": 1889,
      "Ġtras": 1890,
      "Ġllu": 1891,
      "Ġentien": 1892,
      "eres": 1893,
      "aso": 1894,
      "tados": 1895,
      "Ġgolpe": 1896,
      "dÃŃa": 1897,
      "ĠtÃŃo": 1898,
      "Ġmujeres": 1899,
      "tad": 1900,
      "Ġbra": 1901,
      "Ġsitio": 1902,
      "Ġinfor": 1903,
      "Ġpiano": 1904,
      "Ġconoce": 1905,
      "ĠvolviÃ³": 1906,
      "Ġorgullos": 1907,
      "Ġcri": 1908,
      "Ġcora": 1909,
      "tau": 1910,
      "Ġconci": 1911,
      "tud": 1912,
      "Ġescuchar": 1913,
      "podrÃŃas": 1914,
      "Ġaconse": 1915,
      "Ġbiblio": 1916,
      "Ġedifici": 1917,
      "ajo": 1918,
      "tiendo": 1919,
      "Ġcuch": 1920,
      "Ġsigue": 1921,
      "Ġcaso": 1922,
      "Ġdebemos": 1923,
      "Ġpele": 1924,
      "Ġasunto": 1925,
      "Ġtarea": 1926,
      "ĠbaÃ±o": 1927,
      "Ġllue": 1928,
      "Ġexper": 1929,
      "Ġmorir": 1930,
      "ĠprÃ³ximo": 1931,
      "Ġamar": 1932,
      "Ġdentro": 1933,
      "Ġpus": 1934,
      "Ġenton": 1935,
      "Ġcuatro": 1936,
      "Ġfuego": 1937,
      "Ġapenas": 1938,
      "Ġrestau": 1939,
      "ĠmontÃ³n": 1940,
      "ĠcuÃ¡nto": 1941,
      "Ġequivocado": 1942,
      "Ġcompletamente": 1943,
      "ha": 1944,
      "Ġtendr": 1945,
      "vio": 1946,
      "lante": 1947,
      "ticas": 1948,
      "Ġdescan": 1949,
      "Ġllorar": 1950,
      "Ġpeligro": 1951,
      "Ġsombrero": 1952,
      "Ġello": 1953,
      "Ġsil": 1954,
      "Ġacaba": 1955,
      "Ġmala": 1956,
      "Ġcamisa": 1957,
      "dÃŃn": 1958,
      "Ġnego": 1959,
      "Ġ\"Â¿": 1960,
      "Ġintentar": 1961,
      "Ġacabo": 1962,
      "Ġbiblioteca": 1963,
      "Ġentonces": 1964,
      "ire": 1965,
      "Ġconten": 1966,
      "Ġloco": 1967,
      "ĠperdÃŃ": 1968,
      "Ġanci": 1969,
      "ĠdecidiÃ³": 1970,
      "Ġnuestros": 1971,
      "ĠharÃŃa": 1972,
      "Ġprimer": 1973,
      "Ġconstru": 1974,
      "Ġpapel": 1975,
      "ĠatenciÃ³n": 1976,
      "ĠcompaÃ±ÃŃa": 1977,
      "30": 1978,
      "cciÃ³n": 1979,
      "rÃ¡": 1980,
      "viste": 1981,
      "Ġsegun": 1982,
      "Ġescal": 1983,
      "ĠjardÃŃn": 1984,
      "?\"": 1985,
      "diera": 1986,
      "lica": 1987,
      "anza": 1988,
      "Ġnove": 1989,
      "culo": 1990,
      "Ġabur": 1991,
      "Ġempi": 1992,
      "ĠencontrÃ³": 1993,
      "Ġsentido": 1994,
      "eme": 1995,
      "gre": 1996,
      "tÃº": 1997,
      "ĠÃ©xi": 1998,
      "segu": 1999,
      "ĠcayÃ³": 2000,
      "Ġfamos": 2001,
      "tuvo": 2002,
      "Ġguitarra": 2003,
      "Ġmensa": 2004,
      "Ġdec": 2005,
      "Ġelec": 2006,
      "ĠcomiÃ³": 2007,
      "Ġcuer": 2008,
      "tarse": 2009,
      "Ġtradu": 2010,
      "ĠsituaciÃ³n": 2011,
      "Ġrecuer": 2012,
      "Ġcompu": 2013,
      "Ġabri": 2014,
      "Ġfinal": 2015,
      "crees": 2016,
      "Ġtrabajando": 2017,
      "Ġconseguir": 2018,
      "Ġedificio": 2019,
      "ĠÃ©xito": 2020,
      "Ġprofun": 2021,
      "Ġtaza": 2022,
      "ĠÃºnica": 2023,
      "Ġcaminar": 2024,
      "Ġdormido": 2025,
      "Ġblanco": 2026,
      "Ġlluvia": 2027,
      "Ġalre": 2028,
      "porte": 2029,
      "Ġprue": 2030,
      "tador": 2031,
      "ĠocurriÃ³": 2032,
      "Ġexactamente": 2033,
      "cto": 2034,
      "Ġemb": 2035,
      "Ġgal": 2036,
      "ĠhabrÃŃa": 2037,
      "ridad": 2038,
      "Ġases": 2039,
      "Ġvenga": 2040,
      "ĠestarÃ¡": 2041,
      "Ġboca": 2042,
      "Ġcenar": 2043,
      "Ġbailar": 2044,
      "Ġprefiero": 2045,
      "Ġrestaurante": 2046,
      "mÃ¡": 2047,
      "arlo": 2048,
      "cina": 2049,
      "tada": 2050,
      "Ġcontar": 2051,
      "Ġgua": 2052,
      "Ġclases": 2053,
      "Ġdivertido": 2054,
      "Ġmentir": 2055,
      "Ã¼": 2056,
      "taciÃ³n": 2057,
      "Ġalm": 2058,
      "Ġmuerto": 2059,
      "Ġdime": 2060,
      "Ġcui": 2061,
      "Ãºb": 2062,
      "Ġactu": 2063,
      "Ġprefer": 2064,
      "Ġespeci": 2065,
      "Ġhuevos": 2066,
      "cen": 2067,
      "fri": 2068,
      "Ġpena": 2069,
      "Ġayudarte": 2070,
      "Ġsuelo": 2071,
      "Ġduele": 2072,
      "Ġk": 2073,
      "Ġaire": 2074,
      "Ġcontin": 2075,
      "Ġbil": 2076,
      "Ġje": 2077,
      "Ġanti": 2078,
      "ĠpedÃŃ": 2079,
      "Ġsonr": 2080,
      "cel": 2081,
      "Ġconfiar": 2082,
      "ĠpequeÃ±a": 2083,
      "Ġplaya": 2084,
      "Ġleyendo": 2085,
      "Ġabrir": 2086,
      "Ġdisfru": 2087,
      "Ġaun": 2088,
      "ĠmÃŃa": 2089,
      "Ġigu": 2090,
      "Ġren": 2091,
      "Ġestuve": 2092,
      "Ġplane": 2093,
      "Ġunivers": 2094,
      "Ġbarco": 2095,
      "ĠestÃºpido": 2096,
      "Ġalrededor": 2097,
      "Ġdem": 2098,
      "Ġellas": 2099,
      "Ġentra": 2100,
      "Ġbal": 2101,
      "Ġbel": 2102,
      "Ġrecu": 2103,
      "Ġpasando": 2104,
      "Ġjugando": 2105,
      "Ġpeso": 2106,
      "ĠÃºltimo": 2107,
      "Ġfrente": 2108,
      "Ġesas": 2109,
      "ÃŃr": 2110,
      "Ġenci": 2111,
      "Ġfre": 2112,
      "Ġasus": 2113,
      "Ġpiensas": 2114,
      "fortun": 2115,
      "Ġanimales": 2116,
      "pÃ³": 2117,
      "Ġpareces": 2118,
      "Ġpasada": 2119,
      "Ġtrata": 2120,
      "ĠdirecciÃ³n": 2121,
      "Ġprobablemente": 2122,
      "Ġinteligente": 2123,
      "ĠbÃ©is": 2124,
      "ale": 2125,
      "Ġperdo": 2126,
      "rido": 2127,
      "Ġcha": 2128,
      "Ġresponder": 2129,
      "ĠbÃ©isbol": 2130,
      "Ġestre": 2131,
      "ĠentrÃ³": 2132,
      "Ġfir": 2133,
      "Ġalcan": 2134,
      "Ġcomido": 2135,
      "resa": 2136,
      "Ġcump": 2137,
      "Ġtriste": 2138,
      "ĠvendrÃ¡": 2139,
      "Ġdispar": 2140,
      "Ġdeberes": 2141,
      "Ġabogado": 2142,
      "Ġcuesta": 2143,
      "Ġsiete": 2144,
      "Ġrevis": 2145,
      "puede": 2146,
      "Ġradio": 2147,
      "Ġbote": 2148,
      "Ġincl": 2149,
      "Ġmam": 2150,
      "Ġoc": 2151,
      "rible": 2152,
      "ĠtrÃ¡": 2153,
      "Ġcomprado": 2154,
      "Ġpeor": 2155,
      "taste": 2156,
      "Ġimpos": 2157,
      "Ġllevaba": 2158,
      "Ġvale": 2159,
      "Ġmensaje": 2160,
      "gi": 2161,
      "Ġalim": 2162,
      "ches": 2163,
      "Ġdigas": 2164,
      "Ġparaguas": 2165,
      "Ġsob": 2166,
      "Ġsuficientemente": 2167,
      "Ġenfada": 2168,
      "Ġabandon": 2169,
      "ĠrompiÃ³": 2170,
      "rso": 2171,
      "Ġdef": 2172,
      "Ġenvi": 2173,
      "dimos": 2174,
      "Ġtok": 2175,
      "ĠperiÃ³": 2176,
      "Ġmatar": 2177,
      "gaÃ±": 2178,
      "Ġllaves": 2179,
      "cuÃ¡ntas": 2180,
      "Ġregal": 2181,
      "Ġempezar": 2182,
      "ĠllamÃ³": 2183,
      "Ġintentando": 2184,
      "Ġconsider": 2185,
      "Ġabsolu": 2186,
      "Ġambos": 2187,
      "Ġrecordar": 2188,
      "Ġama": 2189,
      "Ġene": 2190,
      "Ġprodu": 2191,
      "Ġirme": 2192,
      "Ġfavorito": 2193,
      "Ġresolver": 2194,
      "Ġcho": 2195,
      "Ġpreguntar": 2196,
      "ĠmirÃ³": 2197,
      "monos": 2198,
      "ĠopiniÃ³n": 2199,
      "Ġladr": 2200,
      "ĠestÃ¡is": 2201,
      "Ġhaces": 2202,
      "Ġprom": 2203,
      "Ġsegura": 2204,
      "ĠterminÃ³": 2205,
      "ĠdesearÃŃa": 2206,
      "Ġmanzana": 2207,
      "Ġconcierto": 2208,
      "Ġalmuerzo": 2209,
      "Ġuniversidad": 2210,
      "omas": 2211,
      "iso": 2212,
      "melo": 2213,
      "Ġsaben": 2214,
      "Ġdistin": 2215,
      "Ġconoci": 2216,
      "Ġpeligroso": 2217,
      "Ġvoz": 2218,
      "Ġprincip": 2219,
      "gir": 2220,
      "Ġtro": 2221,
      "Ġmur": 2222,
      "Ġreco": 2223,
      "Ġviven": 2224,
      "Ġacom": 2225,
      "Ġacor": 2226,
      "guno": 2227,
      "Ġcerra": 2228,
      "Ġdecirle": 2229,
      "puesto": 2230,
      "Ġsala": 2231,
      "Ġimposible": 2232,
      "Ġtokio": 2233,
      "idos": 2234,
      "zos": 2235,
      "Ġsiendo": 2236,
      "ÃŃn": 2237,
      "Ġfru": 2238,
      "Ġhago": 2239,
      "Ġcub": 2240,
      "tiva": 2241,
      "Ġespa": 2242,
      "ĠirÃ©": 2243,
      "Ġabuelo": 2244,
      "Ġchicos": 2245,
      "Ġcaliente": 2246,
      "Ġrecono": 2247,
      "Ġinvierno": 2248,
      "ĠcorazÃ³n": 2249,
      "Ġcuchillo": 2250,
      "min": 2251,
      "zas": 2252,
      "ervi": 2253,
      "Ġmad": 2254,
      "Ġlago": 2255,
      "Ġpartido": 2256,
      "Ġvaso": 2257,
      "Ġacostumbrado": 2258,
      "ĠatrÃ¡s": 2259,
      "Ġdev": 2260,
      "esti": 2261,
      "Ġgo": 2262,
      "ĠcomÃºn": 2263,
      "ĠestÃ¡bamos": 2264,
      "ĠlleguÃ©": 2265,
      "Ġdejes": 2266,
      "para": 2267,
      "Ġrato": 2268,
      "Ġmeses": 2269,
      "Ġsupongo": 2270,
      "ĠaconsejÃ³": 2271,
      "Ġaunque": 2272,
      "tero": 2273,
      "vieron": 2274,
      "Ġtri": 2275,
      "ĠquedÃ©": 2276,
      "Ġlamento": 2277,
      "cionado": 2278,
      "Ġrojo": 2279,
      "ĠsentÃ³": 2280,
      "Ġfotos": 2281,
      "Ġviajar": 2282,
      "terÃŃa": 2283,
      "vado": 2284,
      "ĠestÃ©s": 2285,
      "Ġserio": 2286,
      "Ġmantener": 2287,
      "Ġestudiando": 2288,
      "Ġcine": 2289,
      "ĠprÃ³xima": 2290,
      "Ġsimplemente": 2291,
      "Ġjefe": 2292,
      "gÃ¼": 2293,
      "llo": 2294,
      "uera": 2295,
      "Ġdiciendo": 2296,
      "Ġirse": 2297,
      "Ġvac": 2298,
      "Ġgrandes": 2299,
      "ĠpolÃŃ": 2300,
      "Ġocupada": 2301,
      "Ġhubo": 2302,
      "Ġcocinar": 2303,
      "ĠjaponÃ©s": 2304,
      "ĠmontaÃ±a": 2305,
      "Ġnervi": 2306,
      "ĠdetrÃ¡s": 2307,
      "Ġodi": 2308,
      "Ġcasado": 2309,
      "Ġahor": 2310,
      "Ġmane": 2311,
      "Ġfinalmente": 2312,
      "Ġpescado": 2313,
      "ĠescribiÃ³": 2314,
      "Ġninguno": 2315,
      "ĠmayorÃŃa": 2316,
      "Ġfunciona": 2317,
      "Ġborra": 2318,
      "Ġvayas": 2319,
      "iones": 2320,
      "oc": 2321,
      "ĠÃ¡": 2322,
      "Ġtier": 2323,
      "ques": 2324,
      "Ġalta": 2325,
      "Ġperm": 2326,
      "tarÃ¡": 2327,
      "ĠabriÃ³": 2328,
      "Ġnecesario": 2329,
      "Ġsopor": 2330,
      "Ġcarro": 2331,
      "Ġvenido": 2332,
      "ĠpensÃ³": 2333,
      "elices": 2334,
      "Ġveci": 2335,
      "ĠpodrÃŃas": 2336,
      "Ġminuto": 2337,
      "podrÃŃa": 2338,
      "Ġdurm": 2339,
      "Ġbrazo": 2340,
      "Ġag": 2341,
      "Ġata": 2342,
      "Ġtoca": 2343,
      "Ãºcar": 2344,
      "Ġllevo": 2345,
      "terna": 2346,
      "Ġocul": 2347,
      "Ġquedarse": 2348,
      "Ġcolor": 2349,
      "Ġcorriendo": 2350,
      "Ġdesayuno": 2351,
      "ĠazÃºcar": 2352,
      "Ġcontento": 2353,
      "Ġbille": 2354,
      "cial": 2355,
      "Ġconver": 2356,
      "Ġof": 2357,
      "Ġrespe": 2358,
      "Ġobs": 2359,
      "ĠintentÃ³": 2360,
      "tÃ©n": 2361,
      "Ġcien": 2362,
      "Ġcomiendo": 2363,
      "Ġdile": 2364,
      "Ġpobre": 2365,
      "Ġabierta": 2366,
      "Ġvisi": 2367,
      "Ġamable": 2368,
      "Ġhiciera": 2369,
      "Ġsatis": 2370,
      "Ġmirando": 2371,
      "Ġhermosa": 2372,
      "Ġcausa": 2373,
      "Ġrespecto": 2374,
      "Ġabrigo": 2375,
      "ura": 2376,
      "Ġaero": 2377,
      "Ġmue": 2378,
      "Ġsuel": 2379,
      "Ġfelices": 2380,
      "Ġlog": 2381,
      "ĠcuÃ¡l": 2382,
      "Ġperten": 2383,
      "Ġsolu": 2384,
      "Ġescritorio": 2385,
      "Ġobje": 2386,
      "Ġnegro": 2387,
      "Ġhicieron": 2388,
      "Ġtaxi": 2389,
      "Ġsignifica": 2390,
      "ĠmamÃ¡": 2391,
      "uro": 2392,
      "erg": 2393,
      "Ġdecep": 2394,
      "damente": 2395,
      "Ġhablo": 2396,
      "Ġllegue": 2397,
      "Ġrar": 2398,
      "Ġpaciente": 2399,
      "ĠolvidÃ³": 2400,
      "Ġafuera": 2401,
      "Ġmoles": 2402,
      "Ġcorrecto": 2403,
      "Ġacompa": 2404,
      "eciÃ³": 2405,
      "vÃ³": 2406,
      "ĠtÃŃ": 2407,
      "Ġamo": 2408,
      "Ġdepen": 2409,
      "Ġparti": 2410,
      "Ġtur": 2411,
      "medad": 2412,
      "Ġig": 2413,
      "Ġhelado": 2414,
      "entÃ³": 2415,
      "Ġnecesitaba": 2416,
      "Ġlleno": 2417,
      "Ġbebe": 2418,
      "Ġcocin": 2419,
      "Ġclaro": 2420,
      "ĠdemÃ¡s": 2421,
      "dÃ³n": 2422,
      "fas": 2423,
      "ĠpÃºb": 2424,
      "quina": 2425,
      "tate": 2426,
      "Ġparar": 2427,
      "Ġmuer": 2428,
      "Ġmarido": 2429,
      "Ġdios": 2430,
      "Ġviol": 2431,
      "Ġllegado": 2432,
      "Ġapre": 2433,
      "Ġfuer": 2434,
      "Ġfutu": 2435,
      "Ġpudiera": 2436,
      "Ġcaro": 2437,
      "ĠestarÃŃa": 2438,
      "ĠtratÃ³": 2439,
      "Ġhermanos": 2440,
      "Ġcorrer": 2441,
      "Ġderecho": 2442,
      "Ġnormalmente": 2443,
      "Ġprueba": 2444,
      "Ġigles": 2445,
      "Ġpun": 2446,
      "Ġcli": 2447,
      "inar": 2448,
      "alguna": 2449,
      "ĠtenÃ©s": 2450,
      "Ġtenga": 2451,
      "Ġpueb": 2452,
      "Ġprisa": 2453,
      "Ġbuenos": 2454,
      "Ġdicen": 2455,
      "Ġquedarme": 2456,
      "Ġ19": 2457,
      "Ġsospe": 2458,
      "Ġevitar": 2459,
      "ĠsiguiÃ³": 2460,
      "Ġllueve": 2461,
      "Ġfrecu": 2462,
      "Ġaeropu": 2463,
      "lico": 2464,
      "llas": 2465,
      "ĠlÃ¡p": 2466,
      "Ġfra": 2467,
      "Ġcomien": 2468,
      "Ġsilla": 2469,
      "Ġdejado": 2470,
      "Ġtarta": 2471,
      "Ġarri": 2472,
      "Ġaquella": 2473,
      "Ġiglesia": 2474,
      "Ġaeropuerto": 2475,
      "Ġtir": 2476,
      "uego": 2477,
      "Ġseas": 2478,
      "ĠseÃ±": 2479,
      "Ġsiguien": 2480,
      "gues": 2481,
      "lido": 2482,
      "Ġsabemos": 2483,
      "Ġasis": 2484,
      "Ġcompren": 2485,
      "Ġvein": 2486,
      "Ġcielo": 2487,
      "ĠllevÃ³": 2488,
      "Ġreglas": 2489,
      "Ġenfermedad": 2490,
      "Ġmostrar": 2491,
      "Ġmanzanas": 2492,
      "Ġgener": 2493,
      "Ġnoticias": 2494,
      "Ġcuidar": 2495,
      "ĠperiÃ³dico": 2496,
      "tÃ¡": 2497,
      "Ġdientes": 2498,
      "inas": 2499,
      "Ġsuena": 2500,
      "ĠÃ©ste": 2501,
      "Ġocho": 2502,
      "Ġreal": 2503,
      "Ġign": 2504,
      "Ġverme": 2505,
      "ĠcreÃŃa": 2506,
      "Ġpieza": 2507,
      "Ġconfi": 2508,
      "ĠcomenzÃ³": 2509,
      "talmente": 2510,
      "Ġaveri": 2511,
      "querÃ©s": 2512,
      "ĠsacÃ³": 2513,
      "Ġfuturo": 2514,
      "cus": 2515,
      "Ġmus": 2516,
      "Ġlavar": 2517,
      "Ġgru": 2518,
      "mpa": 2519,
      "Ġrepar": 2520,
      "Ġescrito": 2521,
      "jeron": 2522,
      "Ġsemanas": 2523,
      "Ġsentado": 2524,
      "Ġpermitir": 2525,
      "Ġdurmiendo": 2526,
      "eo": 2527,
      "vÃŃ": 2528,
      "Ġnovio": 2529,
      "rate": 2530,
      "Ġabra": 2531,
      "tancia": 2532,
      "Ġtraje": 2533,
      "Ġduer": 2534,
      "Ġimpres": 2535,
      "bata": 2536,
      "Ġculp": 2537,
      "Ġtierra": 2538,
      "Ġpueblo": 2539,
      "dable": 2540,
      "ĠlÃ¡": 2541,
      "ĠmÃ¡": 2542,
      "Ã©l": 2543,
      "tamos": 2544,
      "Ġgor": 2545,
      "Ġgana": 2546,
      "Ġsuper": 2547,
      "Ġacus": 2548,
      "Ġpris": 2549,
      "Ġcartas": 2550,
      "ĠolvidÃ©": 2551,
      "Ġsentir": 2552,
      "Ġlarga": 2553,
      "Ġigual": 2554,
      "iciÃ³n": 2555,
      "lando": 2556,
      "mÃ³": 2557,
      "nas": 2558,
      "eramente": 2559,
      "Ġsenta": 2560,
      "Ġviendo": 2561,
      "Ġquiera": 2562,
      "Ġexcep": 2563,
      "Ġcoger": 2564,
      "Ġresfri": 2565,
      "Ġsopa": 2566,
      "ĠayudÃ³": 2567,
      "Ġvendr": 2568,
      "ĠvolverÃ©": 2569,
      "ĠhablÃ³": 2570,
      "Ġdescub": 2571,
      "Ġarreglar": 2572,
      "Ġexperiencia": 2573,
      "Ġclima": 2574,
      "jes": 2575,
      "Ġ5": 2576,
      "cioso": 2577,
      "date": 2578,
      "chas": 2579,
      "ĠleÃŃdo": 2580,
      "Ġdiga": 2581,
      "Ġproy": 2582,
      "Ġprote": 2583,
      "Ġestuviera": 2584,
      "ĠdejÃ©": 2585,
      "ĠsentÃŃa": 2586,
      "ĠdaÃ±o": 2587,
      "Ġfuimos": 2588,
      "Ġempleo": 2589,
      "Ġsiguiente": 2590,
      "bo": 2591,
      "tÃ¡n": 2592,
      "Ġw": 2593,
      "Ġpic": 2594,
      "Ġnu": 2595,
      "ĠengaÃ±": 2596,
      "lau": 2597,
      "lada": 2598,
      "Ġmara": 2599,
      "rib": 2600,
      "maciÃ³n": 2601,
      "Ġverlo": 2602,
      "Ġcompor": 2603,
      "Ġmate": 2604,
      "ĠpasÃ©": 2605,
      "Ġante": 2606,
      "Ġbuenas": 2607,
      "Ġsino": 2608,
      "Ġverdaderamente": 2609,
      "Ġpresi": 2610,
      "ĠharÃ¡": 2611,
      "Ġtampo": 2612,
      "Ġencuen": 2613,
      "Ġcaballo": 2614,
      "Ġtampoco": 2615,
      "ial": 2616,
      "Ġnor": 2617,
      "ciar": 2618,
      "ĠcontÃ³": 2619,
      "Ġhable": 2620,
      "Ġindi": 2621,
      "Ġinoc": 2622,
      "ĠhacÃŃa": 2623,
      "Ġvimos": 2624,
      "Ġapoy": 2625,
      "Ġamiga": 2626,
      "Ġayudarme": 2627,
      "Ġpescar": 2628,
      "ĠsentÃŃ": 2629,
      "ĠpapÃ¡": 2630,
      "Ġdiferente": 2631,
      "Ġdomingo": 2632,
      "Ġenamorado": 2633,
      "Ġinmediatamente": 2634,
      "Ġorgulloso": 2635,
      "Ġignor": 2636,
      "id": 2637,
      "pado": 2638,
      "Ġasegu": 2639,
      "Ġdado": 2640,
      "tame": 2641,
      "Ġcontes": 2642,
      "uste": 2643,
      "entemente": 2644,
      "Ġtotalmente": 2645,
      "Ġcuad": 2646,
      "Ġcuidad": 2647,
      "Ġdespa": 2648,
      "Ġencontrado": 2649,
      "jeros": 2650,
      "ĠquerÃ©s": 2651,
      "ĠrÃ¡pida": 2652,
      "Ġlimpiar": 2653,
      "Ġvuestro": 2654,
      "Ġalmorzar": 2655,
      "Ġsilen": 2656,
      "dera": 2657,
      "Ġemo": 2658,
      "Ġedu": 2659,
      "Ġadi": 2660,
      "ĠsÃ¡b": 2661,
      "Ġfres": 2662,
      "late": 2663,
      "Ġtemo": 2664,
      "Ġtuyo": 2665,
      "Ġasiento": 2666,
      "Ġocurr": 2667,
      "Ġgafas": 2668,
      "Ġolvides": 2669,
      "Ġpared": 2670,
      "Ġpropia": 2671,
      "Ġpreocupado": 2672,
      "Ġazul": 2673,
      "\".": 2674,
      "pre": 2675,
      "zquier": 2676,
      "Â»": 2677,
      "ĠdÃŃ": 2678,
      "Ġizquier": 2679,
      "dose": 2680,
      "Ġfavorita": 2681,
      "acaso": 2682,
      "Ġpiso": 2683,
      "Ġtorta": 2684,
      "Ġnoticia": 2685,
      "Ġidioma": 2686,
      "Ġnaran": 2687,
      "Ġproyecto": 2688,
      "Ġmaravi": 2689,
      "hab": 2690,
      "Ġeuro": 2691,
      "Ġtorm": 2692,
      "ĠÂ«": 2693,
      "Ġentr": 2694,
      "Ġcontro": 2695,
      "Ġodia": 2696,
      "Ġref": 2697,
      "Ġpuedas": 2698,
      "Ġhacen": 2699,
      "Ġtuvimos": 2700,
      "tur": 2701,
      "Ġpaz": 2702,
      "Ġmanten": 2703,
      "Ġpuente": 2704,
      "Ġcorbata": 2705,
      "ĠpodÃ©is": 2706,
      "Ġolvidar": 2707,
      "Ġvuelve": 2708,
      "Ġquise": 2709,
      "Ġgolf": 2710,
      "Ġdomingos": 2711,
      "Ġaprob": 2712,
      "grafo": 2713,
      "Ġentiende": 2714,
      "Ġnovela": 2715,
      "Ġempieza": 2716,
      "Ġborracho": 2717,
      "ĠmatemÃ¡": 2718,
      "bas": 2719,
      "gon": 2720,
      "vamente": 2721,
      "Ġluego": 2722,
      "Ġfan": 2723,
      "Ġmemor": 2724,
      "ama": 2725,
      "Ġidio": 2726,
      "Ġdecidido": 2727,
      "sito": 2728,
      "Ġplanes": 2729,
      "Ġcambi": 2730,
      "Ġrecom": 2731,
      "ĠbolÃŃ": 2732,
      "Ġpropio": 2733,
      "Ġdiferencia": 2734,
      "ĠquitÃ³": 2735,
      "Ġanciano": 2736,
      "Ġcita": 2737,
      "damos": 2738,
      "Ġmarch": 2739,
      "Ġretras": 2740,
      "Ġdul": 2741,
      "Ġdecirme": 2742,
      "Ġsobrevi": 2743,
      "Ġtranqui": 2744,
      "Ġincluso": 2745,
      "Ġraro": 2746,
      "ĠacompaÃ±": 2747,
      "cono": 2748,
      "gico": 2749,
      "nes": 2750,
      "Ġis": 2751,
      "Ġacu": 2752,
      "Ġmas": 2753,
      "Ġhones": 2754,
      "Ġhablas": 2755,
      "timos": 2756,
      "Ġgustaba": 2757,
      "Ġpaso": 2758,
      "Ġcampo": 2759,
      "ĠnaciÃ³": 2760,
      "Ġusa": 2761,
      "Ġpaci": 2762,
      "Ġcarr": 2763,
      "Ġarma": 2764,
      "ĠveÃŃa": 2765,
      "Ġconocer": 2766,
      "Ġhaberlo": 2767,
      "Ġenfad": 2768,
      "Ġincen": 2769,
      "Ġcapacidad": 2770,
      "Ġlloviendo": 2771,
      "Ġpaseo": 2772,
      "Ġfamoso": 2773,
      "Ġaverigu": 2774,
      "pos": 2775,
      "tente": 2776,
      "Ġsiente": 2777,
      "ĠcomÃŃ": 2778,
      "cul": 2779,
      "Ġpoe": 2780,
      "Ġsale": 2781,
      "cionar": 2782,
      "Ġencen": 2783,
      "quiere": 2784,
      "Ġsencil": 2785,
      "Ġvuelto": 2786,
      "Ġpreocupar": 2787,
      "Ġbolsa": 2788,
      "ĠenseÃ±Ã³": 2789,
      "Ġechar": 2790,
      "ĠlÃŃne": 2791,
      "ĠquizÃ¡": 2792,
      "Ġrecuerda": 2793,
      "Ġguapa": 2794,
      "Ġcontinu": 2795,
      "Ġbotella": 2796,
      "ĠpÃºblico": 2797,
      "Ġtormenta": 2798,
      "Ġagar": 2799,
      "eses": 2800,
      "Ġbri": 2801,
      "Ġdijeron": 2802,
      "ecer": 2803,
      "cada": 2804,
      "ĠcasÃ³": 2805,
      "Ġpopu": 2806,
      "Ġpocos": 2807,
      "vil": 2808,
      "Ġprecio": 2809,
      "Ġcompras": 2810,
      "Ġchar": 2811,
      "ĠdeberÃŃan": 2812,
      "ĠquerrÃŃa": 2813,
      "Ġluna": 2814,
      "Ġalegra": 2815,
      "Ġalegro": 2816,
      "Ġflor": 2817,
      "ĠpÃ¡jaro": 2818,
      "Ġencima": 2819,
      "Ġenfadado": 2820,
      "madamente": 2821,
      "Ġej": 2822,
      "este": 2823,
      "Ġtengas": 2824,
      "ĠperdÃ³n": 2825,
      "vido": 2826,
      "ĠgustÃ³": 2827,
      "Ġabuela": 2828,
      "Ġpiz": 2829,
      "Ġllena": 2830,
      "Ã©rica": 2831,
      "Ġordenador": 2832,
      "Ġvuestra": 2833,
      "Ġconvencer": 2834,
      "ĠinformaciÃ³n": 2835,
      "Ġsatisfe": 2836,
      "iza": 2837,
      "enes": 2838,
      "Ġbara": 2839,
      "irÃŃa": 2840,
      "Ġofer": 2841,
      "ĠtenÃ©is": 2842,
      "tivos": 2843,
      "Ġjunto": 2844,
      "Ġespal": 2845,
      "Ġllega": 2846,
      "Ġbur": 2847,
      "tantes": 2848,
      "Ġpul": 2849,
      "queta": 2850,
      "Ġmenor": 2851,
      "Ġprima": 2852,
      "Ġbuscar": 2853,
      "tillo": 2854,
      "Ġvarias": 2855,
      "Ġespecial": 2856,
      "Ġpresidente": 2857,
      "Ġoferta": 2858,
      "gor": 2859,
      "Ġdeli": 2860,
      "ÃŃsi": 2861,
      "Ġsepa": 2862,
      "letas": 2863,
      "ĠhabrÃ¡": 2864,
      "Ġcamp": 2865,
      "Ġchina": 2866,
      "Ġdecirte": 2867,
      "Ġpesar": 2868,
      "Ġolvidado": 2869,
      "Ġcambio": 2870,
      "Ġsacar": 2871,
      "Ġherido": 2872,
      "ticos": 2873,
      "Ġterrible": 2874,
      "Ġrepente": 2875,
      "Ġidiomas": 2876,
      "Ġperfecto": 2877,
      "Ġpermiso": 2878,
      "ĠmatemÃ¡ticas": 2879,
      "tieron": 2880,
      "ular": 2881,
      "vando": 2882,
      "Ġenter": 2883,
      "inÃ³": 2884,
      "Ġtrai": 2885,
      "Ġllamas": 2886,
      "Ġmejores": 2887,
      "Ġhaberte": 2888,
      "Ġnuestras": 2889,
      "ĠnegÃ³": 2890,
      "Ġcierra": 2891,
      "Ġbonita": 2892,
      "Ġarroz": 2893,
      "Ġobser": 2894,
      "Ġfracas": 2895,
      "Ġsilencio": 2896,
      "mado": 2897,
      "Ġeras": 2898,
      "Ġafortun": 2899,
      "Ġdan": 2900,
      "Ġcl": 2901,
      "Ġsir": 2902,
      "ĠtomÃ©": 2903,
      "rob": 2904,
      "Ġhamb": 2905,
      "Ġdigo": 2906,
      "Ġpocas": 2907,
      "Ġdebajo": 2908,
      "loso": 2909,
      "ĠsoÃ±": 2910,
      "gaste": 2911,
      "Ġingen": 2912,
      "Ġescucha": 2913,
      "Ġescribe": 2914,
      "Ġinteresa": 2915,
      "Ġmill": 2916,
      "Ġdespacio": 2917,
      "itas": 2918,
      "table": 2919,
      "vera": 2920,
      "Ġqueso": 2921,
      "davÃŃa": 2922,
      "Ġfras": 2923,
      "todavÃŃa": 2924,
      "alguien": 2925,
      "ĠtenÃŃas": 2926,
      "dados": 2927,
      "Ġbienven": 2928,
      "Ġtratando": 2929,
      "Ġseguridad": 2930,
      "ĠsintiÃ³": 2931,
      "Ġjugado": 2932,
      "ĠquerÃŃas": 2933,
      "ĠbotÃ³n": 2934,
      "ĠlÃ¡piz": 2935,
      "Ġveinte": 2936,
      "Ġmaravillos": 2937,
      "fr": 2938,
      "ona": 2939,
      "leza": 2940,
      "Ġsuici": 2941,
      "Ġrecha": 2942,
      "Ġhacerte": 2943,
      "Ġverde": 2944,
      "Ã¡nd": 2945,
      "Ġnatura": 2946,
      "Ġayude": 2947,
      "Ġdespierto": 2948,
      "Ġdices": 2949,
      "Ġprestar": 2950,
      "ĠÃºtil": 2951,
      "Ġquiso": 2952,
      "Ġvalor": 2953,
      "Ġdeseo": 2954,
      "Ġaceptar": 2955,
      "ĠprometiÃ³": 2956,
      "Ġcorreo": 2957,
      "Ġrenun": 2958,
      "Ġsoportar": 2959,
      "Ġcarrera": 2960,
      "bles": 2961,
      "Ã³ma": 2962,
      "rio": 2963,
      "miÃ³": 2964,
      "Ġhayas": 2965,
      "Ġcie": 2966,
      "Ġexplica": 2967,
      "Ġquedarte": 2968,
      "Ġsentim": 2969,
      "Ġagradable": 2970,
      "Ġvosotras": 2971,
      "Ġuti": 2972,
      "ĠpÃ¡jaros": 2973,
      "Ġenojado": 2974,
      "dra": 2975,
      "ior": 2976,
      "itos": 2977,
      "idas": 2978,
      "mamente": 2979,
      "zando": 2980,
      "Ġ3": 2981,
      "Ġef": 2982,
      "Ġejer": 2983,
      "Ġabre": 2984,
      "Ġdocu": 2985,
      "Ġesf": 2986,
      "Ġesco": 2987,
      "Ġviste": 2988,
      "chi": 2989,
      "ĠmuÃ±": 2990,
      "Ġojo": 2991,
      "Ġmaes": 2992,
      "Ġmapa": 2993,
      "ĠsonÃ³": 2994,
      "Ġresto": 2995,
      "Ġsof": 2996,
      "Ġautom": 2997,
      "Ġconfun": 2998,
      "ĠganÃ³": 2999,
      "Ġmiemb": 3000,
      "Ġjuega": 3001,
      "Ġpreparado": 3002,
      "Ġmedicina": 3003,
      "Ġsorprendido": 3004,
      "Ġvarios": 3005,
      "Ġcomputado": 3006,
      "Ġenemigo": 3007,
      "Ġfrecuencia": 3008,
      "Ġeuropa": 3009,
      "ĠmuÃ±ec": 3010,
      "gÃŃa": 3011,
      "Ġem": 3012,
      "Ġparado": 3013,
      "tario": 3014,
      "Ã¡ndo": 3015,
      "tubre": 3016,
      "illas": 3017,
      "Ġllen": 3018,
      "Ġdemasi": 3019,
      "Ġnosotras": 3020,
      "Ġmintiendo": 3021,
      "ĠintenciÃ³n": 3022,
      "ĠlevantÃ³": 3023,
      "ĠpÃ¡g": 3024,
      "Ġfotograf": 3025,
      "Ġdescubr": 3026,
      "Ġcontacto": 3027,
      "Ġperfec": 3028,
      "Ġoctubre": 3029,
      "Ġsentimientos": 3030,
      "fic": 3031,
      "Ġlentes": 3032,
      "Ã³ven": 3033,
      "Ġens": 3034,
      "Ġfri": 3035,
      "Ġotras": 3036,
      "ĠreÃŃr": 3037,
      "guiÃ³": 3038,
      "caciÃ³n": 3039,
      "ĠjÃ³ven": 3040,
      "Ġabajo": 3041,
      "Ġarres": 3042,
      "Ġroto": 3043,
      "Ġcerc": 3044,
      "Ġcerrar": 3045,
      "Ġraz": 3046,
      "Ġcambiado": 3047,
      "Ġplatos": 3048,
      "Ġnormal": 3049,
      "ĠÃ©sta": 3050,
      "Ġdescans": 3051,
      "Ġsegundo": 3052,
      "Ġaburrido": 3053,
      "Ġrecuper": 3054,
      "Ġejerci": 3055,
      "ĠjÃ³venes": 3056,
      "edad": 3057,
      "jada": 3058,
      "Ġur": 3059,
      "ĠcÃ¡n": 3060,
      "Ġhier": 3061,
      "ĠhÃ¡b": 3062,
      "Ġtomado": 3063,
      "ables": 3064,
      "ĠsegÃºn": 3065,
      "Ġperman": 3066,
      "Ġandar": 3067,
      "Ġnuevos": 3068,
      "Ġhumor": 3069,
      "Ġpresen": 3070,
      "Ġfeli": 3071,
      "Ġsuele": 3072,
      "Ġcansada": 3073,
      "Ġcualquiera": 3074,
      "ĠconocÃŃ": 3075,
      "ĠsorprendiÃ³": 3076,
      "Ġencuentro": 3077,
      "Ġsangre": 3078,
      "ĠquizÃ¡s": 3079,
      "ĠtrÃ¡fico": 3080,
      "Ġdepende": 3081,
      "ĠbolÃŃgrafo": 3082,
      "ror": 3083,
      "Ġton": 3084,
      "Ġsientes": 3085,
      "Ã¡bamos": 3086,
      "tamento": 3087,
      "ienta": 3088,
      "Ġhablan": 3089,
      "ĠverÃ©": 3090,
      "Ġapun": 3091,
      "Ġtratar": 3092,
      "Ġpies": 3093,
      "Ġnueve": 3094,
      "Ġjugue": 3095,
      "Ġbosque": 3096,
      "Ġdarle": 3097,
      "ĠvolverÃ¡": 3098,
      "Ġfamili": 3099,
      "ĠopciÃ³n": 3100,
      "ĠintentÃ©": 3101,
      "ĠenseÃ±ar": 3102,
      "ĠconocÃŃa": 3103,
      "Ġvayamos": 3104,
      "Ġhazlo": 3105,
      "ĠladrÃ³n": 3106,
      "Ġgob": 3107,
      "Ġresfriado": 3108,
      "ĠrÃ¡pidamente": 3109,
      "Ġidiota": 3110,
      "gada": 3111,
      "rez": 3112,
      "laciÃ³n": 3113,
      "istas": 3114,
      "ĠparÃ³": 3115,
      "Ġtema": 3116,
      "Ġproh": 3117,
      "Ġpreci": 3118,
      "mido": 3119,
      "Ġhielo": 3120,
      "Ġcob": 3121,
      "Ġvender": 3122,
      "Ġtraer": 3123,
      "Ġparecen": 3124,
      "podemos": 3125,
      "Ġroja": 3126,
      "Ġhermanas": 3127,
      "Ġhum": 3128,
      "ĠamÃ©rica": 3129,
      "virtiÃ³": 3130,
      "Ġhicimos": 3131,
      "Ġdiscurso": 3132,
      "Ġenferma": 3133,
      "Ġvieja": 3134,
      "Ġcolec": 3135,
      "ĠpelÃŃculas": 3136,
      "ĠÃ¡rboles": 3137,
      "Ġadelante": 3138,
      "Ġcumpl": 3139,
      "Ġpertenece": 3140,
      "ĠsoluciÃ³n": 3141,
      "Ġculpable": 3142,
      "Ġinocente": 3143,
      "Ġisla": 3144,
      "daba": 3145,
      "ebre": 3146,
      "ĠcÃ³": 3147,
      "Ġclu": 3148,
      "Ã¡m": 3149,
      "adores": 3150,
      "Ġpastel": 3151,
      "Ġrara": 3152,
      "Ġservi": 3153,
      "Ġcap": 3154,
      "Ġdecidir": 3155,
      "Ġchicas": 3156,
      "Ġarru": 3157,
      "Ġesperanza": 3158,
      "Ġconocido": 3159,
      "Ġideas": 3160,
      "Ġsorpresa": 3161,
      "Ġventanas": 3162,
      "Ġpintura": 3163,
      "Ġescapar": 3164,
      "Ġnervioso": 3165,
      "Ġgrupo": 3166,
      "Ġpaciencia": 3167,
      "Ġclub": 3168,
      "rÃ©": 3169,
      "Ġago": 3170,
      "Ġlon": 3171,
      "Ġcir": 3172,
      "Ġcentro": 3173,
      "Ã³vil": 3174,
      "Ġbomb": 3175,
      "Ġcomun": 3176,
      "Ġmitad": 3177,
      "tida": 3178,
      "tidad": 3179,
      "Ġcasu": 3180,
      "selo": 3181,
      "Ġros": 3182,
      "Ġfuiste": 3183,
      "Ġirte": 3184,
      "ĠbaÃ±": 3185,
      "dencia": 3186,
      "Ġpone": 3187,
      "Ġprestado": 3188,
      "Ġoro": 3189,
      "Ġculpar": 3190,
      "Ġenferm": 3191,
      "Ġpelota": 3192,
      "Ġesconder": 3193,
      "Ġderecha": 3194,
      "Ġfruta": 3195,
      "Ġsospech": 3196,
      "usted": 3197,
      "Ġizquierda": 3198,
      "Ġespalda": 3199,
      "cal": 3200,
      "quilla": 3201,
      "Ġdetal": 3202,
      "Ġhon": 3203,
      "Ġviento": 3204,
      "telo": 3205,
      "Ġlee": 3206,
      "ĠvivÃŃa": 3207,
      "ĠsonriÃ³": 3208,
      "Ġcog": 3209,
      "Ġcarre": 3210,
      "Ġvolun": 3211,
      "Ġbaja": 3212,
      "Ġautor": 3213,
      "ĠescuchÃ³": 3214,
      "Ġinteresado": 3215,
      "Ġdesapar": 3216,
      "Ġ20": 3217,
      "Ġavergon": 3218,
      "Ġexplicar": 3219,
      "Ġnub": 3220,
      "ĠlÃŃnea": 3221,
      "Ġprimavera": 3222,
      "fÃ³n": 3223,
      "iamente": 3224,
      "neces": 3225,
      "Ġtonto": 3226,
      "Ġaje": 3227,
      "Ġavis": 3228,
      "ĠcÃ¡r": 3229,
      "ĠquÃŃ": 3230,
      "Ġquin": 3231,
      "dilla": 3232,
      "olo": 3233,
      "Ġmulti": 3234,
      "Ġtuya": 3235,
      "Ġprecios": 3236,
      "Ã¡ndose": 3237,
      "Ġsois": 3238,
      "Ġventa": 3239,
      "Ġestudio": 3240,
      "Ġescuchando": 3241,
      "000": 3242,
      "Ġdesayunar": 3243,
      "ĠsucediÃ³": 3244,
      "Ġaguan": 3245,
      "Ġprofundamente": 3246,
      "Ġmemoria": 3247,
      "Ġpopular": 3248,
      "ĠexplicaciÃ³n": 3249,
      "jando": 3250,
      "lus": 3251,
      "Ġdro": 3252,
      "inado": 3253,
      "Ġflau": 3254,
      "ĠleÃŃ": 3255,
      "ĠoyÃ³": 3256,
      "Ġrev": 3257,
      "Ġrey": 3258,
      "Ġdesh": 3259,
      "Ġras": 3260,
      "ibilidad": 3261,
      "Ġasp": 3262,
      "cionÃ³": 3263,
      "Ġnecesitan": 3264,
      "ĠcostÃ³": 3265,
      "Ġcigar": 3266,
      "Ġdarme": 3267,
      "Ġmone": 3268,
      "Ġdiscutir": 3269,
      "Ġllorando": 3270,
      "Ġhagamos": 3271,
      "Ġcaminando": 3272,
      "Ġoscuro": 3273,
      "Ġpierna": 3274,
      "Ġcomputador": 3275,
      "Ġentrada": 3276,
      "Ġchoco": 3277,
      "Ġprincipio": 3278,
      "Ġmanejar": 3279,
      "Ġofre": 3280,
      "ĠprisiÃ³n": 3281,
      "eto": 3282,
      "umo": 3283,
      "ye": 3284,
      "Ġacuer": 3285,
      "encias": 3286,
      "Ġdedo": 3287,
      "Ã¡c": 3288,
      "remo": 3289,
      "Ġsed": 3290,
      "Ġdibu": 3291,
      "ectos": 3292,
      "Ġinves": 3293,
      "adÃ³nde": 3294,
      "Ġpropi": 3295,
      "Ġpremi": 3296,
      "Ġsoldados": 3297,
      "Ġduda": 3298,
      "Ġnecesitar": 3299,
      "Ġempe": 3300,
      "Ġluces": 3301,
      "Ġinterru": 3302,
      "Ġvuelva": 3303,
      "ĠÃºltimamente": 3304,
      "Ġintenta": 3305,
      "Ġbrome": 3306,
      "Ġescaleras": 3307,
      "Ġfantas": 3308,
      "Ġpizza": 3309,
      "ĠsofÃ¡": 3310,
      "ĠcÃ¡rcel": 3311,
      "Ġflauta": 3312,
      "Ġinvesti": 3313,
      "com": 3314,
      "ll": 3315,
      "sable": 3316,
      "ĠÃ³": 3317,
      "Ġzo": 3318,
      "Ġecon": 3319,
      "eric": 3320,
      "Ġpeces": 3321,
      "Ġcuel": 3322,
      "Ġenor": 3323,
      "dame": 3324,
      "Ġfon": 3325,
      "Ġdiario": 3326,
      "Ġpob": 3327,
      "ĠquÃ©date": 3328,
      "Ġprogra": 3329,
      "Ġexcel": 3330,
      "Ġsolos": 3331,
      "cional": 3332,
      "Ġtrampa": 3333,
      "Ġtarje": 3334,
      "Ġarte": 3335,
      "Ġconoces": 3336,
      "ceso": 3337,
      "ĠpodÃ©s": 3338,
      "Ġ10": 3339,
      "ĠpaÃŃses": 3340,
      "Ġbols": 3341,
      "Ġterremo": 3342,
      "Ġpreocupes": 3343,
      "Ġmerece": 3344,
      "Ġcorrecta": 3345,
      "ĠgolpeÃ³": 3346,
      "Ġpromesa": 3347,
      "Ġmadera": 3348,
      "Ġmuseo": 3349,
      "Ġduerme": 3350,
      "ĠmÃ¡quina": 3351,
      "Ġcasualidad": 3352,
      "Ġchocolate": 3353,
      "Ġtos": 3354,
      "Ġtes": 3355,
      "Ġlan": 3356,
      "ĠtenÃŃan": 3357,
      "ĠhabÃŃas": 3358,
      "tira": 3359,
      "entas": 3360,
      "Ġcomplic": 3361,
      "Ġdelante": 3362,
      "Ġcapital": 3363,
      "ĠcorriÃ³": 3364,
      "Ġvisita": 3365,
      "Ġverdadero": 3366,
      "traste": 3367,
      "Ġfiebre": 3368,
      "Ġharto": 3369,
      "ĠdarÃ©": 3370,
      "Ġmodo": 3371,
      "Ġconsciente": 3372,
      "Ġacabado": 3373,
      "ĠrobÃ³": 3374,
      "ĠpreferirÃŃa": 3375,
      "Ġhonesto": 3376,
      "Ġurg": 3377,
      "ho": 3378,
      "Ġdas": 3379,
      "Ġdeten": 3380,
      "onces": 3381,
      "Ġfas": 3382,
      "Ġgar": 3383,
      "Ġsur": 3384,
      "icado": 3385,
      "guir": 3386,
      "Ġcasar": 3387,
      "Ġcasas": 3388,
      "Ġgusto": 3389,
      "ĠcreÃŃ": 3390,
      "Ġcola": 3391,
      "ĠpreguntÃ©": 3392,
      "anoche": 3393,
      "ello": 3394,
      "pod": 3395,
      "Ġencontra": 3396,
      "estÃ¡n": 3397,
      "ĠaprendÃŃ": 3398,
      "Ġpiens": 3399,
      "Ġboda": 3400,
      "Ġprofesora": 3401,
      "Ġbasura": 3402,
      "Ġposibilidad": 3403,
      "Ġrobado": 3404,
      "Ġconocen": 3405,
      "ĠresultÃ³": 3406,
      "Ġcele": 3407,
      "ĠexplicÃ³": 3408,
      "Ġtrans": 3409,
      "Ġpuse": 3410,
      "Ġnegocios": 3411,
      "Ġcuerpo": 3412,
      "Ġgalletas": 3413,
      "Ġchaqueta": 3414,
      "Ġcerrada": 3415,
      "Ġcomporta": 3416,
      "Ġadiv": 3417,
      "Ġmultitud": 3418,
      "gal": 3419,
      "icul": 3420,
      "Ġater": 3421,
      "Ġcla": 3422,
      "Ġdep": 3423,
      "Ġestan": 3424,
      "Ġvier": 3425,
      "Ġali": 3426,
      "Ġyenes": 3427,
      "Ġpartir": 3428,
      "Ġreh": 3429,
      "Ġviviendo": 3430,
      "Ġcasarse": 3431,
      "Ġhechos": 3432,
      "Ġcance": 3433,
      "ĠmaÃ±anas": 3434,
      "Ġducha": 3435,
      "Ġhaberme": 3436,
      "ĠbajÃ³": 3437,
      "Ġamaba": 3438,
      "Ġgrave": 3439,
      "Ġdificul": 3440,
      "ĠfrÃŃa": 3441,
      "tines": 3442,
      "Ġencantan": 3443,
      "Ġcomenzar": 3444,
      "ĠconsiguiÃ³": 3445,
      "ĠllamarÃ©": 3446,
      "ĠechÃ³": 3447,
      "ĠpropÃ³": 3448,
      "Ġdescanso": 3449,
      "Ġnegocio": 3450,
      "Ġcuerda": 3451,
      "Ġsonrisa": 3452,
      "Ġabsolutamente": 3453,
      "gÃ¼en": 3454,
      "Ġbilletera": 3455,
      "Ġexcepto": 3456,
      "Ġencuentra": 3457,
      "Ġsatisfecho": 3458,
      "Ġfrase": 3459,
      "ĠcÃ¡ncer": 3460,
      "Ġexcelente": 3461,
      "bi": 3462,
      "bil": 3463,
      "ede": 3464,
      "gados": 3465,
      "imo": 3466,
      "Ġpl": 3467,
      "Ġmente": 3468,
      "ork": 3469,
      "Ġelig": 3470,
      "ieran": 3471,
      "Ġhables": 3472,
      "Ġincre": 3473,
      "tara": 3474,
      "Ġverdu": 3475,
      "ĠmatÃ³": 3476,
      "Ġexis": 3477,
      "Ġcorto": 3478,
      "ĠcortÃ³": 3479,
      "Ġpreguntaba": 3480,
      "Ġbajar": 3481,
      "ĠllÃ¡m": 3482,
      "Ġcalce": 3483,
      "Ġmaleta": 3484,
      "Ġescribiendo": 3485,
      "ĠcambiÃ³": 3486,
      "Ġocupados": 3487,
      "Ġhablado": 3488,
      "Ġllamada": 3489,
      "Ġmedianoche": 3490,
      "Ġresultado": 3491,
      "ĠmostrÃ³": 3492,
      "Ġries": 3493,
      "Ġvine": 3494,
      "Ġacordar": 3495,
      "Ġincendio": 3496,
      "Ġaveriguar": 3497,
      "Ġhambr": 3498,
      "cens": 3499,
      "dres": 3500,
      "ejo": 3501,
      "jera": 3502,
      "ĠtÃŃa": 3503,
      "Ġsiste": 3504,
      "Ġdedos": 3505,
      "Ã©ramos": 3506,
      "char": 3507,
      "amiento": 3508,
      "Ġtuviera": 3509,
      "Ġapues": 3510,
      "Ġsalvo": 3511,
      "Ġreser": 3512,
      "Ġascens": 3513,
      "ĠdecidÃŃ": 3514,
      "Ġcargo": 3515,
      "Ġencar": 3516,
      "quete": 3517,
      "Ġdiscus": 3518,
      "Ġdistancia": 3519,
      "ĠartÃŃ": 3520,
      "dul": 3521,
      "Ġpasaporte": 3522,
      "Ġhubi": 3523,
      "Ġpreocupa": 3524,
      "Ġhuele": 3525,
      "Ġjaponeses": 3526,
      "Ġabandonar": 3527,
      "Ġpiernas": 3528,
      "Ġbonito": 3529,
      "Ġobjetivo": 3530,
      "Ġejercicio": 3531,
      "Ġcumplir": 3532,
      "Ġlondres": 3533,
      "ĠpropÃ³sito": 3534,
      "zaron": 3535,
      "Ġon": 3536,
      "Ġdepor": 3537,
      "esper": 3538,
      "Ġnoches": 3539,
      "rac": 3540,
      "Ġalar": 3541,
      "Ġalco": 3542,
      "Ġalum": 3543,
      "leto": 3544,
      "Ġyork": 3545,
      "Ġteatro": 3546,
      "Ġdivor": 3547,
      "Ġcuesti": 3548,
      "tima": 3549,
      "Ġdeben": 3550,
      "Ġdebido": 3551,
      "Ġpreten": 3552,
      "Ġrica": 3553,
      "Ġsolas": 3554,
      "Ġapu": 3555,
      "Ġnativo": 3556,
      "Ġpron": 3557,
      "ĠcamiÃ³n": 3558,
      "Ġdeje": 3559,
      "Ġcantante": 3560,
      "Ġcorta": 3561,
      "Ġmentira": 3562,
      "Ġmale": 3563,
      "Ġestadoun": 3564,
      "Ġdarte": 3565,
      "ĠescuchÃ©": 3566,
      "ĠrecibÃŃ": 3567,
      "Ġhermoso": 3568,
      "Ġoscuridad": 3569,
      "Ġeleg": 3570,
      "Ġelegir": 3571,
      "Ġlinda": 3572,
      "Ġinmediato": 3573,
      "Ġcrimen": 3574,
      "Ġgeneral": 3575,
      "Ġdulce": 3576,
      "Ġpremio": 3577,
      "dentes": 3578,
      "dremos": 3579,
      "drez": 3580,
      "fa": 3581,
      "gres": 3582,
      "gri": 3583,
      "ĠpÃ©r": 3584,
      "Ġcep": 3585,
      "Ġesqui": 3586,
      "Ġnomb": 3587,
      "Ã©c": 3588,
      "Ġquejar": 3589,
      "ĠvÃ¡": 3590,
      "Ġcondi": 3591,
      "usti": 3592,
      "Ġocas": 3593,
      "rios": 3594,
      "Ġpropuesta": 3595,
      "ĠdebÃŃa": 3596,
      "ermer": 3597,
      "Ġcanciones": 3598,
      "Ġcompraste": 3599,
      "Ġdudo": 3600,
      "illos": 3601,
      "ĠtenÃŃamos": 3602,
      "jeras": 3603,
      "Ġexpres": 3604,
      "Ġgratis": 3605,
      "Ġpesa": 3606,
      "Ġobede": 3607,
      "ĠllegarÃ¡": 3608,
      "Ġempezando": 3609,
      "ĠfÃ¡br": 3610,
      "Ġmirar": 3611,
      "Ġlevanta": 3612,
      "Ġllamado": 3613,
      "ĠextraÃ±a": 3614,
      "ĠrespondiÃ³": 3615,
      "ĠapareciÃ³": 3616,
      "Ġpisto": 3617,
      "Ġbroma": 3618,
      "ĠdirÃ©": 3619,
      "Ġsupermer": 3620,
      "Ġperdonar": 3621,
      "ĠpolÃŃtica": 3622,
      "Ġocurrir": 3623,
      "Ġgobierno": 3624,
      "Ġprohib": 3625,
      "Ġajedrez": 3626,
      "Ġviernes": 3627,
      "Ġalcoh": 3628,
      "eas": 3629,
      "game": 3630,
      "ĠestÃ³ma": 3631,
      "Ã¡les": 3632,
      "ing": 3633,
      "Ġform": 3634,
      "ĠhabÃ©is": 3635,
      "Ġdieta": 3636,
      "Ġlastim": 3637,
      "Ġcasada": 3638,
      "Ġguste": 3639,
      "ĠayÃº": 3640,
      "Ġextre": 3641,
      "Ġapres": 3642,
      "ĠestarÃ¡s": 3643,
      "Ġtrae": 3644,
      "Ġvolar": 3645,
      "ĠquedarÃ©": 3646,
      "Ġconductor": 3647,
      "Ġpasamos": 3648,
      "ĠacabÃ³": 3649,
      "pira": 3650,
      "Ġbolso": 3651,
      "Ġromper": 3652,
      "ĠrecibiÃ³": 3653,
      "Ġapagar": 3654,
      "Ġdirig": 3655,
      "Ġsegunda": 3656,
      "Ġasesina": 3657,
      "Ġabsoluto": 3658,
      "Ġdistinguir": 3659,
      "Ġmurieron": 3660,
      "ĠlÃ¡gri": 3661,
      "Ġproteger": 3662,
      "Ġrecomen": 3663,
      "conoces": 3664,
      "Ġejemp": 3665,
      "Ġsistema": 3666,
      "ĠpÃ©rdida": 3667,
      "ĠestÃ³mago": 3668,
      "cri": 3669,
      "tÃ¡s": 3670,
      "Ġ30": 3671,
      "ĠdecÃŃ": 3672,
      "Ġdeporte": 3673,
      "Ġvuelo": 3674,
      "Ġsepar": 3675,
      "Ġsuyo": 3676,
      "Ġhacemos": 3677,
      "Ġcasti": 3678,
      "eratura": 3679,
      "Ġcaer": 3680,
      "Ġsalido": 3681,
      "Ġche": 3682,
      "Ġprobar": 3683,
      "vamos": 3684,
      "Ġvelo": 3685,
      "ĠmÃŃos": 3686,
      "Ġjuz": 3687,
      "Ġentero": 3688,
      "Ġameric": 3689,
      "ĠquerÃ©is": 3690,
      "ĠquerÃŃan": 3691,
      "izado": 3692,
      "Ġtemperatura": 3693,
      "Ġmuchacho": 3694,
      "ĠtrabajÃ³": 3695,
      "Ġdoble": 3696,
      "Ġresponsable": 3697,
      "Ġlimpia": 3698,
      "Ġrecibir": 3699,
      "Ġlenguas": 3700,
      "Ġpedirle": 3701,
      "Ġadop": 3702,
      "ĠÃ©stos": 3703,
      "Ġalcanzar": 3704,
      "Ġimpresion": 3705,
      "Ġenorme": 3706,
      "Ġencontramos": 3707,
      "Ġcomportamiento": 3708,
      "ĠdiscusiÃ³n": 3709,
      "nic": 3710,
      "Ġdedi": 3711,
      "Ġdetuvo": 3712,
      "ase": 3713,
      "esas": 3714,
      "Ã¡tico": 3715,
      "Ġvemos": 3716,
      "cida": 3717,
      "talla": 3718,
      "Ġconcen": 3719,
      "Ġgeme": 3720,
      "Ġtecho": 3721,
      "Ġhabi": 3722,
      "Ġfaci": 3723,
      "ĠcogiÃ³": 3724,
      "Ġcartera": 3725,
      "Ġdispon": 3726,
      "Ġarena": 3727,
      "ĠllÃ©": 3728,
      "inaciÃ³n": 3729,
      "ĠimportarÃŃa": 3730,
      "Ġgradu": 3731,
      "Ġobli": 3732,
      "Ġcometido": 3733,
      "Ġarrep": 3734,
      "Ġdesafortun": 3735,
      "Ġblanca": 3736,
      "Ġanimal": 3737,
      "Ġcaball": 3738,
      "Ġdespedir": 3739,
      "Ġrevista": 3740,
      "ĠvacÃŃa": 3741,
      "Ġcontestar": 3742,
      "Ġpoema": 3743,
      "ĠpÃ¡gina": 3744,
      "Ġsupermercado": 3745,
      "cÃŃa": 3746,
      "dis": 3747,
      "derÃŃa": 3748,
      "et": 3749,
      "sos": 3750,
      "uda": 3751,
      "Ġat": 3752,
      "Ġdent": 3753,
      "ancia": 3754,
      "Ġbeso": 3755,
      "alla": 3756,
      "Ġgr": 3757,
      "ĠsiÃ©n": 3758,
      "titu": 3759,
      "amento": 3760,
      "Ġlasti": 3761,
      "ĠpregÃºn": 3762,
      "Ġllegamos": 3763,
      "ĠpegÃ³": 3764,
      "Ġsolici": 3765,
      "ĠirÃ¡": 3766,
      "tual": 3767,
      "Ġpren": 3768,
      "Ġestudia": 3769,
      "ĠcerrÃ³": 3770,
      "Ġamena": 3771,
      "Ġsaberlo": 3772,
      "ĠsueÃ±os": 3773,
      "Ġcometer": 3774,
      "Ġdoce": 3775,
      "Ġaleg": 3776,
      "Ġrobaron": 3777,
      "Ġpintar": 3778,
      "Ġlistos": 3779,
      "Ġinvolu": 3780,
      "Ġaproxi": 3781,
      "Ġnariz": 3782,
      "ĠtendrÃ©": 3783,
      "Ġrecoger": 3784,
      "Ġpartici": 3785,
      "Ġarriba": 3786,
      "Ġgordo": 3787,
      "ĠeducaciÃ³n": 3788,
      "ĠsÃ¡bado": 3789,
      "Ġfresco": 3790,
      "Ġmaestro": 3791,
      "Ġdescansar": 3792,
      "Ġbromeando": 3793,
      "ju": 3794,
      "Ġadul": 3795,
      "ÃŃb": 3796,
      "Ġlab": 3797,
      "cin": 3798,
      "Ġbi": 3799,
      "Ġbre": 3800,
      "deo": 3801,
      "dito": 3802,
      "Ġpartes": 3803,
      "Ġrepe": 3804,
      "ĠviviÃ³": 3805,
      "Ġvivido": 3806,
      "Ġsabido": 3807,
      "Ġsalvar": 3808,
      "Ġuso": 3809,
      "Ġtrajo": 3810,
      "Ġchis": 3811,
      "Ġdespi": 3812,
      "Ġempec": 3813,
      "Ġempresa": 3814,
      "Ġocupar": 3815,
      "Ġponte": 3816,
      "ĠpodrÃ¡": 3817,
      "izar": 3818,
      "Ġausencia": 3819,
      "ĠfÃ¡cilmente": 3820,
      "Ġadentro": 3821,
      "Ġagrada": 3822,
      "Ġtalento": 3823,
      "ĠsubiÃ³": 3824,
      "Ġgenial": 3825,
      "Ġpiedra": 3826,
      "ĠridÃŃ": 3827,
      "Ġcorreos": 3828,
      "Ġempleados": 3829,
      "ĠbesÃ³": 3830,
      "Ġmentiroso": 3831,
      "Ġespacio": 3832,
      "Ġmuebles": 3833,
      "Ġarries": 3834,
      "Ġconfianza": 3835,
      "Ġinterrump": 3836,
      "Ġfacilidad": 3837,
      "Ġinvoluc": 3838,
      ".Â»": 3839,
      "cun": 3840,
      "caba": 3841,
      "taban": 3842,
      "val": 3843,
      "entar": 3844,
      "quil": 3845,
      "Ġqueb": 3846,
      "Ġtomando": 3847,
      "Ġconvers": 3848,
      "Ġalf": 3849,
      "Ġsuje": 3850,
      "ĠÃ©se": 3851,
      "tito": 3852,
      "tivamente": 3853,
      "Ġreme": 3854,
      "Ġparada": 3855,
      "Ġjac": 3856,
      "Ġanda": 3857,
      "Ġusu": 3858,
      "Ġpensado": 3859,
      "Ġnecesidad": 3860,
      "Ġjug": 3861,
      "Ġmotivo": 3862,
      "Ġganado": 3863,
      "ĠdormÃŃ": 3864,
      "Ġuniver": 3865,
      "Ġinvitados": 3866,
      "ĠpareciÃ³": 3867,
      "Ġinforme": 3868,
      "Ġantigu": 3869,
      "ĠabandonÃ³": 3870,
      "Ġenemi": 3871,
      "Ġtrozo": 3872,
      "ĠespaÃ±a": 3873,
      "Ġdevolver": 3874,
      "Ġconversa": 3875,
      "Ġweb": 3876,
      "Ġbarato": 3877,
      "ÃŃsimo": 3878,
      "Ġciego": 3879,
      "Ġfelicidad": 3880,
      "Ġcarretera": 3881,
      "ĠincreÃŃ": 3882,
      "Ġpistola": 3883,
      "ment": 3884,
      "rando": 3885,
      "zca": 3886,
      "zada": 3887,
      "Ġdoy": 3888,
      "Ġsens": 3889,
      "ini": 3890,
      "Ġmeter": 3891,
      "ĠalÃ©r": 3892,
      "moslo": 3893,
      "irar": 3894,
      "ĠtendrÃ¡": 3895,
      "Ġtendremos": 3896,
      "ĠhabÃŃan": 3897,
      "Ġita": 3898,
      "enten": 3899,
      "Ġesposo": 3900,
      "Ġanillo": 3901,
      "tencia": 3902,
      "Ġcop": 3903,
      "ĠsaltÃ³": 3904,
      "drÃ©": 3905,
      "Ġdura": 3906,
      "Ġespere": 3907,
      "Ġfrancia": 3908,
      "Ġayudara": 3909,
      "Ġllevas": 3910,
      "Ġaprendiendo": 3911,
      "Ġmover": 3912,
      "Ġmotor": 3913,
      "ĠpasarÃ¡": 3914,
      "ĠdÃ©bil": 3915,
      "Ġquedado": 3916,
      "Ġincor": 3917,
      "Ġaquellos": 3918,
      "Ġlimpi": 3919,
      "Ġhuevo": 3920,
      "Ġresultados": 3921,
      "Ġdiferentes": 3922,
      "Ġpiscina": 3923,
      "Ġjaponesa": 3924,
      "Ġllueva": 3925,
      "ĠtendrÃ¡s": 3926,
      "Ġbella": 3927,
      "Ġregalos": 3928,
      "Ġvecinos": 3929,
      "Ġemocion": 3930,
      "Ġnaranja": 3931,
      "Ġentren": 3932,
      "Ġcontrol": 3933,
      "Ġsencilla": 3934,
      "Ġcomputadora": 3935,
      "Ġfamiliar": 3936,
      "Ġquince": 3937,
      "Ġfondo": 3938,
      "Ġtarjeta": 3939,
      "ĠllÃ¡mame": 3940,
      "Ġextremadamente": 3941,
      "ĠlÃ¡grimas": 3942,
      "diente": 3943,
      "fac": 3944,
      "su": 3945,
      "tino": 3946,
      "Ġdieron": 3947,
      "Ġpez": 3948,
      "ene": 3949,
      "Ġdetener": 3950,
      "Ġhun": 3951,
      "Ġhuel": 3952,
      "cito": 3953,
      "ientas": 3954,
      "olÃ³": 3955,
      "cuÃ¡les": 3956,
      "Ġinde": 3957,
      "Ġinven": 3958,
      "Ġiremos": 3959,
      "Ġandando": 3960,
      "Ġpedido": 3961,
      "turas": 3962,
      "ĠnacÃŃ": 3963,
      "ĠprÃ¡c": 3964,
      "Ġcantando": 3965,
      "Ġarmas": 3966,
      "Ġarmar": 3967,
      "Ġcalma": 3968,
      "Ġmalas": 3969,
      "dense": 3970,
      "Ġayudarnos": 3971,
      "Ġbebo": 3972,
      "Ġcabo": 3973,
      "Ġmoder": 3974,
      "ĠpodrÃŃamos": 3975,
      "rarÃ¡": 3976,
      "ĠlevantÃ©": 3977,
      "Ġaccidentes": 3978,
      "Ġescondiendo": 3979,
      "Ġsupone": 3980,
      "Ġdisculpar": 3981,
      "Ġsupiera": 3982,
      "ĠmediodÃŃa": 3983,
      "Ġestrellas": 3984,
      "Ġrespeto": 3985,
      "ĠcientÃŃ": 3986,
      "Ġturno": 3987,
      "Ġdescubrir": 3988,
      "Ġempeor": 3989,
      "Ġceleb": 3990,
      "Ġcalcetines": 3991,
      "ĠartÃŃculo": 3992,
      "ĠfÃ¡brica": 3993,
      "Ġalcohol": 3994,
      "hi": 3995,
      "ira": 3996,
      "jus": 3997,
      "pÃ©": 3998,
      "tiste": 3999,
      "xto": 4000,
      "yos": 4001,
      "Ġase": 4002,
      "osos": 4003,
      "Ġdetes": 4004,
      "omba": 4005,
      "cimiento": 4006,
      "Ġhagan": 4007,
      "chÃ³": 4008,
      "dicos": 4009,
      "ĠmuÃ©s": 4010,
      "ĠcuÃ©n": 4011,
      "Ġretir": 4012,
      "guen": 4013,
      "guida": 4014,
      "Ġpodido": 4015,
      "Ġacento": 4016,
      "Ġacaso": 4017,
      "Ġmater": 4018,
      "Ġllame": 4019,
      "Ġdispuesto": 4020,
      "Ġparecer": 4021,
      "Ġvete": 4022,
      "Ġseguros": 4023,
      "estÃ¡is": 4024,
      "ĠharÃŃas": 4025,
      "Ġtermina": 4026,
      "Ġprofesores": 4027,
      "Ġhorrible": 4028,
      "rarse": 4029,
      "Ġintentado": 4030,
      "Ġhogar": 4031,
      "Ġhojas": 4032,
      "Ġenseguida": 4033,
      "Ġquedamos": 4034,
      "Ġdescono": 4035,
      "Ġpreparando": 4036,
      "ĠinvitÃ³": 4037,
      "Ġpantal": 4038,
      "Ġvistazo": 4039,
      "Ġinform": 4040,
      "ĠcrÃ©": 4041,
      "ĠdurmiÃ³": 4042,
      "Ġdeclar": 4043,
      "Ġocultar": 4044,
      "Ġjugador": 4045,
      "Ġbolsillo": 4046,
      "Ġterremoto": 4047,
      "Ġverduras": 4048,
      "Ġasesinato": 4049,
      "ĠincreÃŃble": 4050,
      "kson": 4051,
      "mÃ¡n": 4052,
      "vent": 4053,
      "yeron": 4054,
      "ĠÃ¡n": 4055,
      "Ġatro": 4056,
      "Ġlic": 4057,
      "Ġdeman": 4058,
      "Ġquitar": 4059,
      "ÃŃe": 4060,
      "Ã³m": 4061,
      "tale": 4062,
      "Ġmetro": 4063,
      "ĠparÃŃs": 4064,
      "ĠleyÃ³": 4065,
      "Ġteor": 4066,
      "Ġdestino": 4067,
      "ezas": 4068,
      "Ġrin": 4069,
      "Ġcoches": 4070,
      "gaciÃ³n": 4071,
      "Ġaho": 4072,
      "Ġpaga": 4073,
      "Ġvengas": 4074,
      "Ġimpi": 4075,
      "ella": 4076,
      "Ġesperan": 4077,
      "Ġdespre": 4078,
      "Ġentera": 4079,
      "Ġimportar": 4080,
      "Ġponga": 4081,
      "Ġaman": 4082,
      "Ġlim": 4083,
      "Ġcabello": 4084,
      "Ġnevar": 4085,
      "ĠconfÃŃo": 4086,
      "Ġhablamos": 4087,
      "Ġlevantar": 4088,
      "Ġlevantarse": 4089,
      "Ġplata": 4090,
      "Ġplato": 4091,
      "Ġviejos": 4092,
      "Ġdescon": 4093,
      "Ġtelevisor": 4094,
      "Ġpreparar": 4095,
      "Ġrecibido": 4096,
      "Ġabsur": 4097,
      "Ġesperamos": 4098,
      "Ġregresar": 4099,
      "Ġimagin": 4100,
      "estoy": 4101,
      "Ġestrella": 4102,
      "ĠdisparÃ³": 4103,
      "Ġfuerza": 4104,
      "Ġingenu": 4105,
      "Ġservicio": 4106,
      "Ġdetalles": 4107,
      "Ġcigarri": 4108,
      "Ġcuello": 4109,
      "Ġejemplo": 4110,
      "Ġjackson": 4111,
      "Ġpantalones": 4112,
      "ck": 4113,
      "ctos": 4114,
      "gÃ¡": 4115,
      "wi": 4116,
      "Ġprac": 4117,
      "ĠvÃŃ": 4118,
      "rea": 4119,
      "ĠfÃŃs": 4120,
      "rada": 4121,
      "lados": 4122,
      "Ġcomb": 4123,
      "cuenta": 4124,
      "Ġtec": 4125,
      "Ġhabilidad": 4126,
      "Ġrepu": 4127,
      "ĠsabÃŃas": 4128,
      "Ġcompe": 4129,
      "eraciÃ³n": 4130,
      "ĠserÃ©": 4131,
      "Ġsonre": 4132,
      "Ġcoge": 4133,
      "Ġmismos": 4134,
      "daste": 4135,
      "Ġcortar": 4136,
      "Ġpil": 4137,
      "ilÃ³": 4138,
      "Ġobra": 4139,
      "Ġolvida": 4140,
      "Ġvuelvas": 4141,
      "Ġcincuenta": 4142,
      "Ġmayores": 4143,
      "ĠllamÃ©": 4144,
      "ĠpequeÃ±os": 4145,
      "Ġdescrib": 4146,
      "Ġdeseando": 4147,
      "Ġcompleto": 4148,
      "Ġmolesta": 4149,
      "Ġcruzar": 4150,
      "Ġdisculpe": 4151,
      "Ġasistir": 4152,
      "Ġcomprender": 4153,
      "Ġnorte": 4154,
      "Ġdocumento": 4155,
      "ĠmuÃ±eca": 4156,
      "Ġemerg": 4157,
      "Ġenfermera": 4158,
      "Ġdrogas": 4159,
      "gÃ¼enza": 4160,
      "Ġapuesto": 4161,
      "Ġhubiese": 4162,
      "dero": 4163,
      "ka": 4164,
      "nde": 4165,
      "tina": 4166,
      "Ġran": 4167,
      "Ġesquina": 4168,
      "ord": 4169,
      "orro": 4170,
      "uelos": 4171,
      "Ġconc": 4172,
      "Ġalma": 4173,
      "Ġgros": 4174,
      "tidos": 4175,
      "ĠinÃº": 4176,
      "Ġinca": 4177,
      "Ġllegaste": 4178,
      "Ġserp": 4179,
      "daron": 4180,
      "Ġtanta": 4181,
      "Ġpata": 4182,
      "Ġpaquete": 4183,
      "Ġdejara": 4184,
      "Ġvende": 4185,
      "Ġllamo": 4186,
      "Ġdistra": 4187,
      "zamos": 4188,
      "Ġnuevas": 4189,
      "Ġamista": 4190,
      "Ġpollo": 4191,
      "ÃŃste": 4192,
      "ĠescribÃŃ": 4193,
      "ĠdejarÃ©": 4194,
      "puestas": 4195,
      "Ġderra": 4196,
      "Ġinvitado": 4197,
      "Ġponerse": 4198,
      "umen": 4199,
      "ĠdirÃŃa": 4200,
      "ĠmontaÃ±as": 4201,
      "ĠadmitiÃ³": 4202,
      "Ġencien": 4203,
      "Ġdefini": 4204,
      "Ġdecepcion": 4205,
      "Ġcuadro": 4206,
      "Ġnaranjas": 4207,
      "Ġutiliz": 4208,
      "Ġmiembros": 4209,
      "ĠfotografÃŃa": 4210,
      "Ġrazon": 4211,
      "Ġascensor": 4212,
      "cÃ©": 4213,
      "cciones": 4214,
      "jÃ©": 4215,
      "menta": 4216,
      "Ġatras": 4217,
      "ĠsÃ¡nd": 4218,
      "Ġhal": 4219,
      "Ġtomo": 4220,
      "abilidad": 4221,
      "talo": 4222,
      "inos": 4223,
      "ĠmetiÃ³": 4224,
      "lamos": 4225,
      "Ġbomba": 4226,
      "roe": 4227,
      "culos": 4228,
      "Ġtocando": 4229,
      "Ġcasados": 4230,
      "Ġtru": 4231,
      "ĠdebÃŃ": 4232,
      "Ġexcus": 4233,
      "Ġirnos": 4234,
      "tengo": 4235,
      "ĠniÃ±": 4236,
      "ĠmantÃ©n": 4237,
      "Ġliber": 4238,
      "ĠdurÃ³": 4239,
      "ĠesperÃ³": 4240,
      "tones": 4241,
      "Ġquerer": 4242,
      "Ġaprendido": 4243,
      "Ġmoda": 4244,
      "Ġquedaron": 4245,
      "tienen": 4246,
      "Ġmontar": 4247,
      "Ġllegaron": 4248,
      "Ġcintur": 4249,
      "ĠhablÃ©": 4250,
      "Ġhablaba": 4251,
      "Ġpasati": 4252,
      "Ġausente": 4253,
      "Ġrobo": 4254,
      "Ġequivocada": 4255,
      "tÃŃn": 4256,
      "Ġtrece": 4257,
      "Ġdormitorio": 4258,
      "ĠconvenciÃ³": 4259,
      "Ġcaballos": 4260,
      "Ġadecu": 4261,
      "Ġcris": 4262,
      "Ġpelea": 4263,
      "Ġexperim": 4264,
      "Ġintentarlo": 4265,
      "Ġtraducir": 4266,
      "Ġvecino": 4267,
      "Ġcomienzo": 4268,
      "Ġpicnic": 4269,
      "Ġcuidadoso": 4270,
      "Ġtranquilo": 4271,
      "ĠagarrÃ³": 4272,
      "ologÃŃa": 4273,
      "Ġnombres": 4274,
      "Ġincorrec": 4275,
      "ĠteorÃŃa": 4276,
      "ĠsÃ¡ndwi": 4277,
      "jÃ³n": 4278,
      "ric": 4279,
      "vÃ©s": 4280,
      "Ġ6": 4281,
      "Ġ8": 4282,
      "Ġlenta": 4283,
      "quÃŃ": 4284,
      "ÃŃfico": 4285,
      "one": 4286,
      "Ġenerg": 4287,
      "Ġsepas": 4288,
      "ismo": 4289,
      "iero": 4290,
      "dial": 4291,
      "ĠÃ©sa": 4292,
      "Ġoi": 4293,
      "Ġtem": 4294,
      "Ġtoalla": 4295,
      "Ġdesn": 4296,
      "Ġdestru": 4297,
      "Ġhacerse": 4298,
      "ĠdebiÃ³": 4299,
      "Ġmatri": 4300,
      "Ġespejo": 4301,
      "Ġapete": 4302,
      "tenÃ©s": 4303,
      "Ġabierto": 4304,
      "Ġsaliendo": 4305,
      "Ġusando": 4306,
      "ĠpagÃ³": 4307,
      "Ġmante": 4308,
      "Ġtrato": 4309,
      "Ġtratado": 4310,
      "Ġveamos": 4311,
      "Ġhaberle": 4312,
      "Ġjugo": 4313,
      "Ġescritor": 4314,
      "quieren": 4315,
      "Ġregis": 4316,
      "ĠfingiÃ³": 4317,
      "Ġmonte": 4318,
      "Ġintento": 4319,
      "sabe": 4320,
      "Ġbanda": 4321,
      "ĠlloviÃ³": 4322,
      "Ġderro": 4323,
      "Ġflu": 4324,
      "Ġmedic": 4325,
      "Ġpapas": 4326,
      "Ġatrapado": 4327,
      "Ġbordo": 4328,
      "Ġceloso": 4329,
      "Ġpermite": 4330,
      "ĠapagÃ³": 4331,
      "ĠdespertÃ©": 4332,
      "ĠrelaciÃ³n": 4333,
      "Ġanciana": 4334,
      "Ġaburri": 4335,
      "Ġprincipal": 4336,
      "Ġsueldo": 4337,
      "Ġefec": 4338,
      "Ġdemasiada": 4339,
      "Ġriesgo": 4340,
      "Ġpronun": 4341,
      "Ġprohibido": 4342,
      "Ġdesafortunadamente": 4343,
      "Ġcaballero": 4344,
      "Ġamistad": 4345,
      "ivo": 4346,
      "Ġdepar": 4347,
      "orn": 4348,
      "Ġquem": 4349,
      "Ġquedan": 4350,
      "ĠenviÃ³": 4351,
      "Ġaltos": 4352,
      "iertas": 4353,
      "Ġlogro": 4354,
      "didos": 4355,
      "Ã±Ã³": 4356,
      "Ġtexto": 4357,
      "Ġhablante": 4358,
      "Ġcurios": 4359,
      "ĠincÃ³mo": 4360,
      "Ãºrate": 4361,
      "trÃ³n": 4362,
      "Ġtuvieron": 4363,
      "Ġile": 4364,
      "empos": 4365,
      "Ġprovo": 4366,
      "laron": 4367,
      "Ã©ndo": 4368,
      "Ġsonar": 4369,
      "Ġsalga": 4370,
      "ĠpaÃ±": 4371,
      "Ġestuviste": 4372,
      "Ġmantuvo": 4373,
      "Ġcanta": 4374,
      "ĠtravÃ©s": 4375,
      "Ġimpues": 4376,
      "jate": 4377,
      "ilando": 4378,
      "Ġmundial": 4379,
      "Ġoblig": 4380,
      "Ġcambia": 4381,
      "Ġempezado": 4382,
      "Ġlevantarme": 4383,
      "licÃ³": 4384,
      "ĠcometiÃ³": 4385,
      "Ġentendido": 4386,
      "Ġvaliente": 4387,
      "Ġadver": 4388,
      "Ġinstru": 4389,
      "Ġapartamento": 4390,
      "Ġpeligros": 4391,
      "Ġllamarme": 4392,
      "Ġvotar": 4393,
      "Ġextranjeros": 4394,
      "Ġprometo": 4395,
      "triz": 4396,
      "Ġgritar": 4397,
      "ĠgritÃ³": 4398,
      "Ġmirada": 4399,
      "Ġadelan": 4400,
      "Ġsaludable": 4401,
      "Ġadmitir": 4402,
      "Ġfamosa": 4403,
      "ĠelecciÃ³n": 4404,
      "Ġpreferido": 4405,
      "Ġsobras": 4406,
      "Ġpreguntarle": 4407,
      "Ġtriun": 4408,
      "Ġconvertir": 4409,
      "ĠtÃŃmido": 4410,
      "ĠdescubriÃ³": 4411,
      "Ġbril": 4412,
      "Ġsospechoso": 4413,
      "ĠÃ³r": 4414,
      "Ġdeportes": 4415,
      "Ġesquiar": 4416,
      "ĠdecÃŃr": 4417,
      "Ġbreve": 4418,
      "Ġmantequilla": 4419,
      "ban": 4420,
      "col": 4421,
      "ctura": 4422,
      "mentos": 4423,
      "pens": 4424,
      "raron": 4425,
      "vieras": 4426,
      "Ġecha": 4427,
      "Ġavan": 4428,
      "Ġden": 4429,
      "Ġcel": 4430,
      "Ġmando": 4431,
      "arro": 4432,
      "anti": 4433,
      "Ã©Ã±": 4434,
      "Ġvest": 4435,
      "ciado": 4436,
      "Ġcont": 4437,
      "Ġalterna": 4438,
      "Ġsuger": 4439,
      "olviÃ³": 4440,
      "Ġindia": 4441,
      "tarios": 4442,
      "Ġdesma": 4443,
      "Ġcastillo": 4444,
      "Ġgustas": 4445,
      "Ġvernos": 4446,
      "trame": 4447,
      "ĠespaÃ±": 4448,
      "Ġsonido": 4449,
      "tumbre": 4450,
      "ĠsalÃŃ": 4451,
      "Ġasum": 4452,
      "Ġliberta": 4453,
      "ĠtratÃ©": 4454,
      "Ġchu": 4455,
      "Ġdise": 4456,
      "Ġcostumbre": 4457,
      "ĠmenÃº": 4458,
      "Ġrode": 4459,
      "Ġautos": 4460,
      "Ġencontraste": 4461,
      "ĠbebiÃ³": 4462,
      "ĠinterÃ©s": 4463,
      "Ġorig": 4464,
      "Ġingres": 4465,
      "Ġmoto": 4466,
      "Ġsentar": 4467,
      "ĠÃºltimos": 4468,
      "ticamente": 4469,
      "tuna": 4470,
      "Ġresponsab": 4471,
      "Ġconsigo": 4472,
      "Ġhombro": 4473,
      "Ġmillas": 4474,
      "Ġconvencido": 4475,
      "Ġadonde": 4476,
      "Ġagradecido": 4477,
      "ĠestÃºpida": 4478,
      "Ġnovelas": 4479,
      "Ġprofundo": 4480,
      "Ġguapo": 4481,
      "Ġbalonces": 4482,
      "Ġasustado": 4483,
      "Ġpromesas": 4484,
      "Ġcubierta": 4485,
      "Ġodian": 4486,
      "Ġcomienza": 4487,
      "Ġbienvenido": 4488,
      "Ġesfuerzo": 4489,
      "Ġavergonzado": 4490,
      "Ġfantasmas": 4491,
      "Ġurgente": 4492,
      "Ġrehus": 4493,
      "Ġlastimar": 4494,
      "ĠridÃŃculo": 4495,
      "Ġcopia": 4496,
      "Ġatrop": 4497,
      "Ġmatrimon": 4498,
      "ĠespaÃ±ol": 4499,
      "Ġbaloncesto": 4500,
      "bos": 4501,
      "gica": 4502,
      "mir": 4503,
      "tista": 4504,
      "Ġara": 4505,
      "Ġdale": 4506,
      "quis": 4507,
      "Ġdejo": 4508,
      "omÃŃa": 4509,
      "ĠhÃ©": 4510,
      "Ġhir": 4511,
      "oro": 4512,
      "ĠelÃ©c": 4513,
      "Ġlava": 4514,
      "cidos": 4515,
      "Ġconfer": 4516,
      "irte": 4517,
      "ĠtentaciÃ³n": 4518,
      "Ġhabido": 4519,
      "Ġredu": 4520,
      "ecÃŃa": 4521,
      "Ġpoca": 4522,
      "Ġhacerme": 4523,
      "Ġcompra": 4524,
      "Ġpeda": 4525,
      "dario": 4526,
      "ĠniÃ±as": 4527,
      "vel": 4528,
      "Ġnave": 4529,
      "Ġrespuestas": 4530,
      "Ġcamina": 4531,
      "ĠayudÃ©": 4532,
      "Ġcantidad": 4533,
      "terior": 4534,
      "Ġtrago": 4535,
      "Ġimpa": 4536,
      "Ġsuspen": 4537,
      "Ġseguido": 4538,
      "quito": 4539,
      "Ġbebiendo": 4540,
      "Ġquerido": 4541,
      "Ġgracioso": 4542,
      "Ġsentarme": 4543,
      "ĠmintiÃ³": 4544,
      "Ġpose": 4545,
      "Ġlevantado": 4546,
      "ĠenseÃ±a": 4547,
      "Ġrecientemente": 4548,
      "Ġcontrato": 4549,
      "Ġ18": 4550,
      "ĠllorÃ³": 4551,
      "Ġinsul": 4552,
      "Ġrobar": 4553,
      "Ġconocemos": 4554,
      "ĠcorrÃŃ": 4555,
      "Ġatraves": 4556,
      "tribu": 4557,
      "Ġclaramente": 4558,
      "Ġdisculpas": 4559,
      "Ġelef": 4560,
      "ĠregresÃ³": 4561,
      "Ġprincipi": 4562,
      "Ġorgullosa": 4563,
      "Ġgall": 4564,
      "Ġfirmar": 4565,
      "ĠtrÃ¡eme": 4566,
      "Ġenviar": 4567,
      "Ġbillete": 4568,
      "Ġmuertos": 4569,
      "Ġhablemos": 4570,
      "ĠrechazÃ³": 4571,
      "ĠofreciÃ³": 4572,
      "ĠayÃºdame": 4573,
      "Ġsencillamente": 4574,
      "olÃ³gico": 4575,
      "ĠinÃºtil": 4576,
      "ĠcinturÃ³n": 4577,
      "Ġpasatiempo": 4578,
      "Ġlibertad": 4579,
      "ĠelÃ©ctr": 4580,
      "..": 4581,
      "pien": 4582,
      "ses": 4583,
      "sÃŃ": 4584,
      "ula": 4585,
      "ĠÃŃ": 4586,
      "ĠadÃ³nde": 4587,
      "Ġdando": 4588,
      "ĠlÃ¡s": 4589,
      "Ġceb": 4590,
      "ĠmÃ³vil": 4591,
      "Ġestal": 4592,
      "Ġquedando": 4593,
      "Ġflo": 4594,
      "Ġfren": 4595,
      "Ġmez": 4596,
      "Ġlogra": 4597,
      "Ġsua": 4598,
      "Ġsupe": 4599,
      "Ġsuya": 4600,
      "Ġsupuesto": 4601,
      "irse": 4602,
      "Ġleo": 4603,
      "Ġletra": 4604,
      "Ġvivimos": 4605,
      "Ġdesor": 4606,
      "Ġpodamos": 4607,
      "Ġibas": 4608,
      "ezco": 4609,
      "toso": 4610,
      "Ġexa": 4611,
      "Ġcapi": 4612,
      "paje": 4613,
      "Ġsoci": 4614,
      "tano": 4615,
      "Ġimprob": 4616,
      "Ġnuevamente": 4617,
      "Ġvolumen": 4618,
      "uelto": 4619,
      "Ġayudarle": 4620,
      "raste": 4621,
      "Ġponiendo": 4622,
      "Ġharemos": 4623,
      "ĠcÃ³modo": 4624,
      "Ġequipaje": 4625,
      "ĠsentÃ©": 4626,
      "rarme": 4627,
      "Ġhubieras": 4628,
      "ticar": 4629,
      "Ġvienes": 4630,
      "Ġaquello": 4631,
      "tillas": 4632,
      "Ġocurrido": 4633,
      "Ġazu": 4634,
      "ĠaceptÃ³": 4635,
      "Ġencuent": 4636,
      "ĠabrÃŃ": 4637,
      "Ġcontac": 4638,
      "Ġguardar": 4639,
      "Ġsignificado": 4640,
      "Ġpelear": 4641,
      "Ġescalera": 4642,
      "Ġembara": 4643,
      "ĠcontinÃº": 4644,
      "Ġfirme": 4645,
      "Ġviolencia": 4646,
      "ĠtirÃ³": 4647,
      "chila": 4648,
      "ĠensÃ©Ã±": 4649,
      "Ġalumnos": 4650,
      "Ġrepetir": 4651,
      "Ġremedio": 4652,
      "Ġenemigos": 4653,
      "Ġdetesto": 4654,
      "ĠcrÃ©dito": 4655,
      "ĠimpidiÃ³": 4656,
      "Ġemergencia": 4657,
      "Ġlentamente": 4658,
      "Ġtriunf": 4659,
      "Ġmatrimonio": 4660,
      "ĠlÃ¡stima": 4661,
      "ĠcapitÃ¡n": 4662,
      "Ġimprobable": 4663,
      "berÃŃa": 4664,
      "cero": 4665,
      "fi": 4666,
      "fica": 4667,
      "hu": 4668,
      "ji": 4669,
      "tÃŃa": 4670,
      "xico": 4671,
      "ĠpÃ¡s": 4672,
      "Ġcd": 4673,
      "Ġcad": 4674,
      "arde": 4675,
      "Ã©ter": 4676,
      "ÃŃes": 4677,
      "Ġquedes": 4678,
      "ĠentrÃ©": 4679,
      "realmente": 4680,
      "temos": 4681,
      "Ġfer": 4682,
      "Ġger": 4683,
      "chu": 4684,
      "dez": 4685,
      "Ġloca": 4686,
      "dillas": 4687,
      "Ġcomes": 4688,
      "Ġsuf": 4689,
      "ĠsuÃ©ter": 4690,
      "ĠÃ©ramos": 4691,
      "Ġmudar": 4692,
      "Ã±ar": 4693,
      "Ġdivi": 4694,
      "Ġdieci": 4695,
      "ezca": 4696,
      "Ġacti": 4697,
      "Ġveras": 4698,
      "Ġhecha": 4699,
      "Ġlleve": 4700,
      "Ġexig": 4701,
      "Ġtantos": 4702,
      "garon": 4703,
      "Ġmister": 4704,
      "Ġasomb": 4705,
      "Ġpub": 4706,
      "Ġdiste": 4707,
      "Ġesperemos": 4708,
      "Ġamigas": 4709,
      "Ġhaberse": 4710,
      "Ġcalu": 4711,
      "lesc": 4712,
      "Ġguantes": 4713,
      "Ġimportancia": 4714,
      "Ġinterne": 4715,
      "Ġpresente": 4716,
      "Ġmochila": 4717,
      "Ġquedara": 4718,
      "Ġcierta": 4719,
      "Ġnadando": 4720,
      "Ġvienen": 4721,
      "Ġfortuna": 4722,
      "Ġfuner": 4723,
      "ĠpintÃ³": 4724,
      "Ġlimpio": 4725,
      "Ġpareja": 4726,
      "Ġafec": 4727,
      "ĠinventÃ³": 4728,
      "Ġrepent": 4729,
      "Ġmolesto": 4730,
      "Ġadolesc": 4731,
      "Ġcanadienses": 4732,
      "Ġagradec": 4733,
      "Ġcompartir": 4734,
      "Ġdisfra": 4735,
      "Ġlinterna": 4736,
      "Ġpusieron": 4737,
      "Ġembar": 4738,
      "Ġiguales": 4739,
      "ĠvacÃŃo": 4740,
      "ĠÃ¡rea": 4741,
      "ĠvendrÃŃa": 4742,
      "Ġdelicioso": 4743,
      "Ġafortunado": 4744,
      "Ġperfectamente": 4745,
      "Ġnubes": 4746,
      "podÃ©s": 4747,
      "Ġpiensan": 4748,
      "Ġdepri": 4749,
      "Ġonce": 4750,
      "ĠcuestiÃ³n": 4751,
      "Ġdentista": 4752,
      "ĠpregÃºntale": 4753,
      "ĠconversaciÃ³n": 4754,
      "Ġarmario": 4755,
      "Ġingenuo": 4756,
      "Ġpatatas": 4757,
      "Ġsuave": 4758,
      "Ġazules": 4759,
      "geno": 4760,
      "lle": 4761,
      "mienta": 4762,
      "pendo": 4763,
      "urr": 4764,
      "yendo": 4765,
      "zz": 4766,
      "Ġ4": 4767,
      "Ġ7": 4768,
      "Ġafe": 4769,
      "ĠpÃ©s": 4770,
      "Ġdele": 4771,
      "Ġnotas": 4772,
      "Ġlavado": 4773,
      "ciera": 4774,
      "cieron": 4775,
      "inario": 4776,
      "Ġmeta": 4777,
      "Ġcontado": 4778,
      "Ġconden": 4779,
      "Ġalqui": 4780,
      "Ġcoma": 4781,
      "olar": 4782,
      "irÃ³": 4783,
      "Ġculti": 4784,
      "Ġinver": 4785,
      "Ġactor": 4786,
      "Ġacceso": 4787,
      "lida": 4788,
      "ĠcreyÃ³": 4789,
      "Ġrue": 4790,
      "Ġservir": 4791,
      "Ġexten": 4792,
      "Ġmandar": 4793,
      "Ġpudimos": 4794,
      "Ġestaremos": 4795,
      "Ġarran": 4796,
      "Ġesperado": 4797,
      "ĠvolvÃŃ": 4798,
      "Ġrota": 4799,
      "gase": 4800,
      "ĠdeberÃŃais": 4801,
      "ĠhuyÃ³": 4802,
      "Ġplanea": 4803,
      "Ġore": 4804,
      "Ġorgan": 4805,
      "Ġescuchado": 4806,
      "Ġconsul": 4807,
      "Ġcansados": 4808,
      "Ġtrabajado": 4809,
      "Ġdob": 4810,
      "Ġcapaces": 4811,
      "Ġinvitar": 4812,
      "Ġafi": 4813,
      "Ġocurra": 4814,
      "Ġatrac": 4815,
      "uerzos": 4816,
      "Ġbaile": 4817,
      "Ġdespertar": 4818,
      "Ġagradezco": 4819,
      "Ġvayan": 4820,
      "Ġbelleza": 4821,
      "minis": 4822,
      "ĠviolÃŃn": 4823,
      "ĠseÃ±al": 4824,
      "Ġmillones": 4825,
      "Ã¡ndome": 4826,
      "Ġagotado": 4827,
      "Ġdeshac": 4828,
      "ĠzoolÃ³gico": 4829,
      "Ġalarma": 4830,
      "Ġaproximadamente": 4831,
      "Ġitalia": 4832,
      "Ġincapa": 4833,
      "Ġdefinitivamente": 4834,
      "Ġrazonable": 4835,
      "ĠhÃ©roe": 4836,
      "Ġinternet": 4837,
      "cados": 4838,
      "dÃ¡": 4839,
      "ex": 4840,
      "ni": 4841,
      "rÃŃas": 4842,
      "Ġecho": 4843,
      "Ġatas": 4844,
      "Ġpen": 4845,
      "Ġciencia": 4846,
      "untos": 4847,
      "ÃŃos": 4848,
      "Ġengor": 4849,
      "Ġfar": 4850,
      "Ġcontrar": 4851,
      "Ġbras": 4852,
      "leo": 4853,
      "cula": 4854,
      "Ġmiel": 4855,
      "ĠtocÃ³": 4856,
      "Ġtoques": 4857,
      "Ġsimp": 4858,
      "Ġrelig": 4859,
      "metros": 4860,
      "Ġvives": 4861,
      "Ġespec": 4862,
      "Ġllego": 4863,
      "Ġron": 4864,
      "Ġrieron": 4865,
      "Ġpelu": 4866,
      "Ġsoltero": 4867,
      "Ġfuma": 4868,
      "Ġsalida": 4869,
      "Ġsalario": 4870,
      "Ġestupendo": 4871,
      "ĠcantÃ³": 4872,
      "Ġvenden": 4873,
      "Ġtareas": 4874,
      "Ġpiel": 4875,
      "Ġpidiendo": 4876,
      "Ġartista": 4877,
      "Ġcose": 4878,
      "diÃ³s": 4879,
      "ĠconociÃ³": 4880,
      "Ġvolviendo": 4881,
      "Ġgranja": 4882,
      "Ġpersonal": 4883,
      "Ġbebida": 4884,
      "Ġaprende": 4885,
      "Ġconfes": 4886,
      "Ġvuelvo": 4887,
      "Ġconduce": 4888,
      "Ġpasajeros": 4889,
      "Ġtrabajadores": 4890,
      "Ġhola": 4891,
      "Ġacabar": 4892,
      "Ġplacer": 4893,
      "Ġcolina": 4894,
      "ĠalemÃ¡n": 4895,
      "Ġrumor": 4896,
      "ĠllevarÃ¡": 4897,
      "Ġterror": 4898,
      "ĠcanadÃ¡": 4899,
      "Ġambas": 4900,
      "Ġdespedido": 4901,
      "Ġrelajar": 4902,
      "Ġbrazos": 4903,
      "Ġactuar": 4904,
      "Ġahorrar": 4905,
      "ĠÂ«Â¿": 4906,
      "Ġllamaste": 4907,
      "Ġmaravillosa": 4908,
      "Ġmaravilloso": 4909,
      "Ġfrigor": 4910,
      "ĠpoblaciÃ³n": 4911,
      "Ġvelocidad": 4912,
      "Ġconcentrar": 4913,
      "ĠempecÃ©": 4914,
      "Ġefectivo": 4915,
      "Ġcuriosidad": 4916,
      "Ġgerente": 4917,
      "Ġfuneral": 4918,
      "?Â»": 4919,
      "be": 4920,
      "gia": 4921,
      "pl": 4922,
      "rÃŃb": 4923,
      "tres": 4924,
      "ual": 4925,
      "Ġdaba": 4926,
      "ĠpÃ³n": 4927,
      "Ġplu": 4928,
      "ĠplÃ¡": 4929,
      "arios": 4930,
      "Ġsano": 4931,
      "Ġdeme": 4932,
      "omo": 4933,
      "estu": 4934,
      "ĠhÃ¡": 4935,
      "Ġquede": 4936,
      "ciosa": 4937,
      "cientos": 4938,
      "todo": 4939,
      "Ġsecun": 4940,
      "Ġbe": 4941,
      "Ġalcal": 4942,
      "Ġcomas": 4943,
      "Ã±ado": 4944,
      "cular": 4945,
      "Ġtemb": 4946,
      "Ġdivir": 4947,
      "Ġregu": 4948,
      "Ġperio": 4949,
      "taria": 4950,
      "Ġviva": 4951,
      "Ã©spe": 4952,
      "Ġtiempos": 4953,
      "Ġcrea": 4954,
      "oraciÃ³n": 4955,
      "Ġanun": 4956,
      "Ġansi": 4957,
      "Ġfueras": 4958,
      "ĠirÃŃa": 4959,
      "Ġescla": 4960,
      "Ġasumo": 4961,
      "Ġpagado": 4962,
      "icio": 4963,
      "Ġpilo": 4964,
      "cara": 4965,
      "Ġluch": 4966,
      "Ġprimo": 4967,
      "siones": 4968,
      "Ġpongas": 4969,
      "Ġponerte": 4970,
      "Ġregla": 4971,
      "Ġpolvo": 4972,
      "Ġlig": 4973,
      "Ġboleto": 4974,
      "Ġsaca": 4975,
      "Ġconsejos": 4976,
      "Ġherida": 4977,
      "Ġtempor": 4978,
      "Ġentregar": 4979,
      "Ġformas": 4980,
      "ĠmÃºsico": 4981,
      "Ġaparte": 4982,
      "Ġocurre": 4983,
      "ĠordenÃ³": 4984,
      "Ġviniera": 4985,
      "Ġviniste": 4986,
      "Ġvinieron": 4987,
      "Ġapaga": 4988,
      "Ġdisculpa": 4989,
      "Ġcruel": 4990,
      "Ġescalar": 4991,
      "Ġelectri": 4992,
      "ĠocÃ©": 4993,
      "Ġenfadada": 4994,
      "ĠregalÃ³": 4995,
      "Ġataque": 4996,
      "ĠimpresiÃ³n": 4997,
      "Ġprision": 4998,
      "Ġapoyo": 4999
    },
    "merges": [
      [
        "Ġ",
        "e"
      ],
      [
        "Ġ",
        "t"
      ],
      [
        "Ġ",
        "a"
      ],
      [
        "Ġ",
        "d"
      ],
      [
        "Ġ",
        "l"
      ],
      [
        "e",
        "r"
      ],
      [
        "Ġ",
        "p"
      ],
      [
        "Ġ",
        "c"
      ],
      [
        "Ġ",
        "m"
      ],
      [
        "Ġe",
        "s"
      ],
      [
        "a",
        "r"
      ],
      [
        "e",
        "n"
      ],
      [
        "Ġ",
        "s"
      ],
      [
        "q",
        "u"
      ],
      [
        "o",
        "s"
      ],
      [
        "Ġ",
        "n"
      ],
      [
        "Ġd",
        "e"
      ],
      [
        "Ġ",
        "qu"
      ],
      [
        "o",
        "m"
      ],
      [
        "a",
        "s"
      ],
      [
        "e",
        "s"
      ],
      [
        "d",
        "o"
      ],
      [
        "a",
        "n"
      ],
      [
        "Ġ",
        "h"
      ],
      [
        "Ã",
        "©"
      ],
      [
        "u",
        "n"
      ],
      [
        "Ã",
        "Ń"
      ],
      [
        "o",
        "n"
      ],
      [
        "o",
        "r"
      ],
      [
        "Ġes",
        "t"
      ],
      [
        "Ġqu",
        "e"
      ],
      [
        "Ã",
        "³"
      ],
      [
        "Ġn",
        "o"
      ],
      [
        "Ġt",
        "om"
      ],
      [
        "Ã",
        "¡"
      ],
      [
        "Ġe",
        "l"
      ],
      [
        "Ġl",
        "a"
      ],
      [
        "Ġ",
        "v"
      ],
      [
        "Ġ",
        "Â"
      ],
      [
        "Ġ",
        "un"
      ],
      [
        "Ġe",
        "n"
      ],
      [
        "r",
        "e"
      ],
      [
        "t",
        "e"
      ],
      [
        "ĠÂ",
        "¿"
      ],
      [
        "a",
        "b"
      ],
      [
        "c",
        "i"
      ],
      [
        "t",
        "a"
      ],
      [
        "i",
        "n"
      ],
      [
        "d",
        "a"
      ],
      [
        "Ġ",
        "f"
      ],
      [
        "ÃŃ",
        "a"
      ],
      [
        "u",
        "e"
      ],
      [
        "i",
        "en"
      ],
      [
        "t",
        "o"
      ],
      [
        "r",
        "a"
      ],
      [
        "Ġs",
        "e"
      ],
      [
        "Ġm",
        "e"
      ],
      [
        "Ġc",
        "on"
      ],
      [
        "l",
        "a"
      ],
      [
        "Ġ",
        "b"
      ],
      [
        "i",
        "s"
      ],
      [
        "a",
        "l"
      ],
      [
        "r",
        "o"
      ],
      [
        "Ġa",
        "l"
      ],
      [
        "Ġh",
        "a"
      ],
      [
        "u",
        "s"
      ],
      [
        "l",
        "e"
      ],
      [
        "Ġ",
        "g"
      ],
      [
        "i",
        "er"
      ],
      [
        "c",
        "h"
      ],
      [
        "Ġ",
        "y"
      ],
      [
        "d",
        "e"
      ],
      [
        "Ġl",
        "o"
      ],
      [
        "d",
        "i"
      ],
      [
        "m",
        "os"
      ],
      [
        "g",
        "o"
      ],
      [
        "Ã¡",
        "s"
      ],
      [
        "Ã³",
        "n"
      ],
      [
        "Ġc",
        "om"
      ],
      [
        "Ġp",
        "ar"
      ],
      [
        "Ġs",
        "u"
      ],
      [
        "a",
        "do"
      ],
      [
        "o",
        "l"
      ],
      [
        "i",
        "r"
      ],
      [
        "Ġ",
        "Ã©"
      ],
      [
        "Ġm",
        "u"
      ],
      [
        "Ã",
        "±"
      ],
      [
        "Ġun",
        "a"
      ],
      [
        "m",
        "p"
      ],
      [
        "Ġp",
        "or"
      ],
      [
        "Ġl",
        "e"
      ],
      [
        "ĠÃ©",
        "l"
      ],
      [
        "c",
        "u"
      ],
      [
        "Ġest",
        "Ã¡"
      ],
      [
        "Ġ",
        "o"
      ],
      [
        "i",
        "c"
      ],
      [
        "ab",
        "a"
      ],
      [
        "Ġm",
        "i"
      ],
      [
        "en",
        "te"
      ],
      [
        "o",
        "y"
      ],
      [
        "Ġt",
        "e"
      ],
      [
        "r",
        "es"
      ],
      [
        "l",
        "o"
      ],
      [
        "Ġt",
        "o"
      ],
      [
        "Ġm",
        "ar"
      ],
      [
        "Ġt",
        "en"
      ],
      [
        "Ġl",
        "os"
      ],
      [
        "an",
        "do"
      ],
      [
        "Ġh",
        "ab"
      ],
      [
        "Ġd",
        "i"
      ],
      [
        "Ġc",
        "u"
      ],
      [
        "Ġs",
        "i"
      ],
      [
        "t",
        "i"
      ],
      [
        "Ġ",
        "re"
      ],
      [
        "e",
        "c"
      ],
      [
        "Ġp",
        "er"
      ],
      [
        "Ġ",
        "in"
      ],
      [
        "Ã",
        "º"
      ],
      [
        "r",
        "i"
      ],
      [
        "a",
        "m"
      ],
      [
        "j",
        "o"
      ],
      [
        "Ġpar",
        "a"
      ],
      [
        "g",
        "u"
      ],
      [
        "t",
        "r"
      ],
      [
        "t",
        "ar"
      ],
      [
        "Ġmar",
        "y"
      ],
      [
        "Ġp",
        "ue"
      ],
      [
        "Ġha",
        "c"
      ],
      [
        "Ġqu",
        "ier"
      ],
      [
        "Ġel",
        "la"
      ],
      [
        "Ġl",
        "as"
      ],
      [
        "da",
        "d"
      ],
      [
        "Ġt",
        "ien"
      ],
      [
        "Ġm",
        "Ã¡s"
      ],
      [
        "a",
        "d"
      ],
      [
        "Ġt",
        "u"
      ],
      [
        "m",
        "e"
      ],
      [
        "Ġv",
        "i"
      ],
      [
        "c",
        "a"
      ],
      [
        "Ġde",
        "s"
      ],
      [
        "Ġc",
        "as"
      ],
      [
        "a",
        "da"
      ],
      [
        "Ġest",
        "a"
      ],
      [
        "Ġp",
        "o"
      ],
      [
        "Ġqu",
        "Ã©"
      ],
      [
        "Ġ",
        "i"
      ],
      [
        "v",
        "i"
      ],
      [
        "m",
        "o"
      ],
      [
        "c",
        "o"
      ],
      [
        "r",
        "an"
      ],
      [
        "er",
        "o"
      ],
      [
        "Ġ",
        "j"
      ],
      [
        "m",
        "a"
      ],
      [
        "ci",
        "Ã³n"
      ],
      [
        "Ġy",
        "o"
      ],
      [
        "Ġg",
        "us"
      ],
      [
        "e",
        "z"
      ],
      [
        "ch",
        "o"
      ],
      [
        "Ġhac",
        "er"
      ],
      [
        "Ġa",
        "c"
      ],
      [
        "Ġt",
        "r"
      ],
      [
        "Ã©",
        "s"
      ],
      [
        "s",
        "e"
      ],
      [
        "e",
        "mp"
      ],
      [
        "Ġes",
        "o"
      ],
      [
        "Ġp",
        "ro"
      ],
      [
        "Ġde",
        "b"
      ],
      [
        "Ġv",
        "er"
      ],
      [
        "Ġt",
        "i"
      ],
      [
        "l",
        "i"
      ],
      [
        "t",
        "ra"
      ],
      [
        "an",
        "a"
      ],
      [
        "d",
        "os"
      ],
      [
        "Ġest",
        "oy"
      ],
      [
        "Ġp",
        "re"
      ],
      [
        "g",
        "un"
      ],
      [
        "Ġh",
        "e"
      ],
      [
        "Ġs",
        "ab"
      ],
      [
        "en",
        "t"
      ],
      [
        "Ġmu",
        "y"
      ],
      [
        "m",
        "ente"
      ],
      [
        "Ġa",
        "qu"
      ],
      [
        "Ġcom",
        "p"
      ],
      [
        "b",
        "re"
      ],
      [
        "Ġm",
        "a"
      ],
      [
        "m",
        "i"
      ],
      [
        "Ġp",
        "as"
      ],
      [
        "v",
        "o"
      ],
      [
        "ec",
        "es"
      ],
      [
        "Ġest",
        "e"
      ],
      [
        "Ġes",
        "p"
      ],
      [
        "er",
        "a"
      ],
      [
        "Ġc",
        "re"
      ],
      [
        "Ġde",
        "l"
      ],
      [
        "Ġtien",
        "e"
      ],
      [
        "l",
        "ar"
      ],
      [
        "t",
        "os"
      ],
      [
        "Ã¡",
        "n"
      ],
      [
        "qu",
        "Ã©"
      ],
      [
        "Ġten",
        "go"
      ],
      [
        "Ġquier",
        "o"
      ],
      [
        "Ġa",
        "y"
      ],
      [
        "Ġl",
        "le"
      ],
      [
        "Ġaqu",
        "ÃŃ"
      ],
      [
        "Ġest",
        "aba"
      ],
      [
        "Ġf",
        "ue"
      ],
      [
        "or",
        "a"
      ],
      [
        "t",
        "es"
      ],
      [
        "Ġ",
        "r"
      ],
      [
        "Ġa",
        "n"
      ],
      [
        "Ġh",
        "i"
      ],
      [
        "Ġp",
        "e"
      ],
      [
        "ÃŃ",
        "as"
      ],
      [
        "Ġs",
        "er"
      ],
      [
        "Ġe",
        "x"
      ],
      [
        "i",
        "b"
      ],
      [
        "Ġs",
        "ol"
      ],
      [
        "Ġa",
        "p"
      ],
      [
        "d",
        "ar"
      ],
      [
        "Ã©",
        "n"
      ],
      [
        "Ġt",
        "an"
      ],
      [
        "Ġtr",
        "aba"
      ],
      [
        "Ġf",
        "u"
      ],
      [
        "l",
        "os"
      ],
      [
        "Ġcas",
        "a"
      ],
      [
        "Ġ",
        "ir"
      ],
      [
        "v",
        "er"
      ],
      [
        "t",
        "en"
      ],
      [
        "Ġc",
        "a"
      ],
      [
        "Ġn",
        "os"
      ],
      [
        "Ġf",
        "a"
      ],
      [
        "ch",
        "e"
      ],
      [
        "Ġv",
        "a"
      ],
      [
        "Ġs",
        "on"
      ],
      [
        "Ġc",
        "o"
      ],
      [
        "p",
        "or"
      ],
      [
        "t",
        "as"
      ],
      [
        "d",
        "es"
      ],
      [
        "u",
        "es"
      ],
      [
        "t",
        "u"
      ],
      [
        "g",
        "ar"
      ],
      [
        "i",
        "do"
      ],
      [
        "Ġcom",
        "o"
      ],
      [
        "Ġes",
        "c"
      ],
      [
        "Ġn",
        "i"
      ],
      [
        "v",
        "e"
      ],
      [
        "Ġest",
        "o"
      ],
      [
        "er",
        "ÃŃa"
      ],
      [
        "Ġto",
        "do"
      ],
      [
        "i",
        "o"
      ],
      [
        "v",
        "or"
      ],
      [
        "g",
        "a"
      ],
      [
        "Ġa",
        "b"
      ],
      [
        "p",
        "a"
      ],
      [
        "e",
        "mos"
      ],
      [
        "Ġha",
        "y"
      ],
      [
        "Ġn",
        "eces"
      ],
      [
        "Ã±",
        "o"
      ],
      [
        "Ġfa",
        "vor"
      ],
      [
        "Ġm",
        "is"
      ],
      [
        "Ġa",
        "h"
      ],
      [
        "Ġal",
        "go"
      ],
      [
        "en",
        "s"
      ],
      [
        "Ġs",
        "al"
      ],
      [
        "Ġn",
        "a"
      ],
      [
        "emp",
        "o"
      ],
      [
        "Ġp",
        "r"
      ],
      [
        "Ġ",
        "res"
      ],
      [
        "Ġgus",
        "ta"
      ],
      [
        "Ġa",
        "s"
      ],
      [
        "i",
        "Ã©n"
      ],
      [
        "Ġti",
        "empo"
      ],
      [
        "Ġs",
        "o"
      ],
      [
        "Ġb",
        "u"
      ],
      [
        "i",
        "ta"
      ],
      [
        "Ġc",
        "am"
      ],
      [
        "Ġ",
        "us"
      ],
      [
        "m",
        "as"
      ],
      [
        "Ġp",
        "a"
      ],
      [
        "t",
        "Ã³"
      ],
      [
        "er",
        "m"
      ],
      [
        "Ġest",
        "u"
      ],
      [
        "Ã±",
        "os"
      ],
      [
        "Ġto",
        "dos"
      ],
      [
        "Ġm",
        "an"
      ],
      [
        "ien",
        "do"
      ],
      [
        "Ġn",
        "ada"
      ],
      [
        "d",
        "r"
      ],
      [
        "Ġay",
        "u"
      ],
      [
        "d",
        "er"
      ],
      [
        "Ġpue",
        "do"
      ],
      [
        "Ġbu",
        "en"
      ],
      [
        "Ġb",
        "ien"
      ],
      [
        "t",
        "ro"
      ],
      [
        "Ġde",
        "j"
      ],
      [
        "t",
        "an"
      ],
      [
        "Ġe",
        "ra"
      ],
      [
        "Ġde",
        "ci"
      ],
      [
        "ci",
        "on"
      ],
      [
        "Ãº",
        "n"
      ],
      [
        "Ġp",
        "u"
      ],
      [
        "Ġc",
        "ar"
      ],
      [
        "ic",
        "a"
      ],
      [
        "ci",
        "a"
      ],
      [
        "Ġmu",
        "cho"
      ],
      [
        "Ġen",
        "c"
      ],
      [
        "Ġc",
        "an"
      ],
      [
        "qu",
        "e"
      ],
      [
        "Ġv",
        "ez"
      ],
      [
        "Ġv",
        "en"
      ],
      [
        "z",
        "o"
      ],
      [
        "Ġl",
        "ib"
      ],
      [
        "Ġcu",
        "ando"
      ],
      [
        "Ġs",
        "Ã©"
      ],
      [
        "ic",
        "o"
      ],
      [
        "i",
        "Ã³"
      ],
      [
        "c",
        "e"
      ],
      [
        "l",
        "as"
      ],
      [
        "Ġpue",
        "de"
      ],
      [
        "Ã³",
        "mo"
      ],
      [
        "Ġest",
        "ar"
      ],
      [
        "t",
        "er"
      ],
      [
        "Ġcomp",
        "r"
      ],
      [
        "Ġp",
        "ens"
      ],
      [
        "ĠÂ",
        "¡"
      ],
      [
        "Ġt",
        "ra"
      ],
      [
        "Ã³n",
        "de"
      ],
      [
        "i",
        "ci"
      ],
      [
        "ad",
        "re"
      ],
      [
        "Ġcre",
        "o"
      ],
      [
        "d",
        "as"
      ],
      [
        "un",
        "ca"
      ],
      [
        "Ġc",
        "h"
      ],
      [
        "Ġma",
        "Ã±"
      ],
      [
        "Ġd",
        "u"
      ],
      [
        "Ġsol",
        "o"
      ],
      [
        "Ġl",
        "la"
      ],
      [
        "Ġn",
        "unca"
      ],
      [
        "Ġc",
        "or"
      ],
      [
        "Ġy",
        "a"
      ],
      [
        "Ġpro",
        "b"
      ],
      [
        "n",
        "o"
      ],
      [
        "Ġd",
        "is"
      ],
      [
        "Ġh",
        "as"
      ],
      [
        "Ġt",
        "ar"
      ],
      [
        "Ġp",
        "i"
      ],
      [
        "j",
        "e"
      ],
      [
        "Ġa",
        "r"
      ],
      [
        "Ġi",
        "mp"
      ],
      [
        "i",
        "Ã³n"
      ],
      [
        "Ġs",
        "us"
      ],
      [
        "Ġmu",
        "ch"
      ],
      [
        "ĠmaÃ±",
        "ana"
      ],
      [
        "Ġpre",
        "gun"
      ],
      [
        "Ġneces",
        "i"
      ],
      [
        "l",
        "an"
      ],
      [
        "j",
        "a"
      ],
      [
        "ier",
        "a"
      ],
      [
        "Ġel",
        "los"
      ],
      [
        "Ġtraba",
        "jo"
      ],
      [
        "Ġah",
        "ora"
      ],
      [
        "Ġd",
        "in"
      ],
      [
        "an",
        "o"
      ],
      [
        "Ġpar",
        "ec"
      ],
      [
        "tr",
        "os"
      ],
      [
        "ta",
        "do"
      ],
      [
        "Ġdi",
        "jo"
      ],
      [
        "Ġme",
        "j"
      ],
      [
        "Ġc",
        "os"
      ],
      [
        "Ġhab",
        "lar"
      ],
      [
        "di",
        "Ã³"
      ],
      [
        "Ġdin",
        "ero"
      ],
      [
        "t",
        "or"
      ],
      [
        "Ġus",
        "te"
      ],
      [
        "v",
        "a"
      ],
      [
        "Ġs",
        "oy"
      ],
      [
        "p",
        "ar"
      ],
      [
        "cu",
        "Ã¡n"
      ],
      [
        "z",
        "a"
      ],
      [
        "d",
        "u"
      ],
      [
        "is",
        "te"
      ],
      [
        "e",
        "l"
      ],
      [
        "Ġn",
        "ue"
      ],
      [
        "Ġmej",
        "or"
      ],
      [
        "Ġd",
        "os"
      ],
      [
        "di",
        "e"
      ],
      [
        "Ġesp",
        "er"
      ],
      [
        "Ġdes",
        "p"
      ],
      [
        "Ġper",
        "o"
      ],
      [
        "Ġna",
        "die"
      ],
      [
        "i",
        "da"
      ],
      [
        "i",
        "l"
      ],
      [
        "m",
        "ar"
      ],
      [
        "p",
        "o"
      ],
      [
        "Ġf",
        "ran"
      ],
      [
        "Ġv",
        "e"
      ],
      [
        "ĠestÃ¡",
        "n"
      ],
      [
        "Ġcon",
        "o"
      ],
      [
        "Ġto",
        "da"
      ],
      [
        "Ġm",
        "ÃŃ"
      ],
      [
        "Ġes",
        "e"
      ],
      [
        "Ġse",
        "gu"
      ],
      [
        "i",
        "a"
      ],
      [
        "emp",
        "re"
      ],
      [
        "om",
        "bre"
      ],
      [
        "Ġa",
        "mi"
      ],
      [
        "t",
        "on"
      ],
      [
        "r",
        "os"
      ],
      [
        "Ġsi",
        "empre"
      ],
      [
        "Ġs",
        "in"
      ],
      [
        "Ġhab",
        "er"
      ],
      [
        "Ġn",
        "ues"
      ],
      [
        "Ġm",
        "en"
      ],
      [
        "Ġv",
        "is"
      ],
      [
        "Ġfran",
        "c"
      ],
      [
        "Ġhab",
        "ÃŃa"
      ],
      [
        "Ġv",
        "ol"
      ],
      [
        "Ġh",
        "oy"
      ],
      [
        "v",
        "en"
      ],
      [
        "Ġb",
        "a"
      ],
      [
        "r",
        "en"
      ],
      [
        "Ġv",
        "oy"
      ],
      [
        "Ġtom",
        "Ã¡s"
      ],
      [
        "Ġpo",
        "co"
      ],
      [
        "Ġe",
        "mp"
      ],
      [
        "Ġ",
        "ro"
      ],
      [
        "ci",
        "l"
      ],
      [
        "i",
        "ado"
      ],
      [
        "Ġd",
        "ÃŃa"
      ],
      [
        "Ġhac",
        "e"
      ],
      [
        "Ġa",
        "u"
      ],
      [
        "s",
        "on"
      ],
      [
        "Ġfranc",
        "Ã©s"
      ],
      [
        "Ġl",
        "l"
      ],
      [
        "Ġestu",
        "di"
      ],
      [
        "Ġenc",
        "on"
      ],
      [
        "Ġo",
        "cu"
      ],
      [
        "Ġlib",
        "ro"
      ],
      [
        "Ġc",
        "er"
      ],
      [
        "Ġal",
        "gun"
      ],
      [
        "Ġprob",
        "le"
      ],
      [
        "b",
        "a"
      ],
      [
        "Ġt",
        "Ãº"
      ],
      [
        "Ġest",
        "Ã¡s"
      ],
      [
        "ien",
        "to"
      ],
      [
        "Ġc",
        "al"
      ],
      [
        "Ġquier",
        "e"
      ],
      [
        "Ġg",
        "ran"
      ],
      [
        "Ġdeci",
        "r"
      ],
      [
        "Ġj",
        "u"
      ],
      [
        "j",
        "ar"
      ],
      [
        "l",
        "es"
      ],
      [
        "l",
        "ÃŃ"
      ],
      [
        "in",
        "o"
      ],
      [
        "Ġes",
        "a"
      ],
      [
        "Ġde",
        "mas"
      ],
      [
        "Ġtien",
        "es"
      ],
      [
        "p",
        "ue"
      ],
      [
        "Ġver",
        "dad"
      ],
      [
        "e",
        "b"
      ],
      [
        "Ġb",
        "os"
      ],
      [
        "Ġh",
        "erm"
      ],
      [
        "en",
        "to"
      ],
      [
        "p",
        "on"
      ],
      [
        "Ġm",
        "al"
      ],
      [
        "Ġper",
        "son"
      ],
      [
        "f",
        "er"
      ],
      [
        "d",
        "en"
      ],
      [
        "Ġt",
        "res"
      ],
      [
        "j",
        "os"
      ],
      [
        "tr",
        "ar"
      ],
      [
        "al",
        "mente"
      ],
      [
        "Ġqu",
        "erÃŃa"
      ],
      [
        "Ġten",
        "ÃŃa"
      ],
      [
        "m",
        "b"
      ],
      [
        "Ġtar",
        "de"
      ],
      [
        "Ġan",
        "tes"
      ],
      [
        "Ġesc",
        "ri"
      ],
      [
        "ab",
        "le"
      ],
      [
        "gu",
        "ien"
      ],
      [
        "Ġhi",
        "zo"
      ],
      [
        "f",
        "ici"
      ],
      [
        "Ġdemas",
        "iado"
      ],
      [
        "g",
        "ra"
      ],
      [
        "c",
        "ar"
      ],
      [
        "g",
        "as"
      ],
      [
        "Ġe",
        "res"
      ],
      [
        "Ġparec",
        "e"
      ],
      [
        "Ġen",
        "t"
      ],
      [
        "ad",
        "os"
      ],
      [
        "Ġsab",
        "e"
      ],
      [
        "ue",
        "l"
      ],
      [
        "i",
        "dad"
      ],
      [
        "v",
        "ÃŃa"
      ],
      [
        "Ġa",
        "Ã±os"
      ],
      [
        "tr",
        "as"
      ],
      [
        "en",
        "do"
      ],
      [
        "Ġso",
        "bre"
      ],
      [
        "Ġuste",
        "d"
      ],
      [
        "en",
        "ta"
      ],
      [
        "Ġayu",
        "dar"
      ],
      [
        "Ġ",
        "ra"
      ],
      [
        "es",
        "t"
      ],
      [
        "os",
        "o"
      ],
      [
        "Ġbos",
        "ton"
      ],
      [
        "Ġdeb",
        "er"
      ],
      [
        "ier",
        "on"
      ],
      [
        "n",
        "a"
      ],
      [
        "Ġcom",
        "er"
      ],
      [
        "g",
        "os"
      ],
      [
        "qu",
        "i"
      ],
      [
        "c",
        "Ã³mo"
      ],
      [
        "Ġmar",
        "ÃŃa"
      ],
      [
        "Ġp",
        "adre"
      ],
      [
        "Ġl",
        "u"
      ],
      [
        "qu",
        "ier"
      ],
      [
        "j",
        "er"
      ],
      [
        "Ġc",
        "i"
      ],
      [
        "r",
        "u"
      ],
      [
        "Ġno",
        "che"
      ],
      [
        "in",
        "a"
      ],
      [
        "d",
        "Ã³nde"
      ],
      [
        "Ġg",
        "u"
      ],
      [
        "Ġp",
        "ri"
      ],
      [
        "ri",
        "Ã³"
      ],
      [
        "Ġdeb",
        "erÃŃa"
      ],
      [
        "Ġpue",
        "des"
      ],
      [
        "qu",
        "iÃ©n"
      ],
      [
        "ti",
        "do"
      ],
      [
        "or",
        "m"
      ],
      [
        "Ġb",
        "eb"
      ],
      [
        "an",
        "te"
      ],
      [
        "Ġd",
        "ic"
      ],
      [
        "di",
        "do"
      ],
      [
        "r",
        "as"
      ],
      [
        "Ġh",
        "ora"
      ],
      [
        "Ã©",
        "is"
      ],
      [
        "tar",
        "ÃŃa"
      ],
      [
        "ÃŃ",
        "o"
      ],
      [
        "er",
        "te"
      ],
      [
        "Ġimp",
        "or"
      ],
      [
        "Ġ",
        "jo"
      ],
      [
        "di",
        "o"
      ],
      [
        "s",
        "i"
      ],
      [
        "ar",
        "on"
      ],
      [
        "Ġay",
        "er"
      ],
      [
        "p",
        "e"
      ],
      [
        "Ġh",
        "u"
      ],
      [
        "Ã±",
        "a"
      ],
      [
        "Ġp",
        "on"
      ],
      [
        "es",
        "ta"
      ],
      [
        "cu",
        "er"
      ],
      [
        "Ġpo",
        "dr"
      ],
      [
        "Ġnecesi",
        "to"
      ],
      [
        "d",
        "ÃŃ"
      ],
      [
        "Ġper",
        "ro"
      ],
      [
        "Ġal",
        "guien"
      ],
      [
        "Ġin",
        "ter"
      ],
      [
        "Ġse",
        "m"
      ],
      [
        "Ġten",
        "emos"
      ],
      [
        "Ġnos",
        "o"
      ],
      [
        "tan",
        "te"
      ],
      [
        "Ã¡",
        "l"
      ],
      [
        "gu",
        "a"
      ],
      [
        "Ġhas",
        "ta"
      ],
      [
        "Ġlle",
        "v"
      ],
      [
        "Ġtoda",
        "vÃŃa"
      ],
      [
        "Ġ",
        "ol"
      ],
      [
        "en",
        "a"
      ],
      [
        "Ġest",
        "ado"
      ],
      [
        "Ġco",
        "che"
      ],
      [
        "Ġas",
        "ÃŃ"
      ],
      [
        "li",
        "a"
      ],
      [
        "Ġre",
        "g"
      ],
      [
        "Ġvi",
        "da"
      ],
      [
        "Ġm",
        "es"
      ],
      [
        "Ġnue",
        "vo"
      ],
      [
        "Ġa",
        "m"
      ],
      [
        "Ġp",
        "res"
      ],
      [
        "on",
        "o"
      ],
      [
        "s",
        "o"
      ],
      [
        "Ġqu",
        "er"
      ],
      [
        "Ġf",
        "i"
      ],
      [
        "am",
        "ente"
      ],
      [
        "Ġp",
        "lan"
      ],
      [
        "Ġh",
        "ar"
      ],
      [
        "c",
        "es"
      ],
      [
        "Ġf",
        "e"
      ],
      [
        "Ġd",
        "ÃŃas"
      ],
      [
        "Ġg",
        "ente"
      ],
      [
        "an",
        "as"
      ],
      [
        "Ġhe",
        "cho"
      ],
      [
        "Ġau",
        "to"
      ],
      [
        "Ġpro",
        "f"
      ],
      [
        "Ġt",
        "erm"
      ],
      [
        "Ġhacer",
        "lo"
      ],
      [
        "Ġ",
        "or"
      ],
      [
        "er",
        "ta"
      ],
      [
        "Ġh",
        "ombre"
      ],
      [
        "Ġc",
        "Ã³mo"
      ],
      [
        "Ġex",
        "p"
      ],
      [
        "Ġf",
        "in"
      ],
      [
        "ue",
        "la"
      ],
      [
        "Ġmis",
        "mo"
      ],
      [
        "a",
        "c"
      ],
      [
        "g",
        "Ãºn"
      ],
      [
        "Ġg",
        "ra"
      ],
      [
        "ez",
        "a"
      ],
      [
        "Ġpens",
        "Ã©"
      ],
      [
        "Ġproble",
        "ma"
      ],
      [
        "Ġnoso",
        "tros"
      ],
      [
        "Ġg",
        "a"
      ],
      [
        "g",
        "Ã³"
      ],
      [
        "n",
        "os"
      ],
      [
        "Ġp",
        "ol"
      ],
      [
        "Ġl",
        "i"
      ],
      [
        "cion",
        "es"
      ],
      [
        "Ġm",
        "un"
      ],
      [
        "Ġap",
        "ren"
      ],
      [
        "am",
        "e"
      ],
      [
        "Ġquier",
        "es"
      ],
      [
        "d",
        "Ã³"
      ],
      [
        "Ġin",
        "g"
      ],
      [
        "y",
        "a"
      ],
      [
        "Ġp",
        "ien"
      ],
      [
        "Ġsab",
        "ÃŃa"
      ],
      [
        "Ġesta",
        "mos"
      ],
      [
        "om",
        "b"
      ],
      [
        "x",
        "i"
      ],
      [
        "Ġqu",
        "iÃ©n"
      ],
      [
        "Ġgus",
        "tarÃŃa"
      ],
      [
        "li",
        "z"
      ],
      [
        "l",
        "ti"
      ],
      [
        "Ġdi",
        "f"
      ],
      [
        "Ġc",
        "ab"
      ],
      [
        "Ġp",
        "es"
      ],
      [
        "ci",
        "o"
      ],
      [
        "Ġb",
        "o"
      ],
      [
        "Ġcompr",
        "ar"
      ],
      [
        "Ġo",
        "ÃŃ"
      ],
      [
        "Ġes",
        "cu"
      ],
      [
        "v",
        "is"
      ],
      [
        "Ġ",
        "Ãº"
      ],
      [
        "Ġpo",
        "d"
      ],
      [
        "Ġb",
        "us"
      ],
      [
        "Ġterm",
        "in"
      ],
      [
        "ci",
        "endo"
      ],
      [
        "ch",
        "a"
      ],
      [
        "Ġd",
        "ar"
      ],
      [
        "Ġo",
        "b"
      ],
      [
        "Ġm",
        "o"
      ],
      [
        "ÃŃ",
        "s"
      ],
      [
        "Ġque",
        "dar"
      ],
      [
        "Ġal",
        "lÃŃ"
      ],
      [
        "Ġescri",
        "b"
      ],
      [
        "Ġv",
        "as"
      ],
      [
        "Ġhab",
        "ita"
      ],
      [
        "Ġo",
        "tra"
      ],
      [
        "Ġmun",
        "do"
      ],
      [
        "Ġsem",
        "ana"
      ],
      [
        "Ġpri",
        "m"
      ],
      [
        "ab",
        "an"
      ],
      [
        "en",
        "cia"
      ],
      [
        "Ġdeber",
        "ÃŃas"
      ],
      [
        "Ġn",
        "e"
      ],
      [
        "ta",
        "mente"
      ],
      [
        "Ġol",
        "vi"
      ],
      [
        "Ġm",
        "adre"
      ],
      [
        "Ġcos",
        "as"
      ],
      [
        "on",
        "to"
      ],
      [
        "Ġj",
        "a"
      ],
      [
        "r",
        "r"
      ],
      [
        "Ġun",
        "o"
      ],
      [
        "t",
        "ien"
      ],
      [
        "Ġi",
        "de"
      ],
      [
        "Ġhabita",
        "ciÃ³n"
      ],
      [
        "ci",
        "as"
      ],
      [
        "Ãº",
        "s"
      ],
      [
        "t",
        "ir"
      ],
      [
        "Ġs",
        "en"
      ],
      [
        "Ã¡",
        "p"
      ],
      [
        "Ġsab",
        "er"
      ],
      [
        "Ġn",
        "in"
      ],
      [
        "ar",
        "io"
      ],
      [
        "Ġpu",
        "erta"
      ],
      [
        "or",
        "es"
      ],
      [
        "Ġm",
        "in"
      ],
      [
        "di",
        "a"
      ],
      [
        "ran",
        "te"
      ],
      [
        "Ġd",
        "Ã³nde"
      ],
      [
        "Ġm",
        "on"
      ],
      [
        "Ġcon",
        "f"
      ],
      [
        "li",
        "g"
      ],
      [
        "Ġt",
        "us"
      ],
      [
        "a",
        "y"
      ],
      [
        "Ġsegu",
        "ro"
      ],
      [
        "Ġni",
        "Ã±os"
      ],
      [
        "ci",
        "Ã³"
      ],
      [
        "b",
        "ol"
      ],
      [
        "v",
        "an"
      ],
      [
        "ar",
        "a"
      ],
      [
        "Ġesc",
        "uela"
      ],
      [
        "Ġcam",
        "b"
      ],
      [
        "cu",
        "Ã¡l"
      ],
      [
        "Ġcas",
        "i"
      ],
      [
        "is",
        "ta"
      ],
      [
        "Ġayu",
        "da"
      ],
      [
        "Ġami",
        "gos"
      ],
      [
        "Ġs",
        "ue"
      ],
      [
        "ÃŃ",
        "cil"
      ],
      [
        "Ġfu",
        "era"
      ],
      [
        "Ġdif",
        "ÃŃcil"
      ],
      [
        "u",
        "Ã©s"
      ],
      [
        "v",
        "ir"
      ],
      [
        "Ġdesp",
        "uÃ©s"
      ],
      [
        "mi",
        "go"
      ],
      [
        "l",
        "la"
      ],
      [
        "t",
        "Ã©"
      ],
      [
        "Ġe",
        "qui"
      ],
      [
        "ti",
        "Ã³"
      ],
      [
        "ra",
        "do"
      ],
      [
        "u",
        "l"
      ],
      [
        "Ġv",
        "uel"
      ],
      [
        "Ġpas",
        "ado"
      ],
      [
        "Ġhi",
        "ci"
      ],
      [
        "Ġc",
        "las"
      ],
      [
        "ĠÃº",
        "lti"
      ],
      [
        "o",
        "cu"
      ],
      [
        "Ġ",
        "\""
      ],
      [
        "Ġvol",
        "ver"
      ],
      [
        "Ġf",
        "r"
      ],
      [
        "Ġpr",
        "onto"
      ],
      [
        "Ġprof",
        "es"
      ],
      [
        "Ġa",
        "gua"
      ],
      [
        "ÃŃ",
        "an"
      ],
      [
        "Ġ",
        "os"
      ],
      [
        "Ġpodr",
        "ÃŃa"
      ],
      [
        "cuer",
        "do"
      ],
      [
        "g",
        "ado"
      ],
      [
        "Ġmen",
        "os"
      ],
      [
        "Ġlle",
        "gar"
      ],
      [
        "i",
        "z"
      ],
      [
        "u",
        "dad"
      ],
      [
        "Ġre",
        "c"
      ],
      [
        "Ġl",
        "es"
      ],
      [
        "d",
        "ente"
      ],
      [
        "Ġh",
        "or"
      ],
      [
        "Ġci",
        "udad"
      ],
      [
        "Ġv",
        "eces"
      ],
      [
        "Ġocu",
        "p"
      ],
      [
        "c",
        "er"
      ],
      [
        "Ġo",
        "tro"
      ],
      [
        "Ġfe",
        "liz"
      ],
      [
        "Ġp",
        "al"
      ],
      [
        "Ġmu",
        "jer"
      ],
      [
        "c",
        "ado"
      ],
      [
        "Ġmuch",
        "os"
      ],
      [
        "Ġide",
        "a"
      ],
      [
        "Ġc",
        "in"
      ],
      [
        "Ġhab",
        "la"
      ],
      [
        "Ġcon",
        "du"
      ],
      [
        "un",
        "to"
      ],
      [
        "on",
        "es"
      ],
      [
        "Ġbuen",
        "a"
      ],
      [
        "Ġneces",
        "ita"
      ],
      [
        "Ġdej",
        "ar"
      ],
      [
        "Ġencon",
        "trar"
      ],
      [
        "Ġah",
        "ÃŃ"
      ],
      [
        "c",
        "re"
      ],
      [
        "Ã¡",
        "r"
      ],
      [
        "l",
        "Ã©s"
      ],
      [
        "Ġb",
        "as"
      ],
      [
        "ti",
        "go"
      ],
      [
        "us",
        "o"
      ],
      [
        "cuÃ¡n",
        "do"
      ],
      [
        "Ġt",
        "a"
      ],
      [
        "re",
        "c"
      ],
      [
        "i",
        "m"
      ],
      [
        "Ġcom",
        "ida"
      ],
      [
        "Ġdi",
        "o"
      ],
      [
        "Ġca",
        "f"
      ],
      [
        "Ġni",
        "Ã±o"
      ],
      [
        "Ġing",
        "lÃ©s"
      ],
      [
        "Ġescu",
        "ch"
      ],
      [
        "Ġnues",
        "tro"
      ],
      [
        "p",
        "ues"
      ],
      [
        "Ġs",
        "ent"
      ],
      [
        "Ġs",
        "Ã³"
      ],
      [
        "Ġhab",
        "l"
      ],
      [
        "s",
        "a"
      ],
      [
        "Ġs",
        "a"
      ],
      [
        "os",
        "a"
      ],
      [
        "Ġma",
        "y"
      ],
      [
        "Ġl",
        "un"
      ],
      [
        "Ġp",
        "os"
      ],
      [
        "Ġcon",
        "se"
      ],
      [
        "di",
        "r"
      ],
      [
        "Ġto",
        "das"
      ],
      [
        "Ġcon",
        "migo"
      ],
      [
        "Ġemp",
        "ez"
      ],
      [
        "Ġf",
        "Ã¡"
      ],
      [
        "Ġf",
        "al"
      ],
      [
        "Ġr",
        "Ã¡p"
      ],
      [
        "g",
        "ue"
      ],
      [
        "Ġre",
        "almente"
      ],
      [
        "Ġa",
        "Ã±o"
      ],
      [
        "Ġm",
        "ir"
      ],
      [
        "pue",
        "do"
      ],
      [
        "t",
        "in"
      ],
      [
        "Ġse",
        "a"
      ],
      [
        "Ġv",
        "ino"
      ],
      [
        "de",
        "mos"
      ],
      [
        "Ġvis",
        "to"
      ],
      [
        "Ġte",
        "le"
      ],
      [
        "Ġtan",
        "to"
      ],
      [
        "r",
        "ar"
      ],
      [
        "am",
        "b"
      ],
      [
        "Ġdes",
        "de"
      ],
      [
        "z",
        "Ã³n"
      ],
      [
        "Ġn",
        "ombre"
      ],
      [
        "er",
        "on"
      ],
      [
        "Ġcaf",
        "Ã©"
      ],
      [
        "Ġd",
        "a"
      ],
      [
        "Ġdis",
        "cu"
      ],
      [
        "Ġpas",
        "a"
      ],
      [
        "Ġtom",
        "ar"
      ],
      [
        "Ġcon",
        "tigo"
      ],
      [
        "Ġin",
        "ten"
      ],
      [
        "Ġbuen",
        "o"
      ],
      [
        "Ġle",
        "van"
      ],
      [
        "Ġperson",
        "as"
      ],
      [
        "ĠsÃ³",
        "lo"
      ],
      [
        "i",
        "ar"
      ],
      [
        "Ġh",
        "er"
      ],
      [
        "al",
        "es"
      ],
      [
        "Ġten",
        "er"
      ],
      [
        "Ġac",
        "er"
      ],
      [
        "Ġfu",
        "i"
      ],
      [
        "Ġami",
        "go"
      ],
      [
        "ien",
        "te"
      ],
      [
        "Ġinter",
        "es"
      ],
      [
        "Ġg",
        "an"
      ],
      [
        "Ġte",
        "mp"
      ],
      [
        "Ġle",
        "er"
      ],
      [
        "Ġc",
        "ada"
      ],
      [
        "i",
        "tar"
      ],
      [
        "am",
        "i"
      ],
      [
        "Ġesp",
        "ero"
      ],
      [
        "Ġcon",
        "s"
      ],
      [
        "Ġha",
        "ciendo"
      ],
      [
        "Ġherm",
        "ano"
      ],
      [
        "Ġperson",
        "a"
      ],
      [
        "Ġe",
        "rr"
      ],
      [
        "Ġmuch",
        "a"
      ],
      [
        "Ġfi",
        "esta"
      ],
      [
        "ib",
        "le"
      ],
      [
        "Ġalgun",
        "a"
      ],
      [
        "Ġin",
        "t"
      ],
      [
        "Ġent",
        "re"
      ],
      [
        "Ġhu",
        "b"
      ],
      [
        "s",
        "ab"
      ],
      [
        "Ġc",
        "ier"
      ],
      [
        "Ġ",
        "Ãºn"
      ],
      [
        "Ġa",
        "us"
      ],
      [
        "Ġs",
        "iento"
      ],
      [
        "Ġsu",
        "fici"
      ],
      [
        "Ġcan",
        "s"
      ],
      [
        "er",
        "to"
      ],
      [
        "Ġlla",
        "m"
      ],
      [
        "z",
        "ar"
      ],
      [
        "Ġqu",
        "is"
      ],
      [
        "Ġf",
        "ami"
      ],
      [
        "l",
        "ic"
      ],
      [
        "Ġa",
        "Ãºn"
      ],
      [
        "Ġmi",
        "e"
      ],
      [
        "Ġpre",
        "ocu"
      ],
      [
        "Ġtraba",
        "j"
      ],
      [
        "h",
        "n"
      ],
      [
        "Ġcu",
        "enta"
      ],
      [
        "Ġac",
        "ci"
      ],
      [
        "Ġjo",
        "hn"
      ],
      [
        "Ġtr",
        "en"
      ],
      [
        "l",
        "Ã©"
      ],
      [
        "m",
        "or"
      ],
      [
        "Ġs",
        "or"
      ],
      [
        "Ġpas",
        "ar"
      ],
      [
        "Ġmay",
        "or"
      ],
      [
        "n",
        "e"
      ],
      [
        "Ġt",
        "amb"
      ],
      [
        "Ġcu",
        "l"
      ],
      [
        "Ġdu",
        "rante"
      ],
      [
        "ĠfÃ¡",
        "cil"
      ],
      [
        "Ġsufici",
        "ente"
      ],
      [
        "Ġpod",
        "ÃŃa"
      ],
      [
        "as",
        "te"
      ],
      [
        "Ġdic",
        "e"
      ],
      [
        "Ġd",
        "orm"
      ],
      [
        "Ġcom",
        "e"
      ],
      [
        "cuÃ¡n",
        "to"
      ],
      [
        "Ġsal",
        "ir"
      ],
      [
        "Ġtamb",
        "iÃ©n"
      ],
      [
        "Ġj",
        "ue"
      ],
      [
        "tu",
        "ra"
      ],
      [
        "Ġtien",
        "en"
      ],
      [
        "Ġm",
        "om"
      ],
      [
        "Ġco",
        "ci"
      ],
      [
        "Ġpol",
        "ic"
      ],
      [
        "y",
        "Ã³"
      ],
      [
        "Ġh",
        "o"
      ],
      [
        "Ġnues",
        "tra"
      ],
      [
        "est",
        "Ã¡s"
      ],
      [
        "Ġen",
        "se"
      ],
      [
        "vi",
        "Ã³"
      ],
      [
        "Ġlib",
        "ros"
      ],
      [
        "Ġac",
        "ab"
      ],
      [
        "Ġn",
        "ad"
      ],
      [
        "om",
        "e"
      ],
      [
        "Ġen",
        "ten"
      ],
      [
        "Ġcu",
        "Ã¡n"
      ],
      [
        "ent",
        "es"
      ],
      [
        "t",
        "aba"
      ],
      [
        "Ġcam",
        "a"
      ],
      [
        "Ġp",
        "ad"
      ],
      [
        "tr",
        "Ã³"
      ],
      [
        "Ġlu",
        "gar"
      ],
      [
        "Ġcar",
        "ta"
      ],
      [
        "p",
        "i"
      ],
      [
        "Ġmin",
        "u"
      ],
      [
        "la",
        "do"
      ],
      [
        "Ġpe",
        "que"
      ],
      [
        "Ġmuch",
        "as"
      ],
      [
        "c",
        "as"
      ],
      [
        "an",
        "tes"
      ],
      [
        "Ġclas",
        "e"
      ],
      [
        "Ġprofes",
        "or"
      ],
      [
        "Ġpal",
        "ab"
      ],
      [
        "Ġp",
        "la"
      ],
      [
        "Ġf",
        "o"
      ],
      [
        "Ġun",
        "i"
      ],
      [
        "Ġgus",
        "tan"
      ],
      [
        "Ġpolic",
        "ÃŃa"
      ],
      [
        "Ġpad",
        "res"
      ],
      [
        "Ġs",
        "ÃŃ"
      ],
      [
        "Ġen",
        "f"
      ],
      [
        "Ġenc",
        "an"
      ],
      [
        "f",
        "or"
      ],
      [
        "z",
        "co"
      ],
      [
        "Ã©",
        "r"
      ],
      [
        "t",
        "ic"
      ],
      [
        "Ġvi",
        "a"
      ],
      [
        "Ġan",
        "o"
      ],
      [
        "Ġtraba",
        "jar"
      ],
      [
        "Ġpas",
        "Ã³"
      ],
      [
        "f",
        "ono"
      ],
      [
        "Ġen",
        "fer"
      ],
      [
        "is",
        "a"
      ],
      [
        "Ġlun",
        "es"
      ],
      [
        "Ġc",
        "ol"
      ],
      [
        "Ġex",
        "tra"
      ],
      [
        "Ġgran",
        "de"
      ],
      [
        "t",
        "un"
      ],
      [
        "Ġuste",
        "des"
      ],
      [
        "g",
        "an"
      ],
      [
        "u",
        "do"
      ],
      [
        "Ġj",
        "un"
      ],
      [
        "tien",
        "es"
      ],
      [
        "v",
        "os"
      ],
      [
        "Ġv",
        "al"
      ],
      [
        "Ġte",
        "lÃ©"
      ],
      [
        "Ġva",
        "mos"
      ],
      [
        "Ġproble",
        "mas"
      ],
      [
        "Ġmom",
        "ento"
      ],
      [
        "s",
        "te"
      ],
      [
        "v",
        "es"
      ],
      [
        "Ġd",
        "Ã©"
      ],
      [
        "ic",
        "e"
      ],
      [
        "ĠrÃ¡p",
        "ido"
      ],
      [
        "Ġa",
        "d"
      ],
      [
        "Ġvi",
        "e"
      ],
      [
        "Ġh",
        "an"
      ],
      [
        "Ġh",
        "is"
      ],
      [
        "Ġpor",
        "que"
      ],
      [
        "Ġd",
        "o"
      ],
      [
        "ĠtelÃ©",
        "fono"
      ],
      [
        "pue",
        "des"
      ],
      [
        "Ġque",
        "da"
      ],
      [
        "t",
        "ando"
      ],
      [
        "u",
        "r"
      ],
      [
        "mp",
        "le"
      ],
      [
        "Ġdes",
        "c"
      ],
      [
        "Ġdes",
        "e"
      ],
      [
        "quier",
        "es"
      ],
      [
        "Ġal",
        "e"
      ],
      [
        "Ġsi",
        "do"
      ],
      [
        "Ġacci",
        "dente"
      ],
      [
        "Ġo",
        "p"
      ],
      [
        "ver",
        "dad"
      ],
      [
        "Ġju",
        "gar"
      ],
      [
        "Ġvi",
        "vir"
      ],
      [
        "Ġd",
        "on"
      ],
      [
        "Ġres",
        "pon"
      ],
      [
        "Ġv",
        "ien"
      ],
      [
        "Ġhis",
        "tor"
      ],
      [
        "Ġf",
        "or"
      ],
      [
        "Ġa",
        "gra"
      ],
      [
        "Ġre",
        "ci"
      ],
      [
        "Ġco",
        "le"
      ],
      [
        "Ġcer",
        "ca"
      ],
      [
        "Ġtu",
        "vo"
      ],
      [
        "Ġsor",
        "p"
      ],
      [
        "d",
        "Ã©"
      ],
      [
        "Ġv",
        "ent"
      ],
      [
        "Ġint",
        "ent"
      ],
      [
        "Ġfami",
        "lia"
      ],
      [
        "Ġhi",
        "jo"
      ],
      [
        "Ġjo",
        "ven"
      ],
      [
        "j",
        "as"
      ],
      [
        "Ġcon",
        "tra"
      ],
      [
        "Ġcu",
        "al"
      ],
      [
        "Ġin",
        "c"
      ],
      [
        "Ġt",
        "al"
      ],
      [
        "Ġca",
        "pa"
      ],
      [
        "g",
        "n"
      ],
      [
        "Ġest",
        "aban"
      ],
      [
        "Ġaqu",
        "el"
      ],
      [
        "Ġmie",
        "do"
      ],
      [
        "ec",
        "to"
      ],
      [
        "Ġherm",
        "ana"
      ],
      [
        "Ġacer",
        "ca"
      ],
      [
        "t",
        "Ã³n"
      ],
      [
        "ent",
        "ro"
      ],
      [
        "Ġdej",
        "Ã³"
      ],
      [
        "Ġhor",
        "as"
      ],
      [
        "Ġbas",
        "tante"
      ],
      [
        "Ġr",
        "u"
      ],
      [
        "Ġ",
        "1"
      ],
      [
        "Ġa",
        "cuerdo"
      ],
      [
        "ci",
        "r"
      ],
      [
        "Ġs",
        "os"
      ],
      [
        "Ġcom",
        "en"
      ],
      [
        "Ġpregun",
        "ta"
      ],
      [
        "Ġdorm",
        "ir"
      ],
      [
        "Ġre",
        "un"
      ],
      [
        "Ġp",
        "uso"
      ],
      [
        "Ġh",
        "ice"
      ],
      [
        "Ġtele",
        "vis"
      ],
      [
        "al",
        "o"
      ],
      [
        "Ġpa",
        "ÃŃs"
      ],
      [
        "Ġcos",
        "a"
      ],
      [
        "v",
        "as"
      ],
      [
        "di",
        "co"
      ],
      [
        "g",
        "er"
      ],
      [
        "ta",
        "l"
      ],
      [
        "Ġdi",
        "ez"
      ],
      [
        "Ġano",
        "che"
      ],
      [
        "Ġb",
        "an"
      ],
      [
        "Ġven",
        "ir"
      ],
      [
        "Ġesper",
        "ar"
      ],
      [
        "Ġv",
        "es"
      ],
      [
        "h",
        "as"
      ],
      [
        "t",
        "om"
      ],
      [
        "Ġl",
        "lo"
      ],
      [
        "Ġvi",
        "ve"
      ],
      [
        "Ġdeb",
        "e"
      ],
      [
        "p",
        "er"
      ],
      [
        "Ġd",
        "er"
      ],
      [
        "Ġm",
        "Ã©"
      ],
      [
        "ci",
        "do"
      ],
      [
        "Ġga",
        "to"
      ],
      [
        "r",
        "Ã³"
      ],
      [
        "an",
        "os"
      ],
      [
        "Ġcon",
        "si"
      ],
      [
        "Ġb",
        "ol"
      ],
      [
        "ti",
        "vo"
      ],
      [
        "p",
        "Ã³n"
      ],
      [
        "Ġmu",
        "riÃ³"
      ],
      [
        "Ġdi",
        "je"
      ],
      [
        "Ġll",
        "or"
      ],
      [
        "vi",
        "a"
      ],
      [
        "Ġdeb",
        "es"
      ],
      [
        "Ġman",
        "o"
      ],
      [
        "Ġpu",
        "do"
      ],
      [
        "Ġgra",
        "cias"
      ],
      [
        "Ġm",
        "Ãºs"
      ],
      [
        "Ġmes",
        "a"
      ],
      [
        "Ġapren",
        "der"
      ],
      [
        "m",
        "ento"
      ],
      [
        "Ġest",
        "os"
      ],
      [
        "Ġf",
        "un"
      ],
      [
        "gun",
        "a"
      ],
      [
        "Ġpe",
        "lÃŃ"
      ],
      [
        "Ġl",
        "ar"
      ],
      [
        "Ġr",
        "om"
      ],
      [
        "ĠpelÃŃ",
        "cu"
      ],
      [
        "z",
        "Ã³"
      ],
      [
        "Ġin",
        "s"
      ],
      [
        "Ġtemp",
        "ran"
      ],
      [
        "Ġhistor",
        "ia"
      ],
      [
        "Ġf",
        "l"
      ],
      [
        "Ġnad",
        "ar"
      ],
      [
        "Ġap",
        "ar"
      ],
      [
        "Ġpar",
        "te"
      ],
      [
        "Ġpo",
        "demos"
      ],
      [
        "Ġra",
        "zÃ³n"
      ],
      [
        "Ġdon",
        "de"
      ],
      [
        "c",
        "ando"
      ],
      [
        "Ġb",
        "ar"
      ],
      [
        "Ġdi",
        "cho"
      ],
      [
        "Ġtempran",
        "o"
      ],
      [
        "Ġpe",
        "lig"
      ],
      [
        "Ġro",
        "b"
      ],
      [
        "i",
        "to"
      ],
      [
        "Ġm",
        "ien"
      ],
      [
        "Ġpe",
        "lo"
      ],
      [
        "Ġja",
        "pÃ³n"
      ],
      [
        "Ġense",
        "Ã±"
      ],
      [
        "Ġpre",
        "par"
      ],
      [
        "Ġlla",
        "mar"
      ],
      [
        "f",
        "e"
      ],
      [
        "Ġac",
        "os"
      ],
      [
        "te",
        "l"
      ],
      [
        "le",
        "ta"
      ],
      [
        "Ġ",
        "za"
      ],
      [
        "Ġme",
        "di"
      ],
      [
        "Ġaus",
        "tra"
      ],
      [
        "j",
        "Ã³"
      ],
      [
        "r",
        "ÃŃa"
      ],
      [
        "Ġcono",
        "c"
      ],
      [
        "Ġza",
        "pa"
      ],
      [
        "c",
        "tor"
      ],
      [
        "Ġv",
        "o"
      ],
      [
        "m",
        "bre"
      ],
      [
        "Ġha",
        "ga"
      ],
      [
        "Ġnue",
        "va"
      ],
      [
        "Ġllev",
        "ar"
      ],
      [
        "Ġp",
        "in"
      ],
      [
        "tr",
        "an"
      ],
      [
        "b",
        "le"
      ],
      [
        "l",
        "los"
      ],
      [
        "Ġalgun",
        "os"
      ],
      [
        "Ġmen",
        "udo"
      ],
      [
        "Ġocup",
        "ado"
      ],
      [
        "Ġaustra",
        "lia"
      ],
      [
        "e",
        "p"
      ],
      [
        "i",
        "os"
      ],
      [
        "Ġcam",
        "in"
      ],
      [
        "al",
        "idad"
      ],
      [
        "Ġequi",
        "vo"
      ],
      [
        "pues",
        "ta"
      ],
      [
        "p",
        "u"
      ],
      [
        "Ġs",
        "om"
      ],
      [
        "Ġpa",
        "p"
      ],
      [
        "Ġm",
        "or"
      ],
      [
        "qu",
        "iera"
      ],
      [
        "Ġin",
        "vi"
      ],
      [
        "Ġd",
        "ol"
      ],
      [
        "ti",
        "l"
      ],
      [
        "Ġcre",
        "er"
      ],
      [
        "Ġcono",
        "zco"
      ],
      [
        "v",
        "ar"
      ],
      [
        "il",
        "lo"
      ],
      [
        "Ġt",
        "er"
      ],
      [
        "Ġpi",
        "diÃ³"
      ],
      [
        "Ġcor",
        "r"
      ],
      [
        "Ġimpor",
        "tante"
      ],
      [
        "Ġmien",
        "tras"
      ],
      [
        "p",
        "ita"
      ],
      [
        "Ġe",
        "ch"
      ],
      [
        "Ġhe",
        "mos"
      ],
      [
        "Ġser",
        "Ã¡"
      ],
      [
        "ĠÃºlti",
        "ma"
      ],
      [
        "Ġtelevis",
        "iÃ³n"
      ],
      [
        "ien",
        "tes"
      ],
      [
        "Ġal",
        "gÃºn"
      ],
      [
        "Ġcam",
        "ino"
      ],
      [
        "Ġsom",
        "os"
      ],
      [
        "t",
        "ico"
      ],
      [
        "do",
        "r"
      ],
      [
        "Ġesta",
        "ciÃ³n"
      ],
      [
        "Ġti",
        "po"
      ],
      [
        "Ġso",
        "la"
      ],
      [
        "Ġcans",
        "ado"
      ],
      [
        "Ġal",
        "to"
      ],
      [
        "Ġpr",
        "Ã³"
      ],
      [
        "Ġestudi",
        "ar"
      ],
      [
        "Ġli",
        "mp"
      ],
      [
        "Ġhi",
        "jos"
      ],
      [
        "Ġalgun",
        "as"
      ],
      [
        "Ġzapa",
        "tos"
      ],
      [
        "c",
        "os"
      ],
      [
        "po",
        "dr"
      ],
      [
        "Ġpon",
        "er"
      ],
      [
        "Ġminu",
        "tos"
      ],
      [
        "Ġp",
        "Ã¡"
      ],
      [
        "Ġlle",
        "va"
      ],
      [
        "Ġimpor",
        "ta"
      ],
      [
        "ĠmÃºs",
        "ica"
      ],
      [
        "ĠprÃ³",
        "xi"
      ],
      [
        "Ġfu",
        "erte"
      ],
      [
        "Ġcin",
        "co"
      ],
      [
        "Ġvien",
        "e"
      ],
      [
        "Ġsorp",
        "ren"
      ],
      [
        "Ġo",
        "fici"
      ],
      [
        "Ġl",
        "is"
      ],
      [
        "Ġfr",
        "ÃŃo"
      ],
      [
        "Ġla",
        "do"
      ],
      [
        "Ġpue",
        "den"
      ],
      [
        "Ġex",
        "tran"
      ],
      [
        "Ġva",
        "ya"
      ],
      [
        "sab",
        "es"
      ],
      [
        "Ġsab",
        "es"
      ],
      [
        "Ġh",
        "ue"
      ],
      [
        "ab",
        "as"
      ],
      [
        "Ġpar",
        "e"
      ],
      [
        "Ġjun",
        "tos"
      ],
      [
        "Ġreci",
        "b"
      ],
      [
        "u",
        "m"
      ],
      [
        "Ġ",
        "Ã¡r"
      ],
      [
        "Ġestu",
        "vo"
      ],
      [
        "Ġcompr",
        "Ã³"
      ],
      [
        "i",
        "f"
      ],
      [
        "Ġa",
        "f"
      ],
      [
        "Ġg",
        "ol"
      ],
      [
        "g",
        "io"
      ],
      [
        "Ġle",
        "y"
      ],
      [
        "Ġpro",
        "p"
      ],
      [
        "a",
        "Ã±"
      ],
      [
        "Ġun",
        "os"
      ],
      [
        "tar",
        "on"
      ],
      [
        "Ġb",
        "ici"
      ],
      [
        "Ġper",
        "der"
      ],
      [
        "Ġpregun",
        "tÃ³"
      ],
      [
        "li",
        "dad"
      ],
      [
        "Ġocu",
        "r"
      ],
      [
        "Ġvent",
        "ana"
      ],
      [
        "t",
        "ÃŃ"
      ],
      [
        "Ġqu",
        "ien"
      ],
      [
        "Ġpien",
        "so"
      ],
      [
        "ado",
        "r"
      ],
      [
        "ic",
        "os"
      ],
      [
        "Ġvi",
        "o"
      ],
      [
        "Ġnin",
        "gÃºn"
      ],
      [
        "0",
        "0"
      ],
      [
        "e",
        "a"
      ],
      [
        "Ġdej",
        "a"
      ],
      [
        "g",
        "ro"
      ],
      [
        "Ġpreocu",
        "p"
      ],
      [
        "c",
        "leta"
      ],
      [
        "Ġa",
        "tra"
      ],
      [
        "Ã¡",
        "is"
      ],
      [
        "Ġcu",
        "an"
      ],
      [
        "Ġsol",
        "ÃŃa"
      ],
      [
        "Ġerr",
        "or"
      ],
      [
        "j",
        "ero"
      ],
      [
        "es",
        "o"
      ],
      [
        "Ġtu",
        "ve"
      ],
      [
        "c",
        "Ã³"
      ],
      [
        "e",
        "te"
      ],
      [
        "h",
        "ay"
      ],
      [
        "t",
        "era"
      ],
      [
        "Ġto",
        "car"
      ],
      [
        "Ġescrib",
        "ir"
      ],
      [
        "Ġreun",
        "iÃ³n"
      ],
      [
        "pita",
        "l"
      ],
      [
        "tr",
        "u"
      ],
      [
        "Ġprim",
        "era"
      ],
      [
        "ay",
        "un"
      ],
      [
        "ĠÃºn",
        "ico"
      ],
      [
        "ĠpelÃŃcu",
        "la"
      ],
      [
        "Ġsu",
        "b"
      ],
      [
        "Ġdi",
        "ver"
      ],
      [
        "Ġdes",
        "ayun"
      ],
      [
        "Ġpa",
        "gar"
      ],
      [
        "Ġhabl",
        "ando"
      ],
      [
        "Ġcole",
        "gio"
      ],
      [
        "i",
        "as"
      ],
      [
        "Ġres",
        "ul"
      ],
      [
        "a",
        "ciÃ³n"
      ],
      [
        "m",
        "iento"
      ],
      [
        "Ġdi",
        "fer"
      ],
      [
        "ad",
        "as"
      ],
      [
        "Ġlle",
        "gÃ³"
      ],
      [
        "Ġv",
        "oso"
      ],
      [
        "Ġcu",
        "ar"
      ],
      [
        "ĠoÃŃ",
        "r"
      ],
      [
        "Ġc",
        "Ã¡"
      ],
      [
        "Ġm",
        "os"
      ],
      [
        "Ġin",
        "v"
      ],
      [
        "lar",
        "es"
      ],
      [
        "Ġesc",
        "on"
      ],
      [
        "Ġfo",
        "to"
      ],
      [
        "i",
        "g"
      ],
      [
        "l",
        "u"
      ],
      [
        "Ġh",
        "omb"
      ],
      [
        "Ġve",
        "o"
      ],
      [
        "ĠÃ¡r",
        "bol"
      ],
      [
        "Ġd",
        "om"
      ],
      [
        "Ġo",
        "jos"
      ],
      [
        "tu",
        "mb"
      ],
      [
        "Ġsal",
        "u"
      ],
      [
        "e",
        "ta"
      ],
      [
        "n",
        "ar"
      ],
      [
        "Ġpas",
        "e"
      ],
      [
        "Ġar",
        "re"
      ],
      [
        "Ġcab",
        "eza"
      ],
      [
        "tr",
        "Ã©"
      ],
      [
        "vi",
        "dad"
      ],
      [
        "Ġbus",
        "cando"
      ],
      [
        "Ġcual",
        "quier"
      ],
      [
        "l",
        "Ã³"
      ],
      [
        "Ġe",
        "dad"
      ],
      [
        "Ġa",
        "z"
      ],
      [
        "Ġcomp",
        "le"
      ],
      [
        "Ġestudi",
        "antes"
      ],
      [
        "Ġdol",
        "or"
      ],
      [
        "Ġbici",
        "cleta"
      ],
      [
        "Ġle",
        "che"
      ],
      [
        "Ġre",
        "p"
      ],
      [
        "Ġman",
        "z"
      ],
      [
        "Ġp",
        "is"
      ],
      [
        "Ġp",
        "unto"
      ],
      [
        "lo",
        "j"
      ],
      [
        "Ġac",
        "ep"
      ],
      [
        "Ġesp",
        "osa"
      ],
      [
        "Ġesper",
        "ando"
      ],
      [
        "Ġcondu",
        "cir"
      ],
      [
        "Ġre",
        "loj"
      ],
      [
        "ba",
        "mos"
      ],
      [
        "ĠdÃ©",
        "j"
      ],
      [
        "Ġofici",
        "na"
      ],
      [
        "Ġt",
        "or"
      ],
      [
        "Ġd",
        "or"
      ],
      [
        "Ġp",
        "an"
      ],
      [
        "Ġni",
        "e"
      ],
      [
        "ce",
        "p"
      ],
      [
        "Ġcompr",
        "Ã©"
      ],
      [
        "Ġc",
        "en"
      ],
      [
        "Ġg",
        "en"
      ],
      [
        "Ġg",
        "anas"
      ],
      [
        "Ġcu",
        "ida"
      ],
      [
        "tr",
        "Ã¡s"
      ],
      [
        "Ġenten",
        "der"
      ],
      [
        "Ġacos",
        "tumb"
      ],
      [
        "e",
        "lo"
      ],
      [
        "Ġdes",
        "a"
      ],
      [
        "Ġfu",
        "mar"
      ],
      [
        "Ġfu",
        "eron"
      ],
      [
        "Ġpi",
        "e"
      ],
      [
        "y",
        "o"
      ],
      [
        "Ġt",
        "re"
      ],
      [
        "Ġdeb",
        "o"
      ],
      [
        "Ġp",
        "ues"
      ],
      [
        "Ġten",
        "is"
      ],
      [
        "Ġi",
        "do"
      ],
      [
        "Ġpens",
        "ar"
      ],
      [
        "Ġor",
        "den"
      ],
      [
        "Ġ",
        "ri"
      ],
      [
        "Ġm",
        "ol"
      ],
      [
        "Ġsue",
        "Ã±o"
      ],
      [
        "Ġ",
        "2"
      ],
      [
        "Ġres",
        "puesta"
      ],
      [
        "Ġus",
        "ar"
      ],
      [
        "l",
        "Ã¡"
      ],
      [
        "s",
        "iÃ³n"
      ],
      [
        "ci",
        "dad"
      ],
      [
        "ten",
        "er"
      ],
      [
        "Ġlla",
        "ve"
      ],
      [
        "Ġdor",
        "mi"
      ],
      [
        "Ġper",
        "dido"
      ],
      [
        "dr",
        "Ã¡"
      ],
      [
        "Ġcan",
        "ad"
      ],
      [
        "Ġauto",
        "b"
      ],
      [
        "Ġquis",
        "iera"
      ],
      [
        "Ġvie",
        "jo"
      ],
      [
        "f",
        "ier"
      ],
      [
        "u",
        "er"
      ],
      [
        "Ġest",
        "as"
      ],
      [
        "Ġpue",
        "da"
      ],
      [
        "Ġcan",
        "ciÃ³n"
      ],
      [
        "Ġfun",
        "cion"
      ],
      [
        "g",
        "ando"
      ],
      [
        "Ġen",
        "trar"
      ],
      [
        "Ġb",
        "or"
      ],
      [
        "Ġdi",
        "rec"
      ],
      [
        "Ġpr",
        "ome"
      ],
      [
        "Ġja",
        "pon"
      ],
      [
        "ar",
        "me"
      ],
      [
        "Ġha",
        "cia"
      ],
      [
        "Ġca",
        "ja"
      ],
      [
        "Ġab",
        "s"
      ],
      [
        "c",
        "on"
      ],
      [
        "Ġb",
        "lan"
      ],
      [
        "Ġch",
        "ica"
      ],
      [
        "Ġparec",
        "ÃŃa"
      ],
      [
        "Ġgu",
        "er"
      ],
      [
        "Ġc",
        "e"
      ],
      [
        "Ġn",
        "Ãº"
      ],
      [
        "Ġesp",
        "era"
      ],
      [
        "Ġconse",
        "gu"
      ],
      [
        "ĠnÃº",
        "m"
      ],
      [
        "Ġa",
        "mb"
      ],
      [
        "Ġd",
        "Ã³"
      ],
      [
        "Ġha",
        "z"
      ],
      [
        "Ġcal",
        "le"
      ],
      [
        "Ġtermin",
        "ar"
      ],
      [
        "Ġencan",
        "ta"
      ],
      [
        "ĠmÃ©",
        "dico"
      ],
      [
        "Ġa",
        "ver"
      ],
      [
        "Ġv",
        "ues"
      ],
      [
        "Ġver",
        "te"
      ],
      [
        "d",
        "iendo"
      ],
      [
        "Ġh",
        "os"
      ],
      [
        "ue",
        "lo"
      ],
      [
        "us",
        "to"
      ],
      [
        "Ġper",
        "mi"
      ],
      [
        "j",
        "al"
      ],
      [
        "Ġa",
        "ten"
      ],
      [
        "Ġl",
        "en"
      ],
      [
        "Ġna",
        "vidad"
      ],
      [
        "Ġcuan",
        "to"
      ],
      [
        "Ġdom",
        "in"
      ],
      [
        "ci",
        "ente"
      ],
      [
        "Ġhub",
        "iera"
      ],
      [
        "Ġautob",
        "Ãºs"
      ],
      [
        "i",
        "on"
      ],
      [
        "ar",
        "ÃŃa"
      ],
      [
        "Ġse",
        "cre"
      ],
      [
        "Ġme",
        "dia"
      ],
      [
        "Ġex",
        "am"
      ],
      [
        "Ġmis",
        "ma"
      ],
      [
        "Ġro",
        "pa"
      ],
      [
        "Ġpalab",
        "ra"
      ],
      [
        "a",
        "tro"
      ],
      [
        "Ġle",
        "jos"
      ],
      [
        "Ġmi",
        "l"
      ],
      [
        "Ġse",
        "is"
      ],
      [
        "Ġcon",
        "ven"
      ],
      [
        "Ġo",
        "dio"
      ],
      [
        "tar",
        "me"
      ],
      [
        "Ġr",
        "ÃŃo"
      ],
      [
        "ĠoÃŃ",
        "do"
      ],
      [
        "Ġfal",
        "ta"
      ],
      [
        "Ġguer",
        "ra"
      ],
      [
        "en",
        "as"
      ],
      [
        "ci",
        "os"
      ],
      [
        "Ġdi",
        "j"
      ],
      [
        "Ġcor",
        "re"
      ],
      [
        "Ġnecesi",
        "tas"
      ],
      [
        ".",
        "\""
      ],
      [
        "t",
        "ri"
      ],
      [
        "Ġg",
        "as"
      ],
      [
        "gu",
        "Ã©"
      ],
      [
        "Ġdes",
        "cu"
      ],
      [
        "Ġan",
        "im"
      ],
      [
        "Ġap",
        "ro"
      ],
      [
        "Ġvis",
        "ta"
      ],
      [
        "jal",
        "Ã¡"
      ],
      [
        "m",
        "on"
      ],
      [
        "p",
        "en"
      ],
      [
        "Ġa",
        "vi"
      ],
      [
        "Ġver",
        "ano"
      ],
      [
        "Ġch",
        "ico"
      ],
      [
        "Ġen",
        "cu"
      ],
      [
        "Ã±",
        "as"
      ],
      [
        "Ġper",
        "ros"
      ],
      [
        "Ġi",
        "ba"
      ],
      [
        "Ġpregun",
        "tas"
      ],
      [
        "ĠmÃŃ",
        "o"
      ],
      [
        "Ġba",
        "jo"
      ],
      [
        "v",
        "iendo"
      ],
      [
        "Ġc",
        "ru"
      ],
      [
        "Ġv",
        "in"
      ],
      [
        "Ġb",
        "r"
      ],
      [
        "Ġg",
        "ri"
      ],
      [
        "Ġcomp",
        "aÃ±"
      ],
      [
        "Ġser",
        "ÃŃa"
      ],
      [
        "Ġab",
        "r"
      ],
      [
        "Ġman",
        "era"
      ],
      [
        "Ġinteres",
        "ante"
      ],
      [
        "Ġsal",
        "iÃ³"
      ],
      [
        "Ġman",
        "os"
      ],
      [
        "Ġcar",
        "a"
      ],
      [
        "mar",
        "a"
      ],
      [
        "Ġhici",
        "ste"
      ],
      [
        "Ġcier",
        "to"
      ],
      [
        "ar",
        "se"
      ],
      [
        "en",
        "o"
      ],
      [
        "da",
        "do"
      ],
      [
        "Ġpe",
        "dir"
      ],
      [
        "Ġap",
        "a"
      ],
      [
        "b",
        "r"
      ],
      [
        "e",
        "ci"
      ],
      [
        "t",
        "is"
      ],
      [
        "Ġen",
        "am"
      ],
      [
        "ens",
        "a"
      ],
      [
        "Ġnin",
        "guna"
      ],
      [
        "Ġrec",
        "or"
      ],
      [
        "t",
        "re"
      ],
      [
        "Ġest",
        "Ãº"
      ],
      [
        "Ġsu",
        "pon"
      ],
      [
        "Ġcre",
        "e"
      ],
      [
        "Ġbeb",
        "Ã©"
      ],
      [
        "Ġdic",
        "cion"
      ],
      [
        "Ġfor",
        "ma"
      ],
      [
        "Ġder",
        "e"
      ],
      [
        "Ġcuar",
        "to"
      ],
      [
        "Ġt",
        "Ã©"
      ],
      [
        "Ġc",
        "lar"
      ],
      [
        "ol",
        "u"
      ],
      [
        "gu",
        "as"
      ],
      [
        "Ġcre",
        "es"
      ],
      [
        "ver",
        "s"
      ],
      [
        "Ġpregun",
        "to"
      ],
      [
        "il",
        "la"
      ],
      [
        "Ġba",
        "i"
      ],
      [
        "gra",
        "f"
      ],
      [
        "Ġcapa",
        "z"
      ],
      [
        "ĠnÃºm",
        "ero"
      ],
      [
        "Ġenam",
        "or"
      ],
      [
        "er",
        "os"
      ],
      [
        "Ġm",
        "er"
      ],
      [
        "Ġque",
        "dÃ³"
      ],
      [
        "ier",
        "ta"
      ],
      [
        "Ġtien",
        "da"
      ],
      [
        "Ġo",
        "jalÃ¡"
      ],
      [
        "Ġpo",
        "der"
      ],
      [
        "Ġexp",
        "lic"
      ],
      [
        "Ġlis",
        "to"
      ],
      [
        "c",
        "ÃŃ"
      ],
      [
        "t",
        "ica"
      ],
      [
        "er",
        "as"
      ],
      [
        "es",
        "e"
      ],
      [
        "Ġdiscu",
        "l"
      ],
      [
        "Ġho",
        "tel"
      ],
      [
        "Ġcuida",
        "do"
      ],
      [
        "ĠdÃ³",
        "lares"
      ],
      [
        "s",
        "as"
      ],
      [
        "Ġe",
        "vi"
      ],
      [
        "Ġa",
        "do"
      ],
      [
        "Ġd",
        "ir"
      ],
      [
        "Ġin",
        "f"
      ],
      [
        "Ġab",
        "ando"
      ],
      [
        "Ġjue",
        "go"
      ],
      [
        "Ġest",
        "Ã©"
      ],
      [
        "Ġprob",
        "able"
      ],
      [
        "est",
        "Ã¡"
      ],
      [
        "Ġno",
        "ti"
      ],
      [
        "Ġcor",
        "rec"
      ],
      [
        "ĠdeberÃŃa",
        "mos"
      ],
      [
        "Ġbeb",
        "er"
      ],
      [
        "a",
        "mos"
      ],
      [
        "m",
        "an"
      ],
      [
        "Ġsu",
        "ce"
      ],
      [
        "Ġtraba",
        "ja"
      ],
      [
        "Ġpu",
        "de"
      ],
      [
        "Ġlu",
        "z"
      ],
      [
        "Ġpos",
        "ible"
      ],
      [
        "Ġher",
        "mos"
      ],
      [
        "Ġexam",
        "en"
      ],
      [
        "Ġdiccion",
        "ario"
      ],
      [
        "Ġmi",
        "ra"
      ],
      [
        "ec",
        "e"
      ],
      [
        "Ġcab",
        "al"
      ],
      [
        "ĠcÃ¡",
        "mara"
      ],
      [
        "Ġcanad",
        "ien"
      ],
      [
        "c",
        "an"
      ],
      [
        "Ġ",
        "u"
      ],
      [
        "in",
        "ta"
      ],
      [
        "ier",
        "to"
      ],
      [
        "Ġper",
        "diÃ³"
      ],
      [
        "Ġpre",
        "fier"
      ],
      [
        "Ġos",
        "cu"
      ],
      [
        "Ġnecesita",
        "mos"
      ],
      [
        "Â",
        "¿"
      ],
      [
        "Ġcu",
        "mple"
      ],
      [
        "Ġcamb",
        "iar"
      ],
      [
        "Ġhomb",
        "res"
      ],
      [
        "v",
        "iera"
      ],
      [
        "es",
        "a"
      ],
      [
        "Ġun",
        "as"
      ],
      [
        "ol",
        "ver"
      ],
      [
        "d",
        "ieron"
      ],
      [
        "m",
        "en"
      ],
      [
        "Ġel",
        "e"
      ],
      [
        "Ġha",
        "mbre"
      ],
      [
        "Ġvi",
        "vo"
      ],
      [
        "ent",
        "os"
      ],
      [
        "Ġr",
        "ico"
      ],
      [
        "Ġhi",
        "ja"
      ],
      [
        "por",
        "tun"
      ],
      [
        "Ġreg",
        "alo"
      ],
      [
        "Ġdo",
        "ctor"
      ],
      [
        "Ġhos",
        "pital"
      ],
      [
        "Ġa",
        "de"
      ],
      [
        "Ġs",
        "omb"
      ],
      [
        "Ġemp",
        "le"
      ],
      [
        "Ġfl",
        "ores"
      ],
      [
        "Ġavi",
        "Ã³n"
      ],
      [
        "i",
        "lidad"
      ],
      [
        "Ġc",
        "r"
      ],
      [
        "Ġo",
        "portun"
      ],
      [
        "Ġj",
        "ar"
      ],
      [
        "Ġva",
        "ca"
      ],
      [
        "cuÃ¡n",
        "tos"
      ],
      [
        "Ġreg",
        "res"
      ],
      [
        "Ġquer",
        "emos"
      ],
      [
        "i",
        "mos"
      ],
      [
        "qu",
        "er"
      ],
      [
        "Ġv",
        "ar"
      ],
      [
        "tor",
        "io"
      ],
      [
        "Ġencon",
        "trÃ©"
      ],
      [
        "Ġli",
        "bre"
      ],
      [
        "Ġp",
        "ier"
      ],
      [
        "Ġb",
        "on"
      ],
      [
        "mp",
        "o"
      ],
      [
        "Ġca",
        "us"
      ],
      [
        "Ġdesp",
        "er"
      ],
      [
        "Ġmal",
        "o"
      ],
      [
        "Ġpeque",
        "Ã±o"
      ],
      [
        "Ġsalu",
        "d"
      ],
      [
        "Ġpar",
        "que"
      ],
      [
        "tar",
        "te"
      ],
      [
        "Ġcer",
        "v"
      ],
      [
        "Ġconse",
        "jo"
      ],
      [
        "Ġenfer",
        "mo"
      ],
      [
        "j",
        "ado"
      ],
      [
        "in",
        "ci"
      ],
      [
        "Ġsu",
        "erte"
      ],
      [
        "Ġmu",
        "erte"
      ],
      [
        "ga",
        "mos"
      ],
      [
        "Ġdesp",
        "e"
      ],
      [
        "Ġagra",
        "de"
      ],
      [
        "Ġrom",
        "p"
      ],
      [
        "a",
        "Ã±os"
      ],
      [
        "Ã¡",
        "b"
      ],
      [
        "ti",
        "o"
      ],
      [
        "Ġj",
        "am"
      ],
      [
        "Ġvis",
        "itar"
      ],
      [
        "Ġcal",
        "or"
      ],
      [
        "Ġhar",
        "Ã©"
      ],
      [
        "Ġprim",
        "ero"
      ],
      [
        "ĠdÃ©j",
        "ame"
      ],
      [
        "t",
        "bol"
      ],
      [
        "Ġest",
        "ados"
      ],
      [
        "Ġv",
        "os"
      ],
      [
        "Ġsi",
        "gu"
      ],
      [
        "Ġre",
        "alidad"
      ],
      [
        "Ġin",
        "te"
      ],
      [
        "ada",
        "mente"
      ],
      [
        "Ġac",
        "on"
      ],
      [
        "li",
        "o"
      ],
      [
        "Ġdu",
        "ro"
      ],
      [
        "Ġves",
        "tido"
      ],
      [
        "Ġextran",
        "jero"
      ],
      [
        "Ġoportun",
        "idad"
      ],
      [
        "Ġ",
        "z"
      ],
      [
        "ar",
        "Ã¡"
      ],
      [
        "Ġn",
        "orm"
      ],
      [
        "Ġv",
        "an"
      ],
      [
        "Ġquier",
        "as"
      ],
      [
        "Ġempez",
        "Ã³"
      ],
      [
        "Ġa",
        "gu"
      ],
      [
        "Ġs",
        "an"
      ],
      [
        "Ġb",
        "es"
      ],
      [
        "Ġcan",
        "tar"
      ],
      [
        "Ġent",
        "iendo"
      ],
      [
        "Ġuni",
        "dos"
      ],
      [
        "ien",
        "tos"
      ],
      [
        "Ġha",
        "gas"
      ],
      [
        "ti",
        "m"
      ],
      [
        "Ġcul",
        "pa"
      ],
      [
        "Ġru",
        "ido"
      ],
      [
        "Ġcumple",
        "aÃ±os"
      ],
      [
        "ier",
        "no"
      ],
      [
        "di",
        "da"
      ],
      [
        "Ġten",
        "ido"
      ],
      [
        "Ġar",
        "ro"
      ],
      [
        "Ġesper",
        "aba"
      ],
      [
        "ÃŃ",
        "do"
      ],
      [
        "vi",
        "mos"
      ],
      [
        "Ġac",
        "Ã¡"
      ],
      [
        "Ġpien",
        "sa"
      ],
      [
        "Ġnie",
        "ve"
      ],
      [
        "g",
        "e"
      ],
      [
        "Ġqu",
        "i"
      ],
      [
        "ma",
        "g"
      ],
      [
        "Ġcomp",
        "ar"
      ],
      [
        "Ġhay",
        "a"
      ],
      [
        "Ġtermin",
        "ado"
      ],
      [
        "Ġvuel",
        "ta"
      ],
      [
        "Ġarre",
        "g"
      ],
      [
        "Ġcerv",
        "eza"
      ],
      [
        "Ġcon",
        "ta"
      ],
      [
        "Ġb",
        "ib"
      ],
      [
        "Ġsi",
        "quiera"
      ],
      [
        "Ġsegu",
        "ir"
      ],
      [
        "Ġpalab",
        "ras"
      ],
      [
        "om",
        "a"
      ],
      [
        "ien",
        "cia"
      ],
      [
        "Ġi",
        "mag"
      ],
      [
        "Ġex",
        "ac"
      ],
      [
        "Ġdis",
        "f"
      ],
      [
        "Ġequi",
        "po"
      ],
      [
        "Ġban",
        "co"
      ],
      [
        "Ġllo",
        "ver"
      ],
      [
        "ĠestÃº",
        "p"
      ],
      [
        "Ġvaca",
        "ciones"
      ],
      [
        "Ġl",
        "ista"
      ],
      [
        "ier",
        "as"
      ],
      [
        "Ġo",
        "tros"
      ],
      [
        "Ġi",
        "di"
      ],
      [
        "Ġpens",
        "aba"
      ],
      [
        "ros",
        "o"
      ],
      [
        "ĠcuÃ¡n",
        "do"
      ],
      [
        "Ġinte",
        "lig"
      ],
      [
        "z",
        "ado"
      ],
      [
        "ar",
        "Ã©"
      ],
      [
        "ra",
        "mos"
      ],
      [
        "Ġper",
        "f"
      ],
      [
        "Ġe",
        "di"
      ],
      [
        "Ġtom",
        "Ã³"
      ],
      [
        "ic",
        "as"
      ],
      [
        "Ġsi",
        "mple"
      ],
      [
        "Ġre",
        "cuerdo"
      ],
      [
        "Ġpens",
        "ando"
      ],
      [
        "Ġextra",
        "Ã±o"
      ],
      [
        "Ġvoso",
        "tros"
      ],
      [
        "Ġdij",
        "iste"
      ],
      [
        "Ġjam",
        "Ã¡s"
      ],
      [
        "r",
        "ero"
      ],
      [
        "Ġc",
        "ena"
      ],
      [
        "Ġest",
        "abas"
      ],
      [
        "Ġno",
        "via"
      ],
      [
        "re",
        "mos"
      ],
      [
        "Ġsu",
        "p"
      ],
      [
        "ĠÃ©",
        "s"
      ],
      [
        "Ġd",
        "ue"
      ],
      [
        "Ġd",
        "ame"
      ],
      [
        "Ġm",
        "ent"
      ],
      [
        "Ġme",
        "dio"
      ],
      [
        "Ġni",
        "Ã±a"
      ],
      [
        "Ġor",
        "gu"
      ],
      [
        "gn",
        "if"
      ],
      [
        "Ġlar",
        "go"
      ],
      [
        "g",
        "iÃ³"
      ],
      [
        "Ġt",
        "ran"
      ],
      [
        "Ġf",
        "Ãº"
      ],
      [
        "Ġj",
        "usto"
      ],
      [
        "Ġmon",
        "ta"
      ],
      [
        "ĠfÃº",
        "tbol"
      ],
      [
        "d",
        "iste"
      ],
      [
        "Ġl",
        "in"
      ],
      [
        "te",
        "ca"
      ],
      [
        "Ġal",
        "lÃ¡"
      ],
      [
        "ch",
        "os"
      ],
      [
        "Ġquier",
        "en"
      ],
      [
        "Ġva",
        "y"
      ],
      [
        "Ġgu",
        "ar"
      ],
      [
        "Ġcoci",
        "na"
      ],
      [
        "Ġtom",
        "a"
      ],
      [
        "Ġestar",
        "Ã©"
      ],
      [
        "Ġdu",
        "r"
      ],
      [
        "Ġlla",
        "ma"
      ],
      [
        "Ġe",
        "ran"
      ],
      [
        "Ġes",
        "os"
      ],
      [
        "Ġes",
        "ca"
      ],
      [
        "de",
        "dor"
      ],
      [
        "Ġab",
        "o"
      ],
      [
        "Ġres",
        "p"
      ],
      [
        "Ġtre",
        "inta"
      ],
      [
        "Ġsecre",
        "to"
      ],
      [
        "d",
        "ando"
      ],
      [
        "Ġs",
        "ac"
      ],
      [
        "Ġal",
        "mor"
      ],
      [
        "Ġsi",
        "gnif"
      ],
      [
        "Ġga",
        "tos"
      ],
      [
        "Ġpues",
        "to"
      ],
      [
        "Ġlen",
        "gua"
      ],
      [
        "Ġin",
        "me"
      ],
      [
        "Ġgu",
        "itar"
      ],
      [
        "Ġam",
        "or"
      ],
      [
        "tien",
        "e"
      ],
      [
        "Ġop",
        "in"
      ],
      [
        "uer",
        "zo"
      ],
      [
        "f",
        "ico"
      ],
      [
        "ar",
        "te"
      ],
      [
        "Ġn",
        "ar"
      ],
      [
        "Ġre",
        "la"
      ],
      [
        "Ġdeci",
        "siÃ³n"
      ],
      [
        "Ġestudi",
        "ante"
      ],
      [
        "ĠpÃ¡",
        "jar"
      ],
      [
        "Ġinme",
        "dia"
      ],
      [
        "p",
        "as"
      ],
      [
        "es",
        "to"
      ],
      [
        "tra",
        "do"
      ],
      [
        "Ġpr",
        "inci"
      ],
      [
        "Ġcar",
        "ne"
      ],
      [
        "Ġgan",
        "ar"
      ],
      [
        "Ġerr",
        "ores"
      ],
      [
        "Ġad",
        "mi"
      ],
      [
        "b",
        "u"
      ],
      [
        "d",
        "an"
      ],
      [
        "ic",
        "es"
      ],
      [
        "Ġvia",
        "je"
      ],
      [
        "Ġcanadien",
        "se"
      ],
      [
        "Ġl",
        "ÃŃ"
      ],
      [
        "Ġqu",
        "iz"
      ],
      [
        "Ġen",
        "o"
      ],
      [
        "Ġsi",
        "tu"
      ],
      [
        "Ġtr",
        "as"
      ],
      [
        "Ġll",
        "u"
      ],
      [
        "Ġent",
        "ien"
      ],
      [
        "er",
        "es"
      ],
      [
        "as",
        "o"
      ],
      [
        "ta",
        "dos"
      ],
      [
        "Ġgol",
        "pe"
      ],
      [
        "d",
        "ÃŃa"
      ],
      [
        "Ġt",
        "ÃŃo"
      ],
      [
        "Ġmujer",
        "es"
      ],
      [
        "ta",
        "d"
      ],
      [
        "Ġb",
        "ra"
      ],
      [
        "Ġsi",
        "tio"
      ],
      [
        "Ġin",
        "for"
      ],
      [
        "Ġpi",
        "ano"
      ],
      [
        "Ġcono",
        "ce"
      ],
      [
        "Ġvol",
        "viÃ³"
      ],
      [
        "Ġorgu",
        "llos"
      ],
      [
        "Ġc",
        "ri"
      ],
      [
        "Ġc",
        "ora"
      ],
      [
        "ta",
        "u"
      ],
      [
        "Ġcon",
        "ci"
      ],
      [
        "tu",
        "d"
      ],
      [
        "Ġescuch",
        "ar"
      ],
      [
        "podr",
        "ÃŃas"
      ],
      [
        "Ġacon",
        "se"
      ],
      [
        "Ġbib",
        "lio"
      ],
      [
        "Ġedi",
        "fici"
      ],
      [
        "a",
        "jo"
      ],
      [
        "t",
        "iendo"
      ],
      [
        "Ġcu",
        "ch"
      ],
      [
        "Ġsi",
        "gue"
      ],
      [
        "Ġcas",
        "o"
      ],
      [
        "Ġdeb",
        "emos"
      ],
      [
        "Ġpe",
        "le"
      ],
      [
        "Ġas",
        "unto"
      ],
      [
        "Ġtar",
        "ea"
      ],
      [
        "Ġba",
        "Ã±o"
      ],
      [
        "Ġll",
        "ue"
      ],
      [
        "Ġexp",
        "er"
      ],
      [
        "Ġmor",
        "ir"
      ],
      [
        "ĠprÃ³xi",
        "mo"
      ],
      [
        "Ġa",
        "mar"
      ],
      [
        "Ġd",
        "entro"
      ],
      [
        "Ġp",
        "us"
      ],
      [
        "Ġen",
        "ton"
      ],
      [
        "Ġcu",
        "atro"
      ],
      [
        "Ġfue",
        "go"
      ],
      [
        "Ġap",
        "enas"
      ],
      [
        "Ġres",
        "tau"
      ],
      [
        "Ġmon",
        "tÃ³n"
      ],
      [
        "ĠcuÃ¡n",
        "to"
      ],
      [
        "Ġequivo",
        "cado"
      ],
      [
        "Ġcomple",
        "tamente"
      ],
      [
        "h",
        "a"
      ],
      [
        "Ġten",
        "dr"
      ],
      [
        "vi",
        "o"
      ],
      [
        "lan",
        "te"
      ],
      [
        "tic",
        "as"
      ],
      [
        "Ġdesc",
        "an"
      ],
      [
        "Ġllor",
        "ar"
      ],
      [
        "Ġpelig",
        "ro"
      ],
      [
        "Ġsomb",
        "rero"
      ],
      [
        "Ġel",
        "lo"
      ],
      [
        "Ġsi",
        "l"
      ],
      [
        "Ġac",
        "aba"
      ],
      [
        "Ġma",
        "la"
      ],
      [
        "Ġcam",
        "isa"
      ],
      [
        "dÃŃ",
        "n"
      ],
      [
        "Ġne",
        "go"
      ],
      [
        "Ġ\"",
        "Â¿"
      ],
      [
        "Ġinten",
        "tar"
      ],
      [
        "Ġacab",
        "o"
      ],
      [
        "Ġbiblio",
        "teca"
      ],
      [
        "Ġenton",
        "ces"
      ],
      [
        "i",
        "re"
      ],
      [
        "Ġcon",
        "ten"
      ],
      [
        "Ġlo",
        "co"
      ],
      [
        "Ġper",
        "dÃŃ"
      ],
      [
        "Ġan",
        "ci"
      ],
      [
        "Ġdeci",
        "diÃ³"
      ],
      [
        "Ġnues",
        "tros"
      ],
      [
        "Ġhar",
        "ÃŃa"
      ],
      [
        "Ġprim",
        "er"
      ],
      [
        "Ġcons",
        "tru"
      ],
      [
        "Ġpap",
        "el"
      ],
      [
        "Ġaten",
        "ciÃ³n"
      ],
      [
        "ĠcompaÃ±",
        "ÃŃa"
      ],
      [
        "3",
        "0"
      ],
      [
        "c",
        "ciÃ³n"
      ],
      [
        "r",
        "Ã¡"
      ],
      [
        "v",
        "iste"
      ],
      [
        "Ġse",
        "gun"
      ],
      [
        "Ġesc",
        "al"
      ],
      [
        "Ġjar",
        "dÃŃn"
      ],
      [
        "?",
        "\""
      ],
      [
        "d",
        "iera"
      ],
      [
        "l",
        "ica"
      ],
      [
        "an",
        "za"
      ],
      [
        "Ġno",
        "ve"
      ],
      [
        "cu",
        "lo"
      ],
      [
        "Ġab",
        "ur"
      ],
      [
        "Ġemp",
        "i"
      ],
      [
        "Ġencon",
        "trÃ³"
      ],
      [
        "Ġsen",
        "tido"
      ],
      [
        "e",
        "me"
      ],
      [
        "g",
        "re"
      ],
      [
        "t",
        "Ãº"
      ],
      [
        "ĠÃ©",
        "xi"
      ],
      [
        "se",
        "gu"
      ],
      [
        "Ġca",
        "yÃ³"
      ],
      [
        "Ġfa",
        "mos"
      ],
      [
        "tu",
        "vo"
      ],
      [
        "Ġguitar",
        "ra"
      ],
      [
        "Ġm",
        "ensa"
      ],
      [
        "Ġde",
        "c"
      ],
      [
        "Ġel",
        "ec"
      ],
      [
        "Ġcom",
        "iÃ³"
      ],
      [
        "Ġcu",
        "er"
      ],
      [
        "tar",
        "se"
      ],
      [
        "Ġtra",
        "du"
      ],
      [
        "Ġsitu",
        "aciÃ³n"
      ],
      [
        "Ġre",
        "cuer"
      ],
      [
        "Ġcomp",
        "u"
      ],
      [
        "Ġab",
        "ri"
      ],
      [
        "Ġfin",
        "al"
      ],
      [
        "cre",
        "es"
      ],
      [
        "Ġtrabaj",
        "ando"
      ],
      [
        "Ġconsegu",
        "ir"
      ],
      [
        "Ġedifici",
        "o"
      ],
      [
        "ĠÃ©xi",
        "to"
      ],
      [
        "Ġprof",
        "un"
      ],
      [
        "Ġta",
        "za"
      ],
      [
        "ĠÃºn",
        "ica"
      ],
      [
        "Ġcamin",
        "ar"
      ],
      [
        "Ġdormi",
        "do"
      ],
      [
        "Ġblan",
        "co"
      ],
      [
        "Ġllu",
        "via"
      ],
      [
        "Ġal",
        "re"
      ],
      [
        "por",
        "te"
      ],
      [
        "Ġpr",
        "ue"
      ],
      [
        "tado",
        "r"
      ],
      [
        "Ġocur",
        "riÃ³"
      ],
      [
        "Ġexac",
        "tamente"
      ],
      [
        "c",
        "to"
      ],
      [
        "Ġe",
        "mb"
      ],
      [
        "Ġg",
        "al"
      ],
      [
        "Ġhab",
        "rÃŃa"
      ],
      [
        "ri",
        "dad"
      ],
      [
        "Ġas",
        "es"
      ],
      [
        "Ġven",
        "ga"
      ],
      [
        "Ġestar",
        "Ã¡"
      ],
      [
        "Ġbo",
        "ca"
      ],
      [
        "Ġcen",
        "ar"
      ],
      [
        "Ġbai",
        "lar"
      ],
      [
        "Ġprefier",
        "o"
      ],
      [
        "Ġrestau",
        "rante"
      ],
      [
        "m",
        "Ã¡"
      ],
      [
        "ar",
        "lo"
      ],
      [
        "ci",
        "na"
      ],
      [
        "ta",
        "da"
      ],
      [
        "Ġcon",
        "tar"
      ],
      [
        "Ġgu",
        "a"
      ],
      [
        "Ġclas",
        "es"
      ],
      [
        "Ġdiver",
        "tido"
      ],
      [
        "Ġment",
        "ir"
      ],
      [
        "Ã",
        "¼"
      ],
      [
        "ta",
        "ciÃ³n"
      ],
      [
        "Ġal",
        "m"
      ],
      [
        "Ġmu",
        "erto"
      ],
      [
        "Ġdi",
        "me"
      ],
      [
        "Ġcu",
        "i"
      ],
      [
        "Ãº",
        "b"
      ],
      [
        "Ġac",
        "tu"
      ],
      [
        "Ġpre",
        "fer"
      ],
      [
        "Ġesp",
        "eci"
      ],
      [
        "Ġhue",
        "vos"
      ],
      [
        "c",
        "en"
      ],
      [
        "f",
        "ri"
      ],
      [
        "Ġp",
        "ena"
      ],
      [
        "Ġayudar",
        "te"
      ],
      [
        "Ġsue",
        "lo"
      ],
      [
        "Ġdue",
        "le"
      ],
      [
        "Ġ",
        "k"
      ],
      [
        "Ġa",
        "ire"
      ],
      [
        "Ġcon",
        "tin"
      ],
      [
        "Ġb",
        "il"
      ],
      [
        "Ġj",
        "e"
      ],
      [
        "Ġan",
        "ti"
      ],
      [
        "Ġpe",
        "dÃŃ"
      ],
      [
        "Ġson",
        "r"
      ],
      [
        "ce",
        "l"
      ],
      [
        "Ġconf",
        "iar"
      ],
      [
        "Ġpeque",
        "Ã±a"
      ],
      [
        "Ġpla",
        "ya"
      ],
      [
        "Ġley",
        "endo"
      ],
      [
        "Ġabr",
        "ir"
      ],
      [
        "Ġdisf",
        "ru"
      ],
      [
        "Ġa",
        "un"
      ],
      [
        "Ġm",
        "ÃŃa"
      ],
      [
        "Ġi",
        "gu"
      ],
      [
        "Ġr",
        "en"
      ],
      [
        "Ġestu",
        "ve"
      ],
      [
        "Ġplan",
        "e"
      ],
      [
        "Ġuni",
        "vers"
      ],
      [
[...]
